{
  "version": "1.0",
  "truncation": null,
  "padding": null,
  "added_tokens": [
    {
      "id": 0,
      "content": "<unk>",
      "single_word": false,
      "lstrip": false,
      "rstrip": false,
      "normalized": false,
      "special": true
    },
    {
      "id": 1,
      "content": "<pad>",
      "single_word": false,
      "lstrip": false,
      "rstrip": false,
      "normalized": false,
      "special": true
    },
    {
      "id": 2,
      "content": "<mask>",
      "single_word": false,
      "lstrip": false,
      "rstrip": false,
      "normalized": false,
      "special": true
    },
    {
      "id": 3,
      "content": "<s>",
      "single_word": false,
      "lstrip": false,
      "rstrip": false,
      "normalized": false,
      "special": true
    },
    {
      "id": 4,
      "content": "</s>",
      "single_word": false,
      "lstrip": false,
      "rstrip": false,
      "normalized": false,
      "special": true
    }
  ],
  "normalizer": {
    "type": "NFKC"
  },
  "pre_tokenizer": {
    "type": "Metaspace",
    "replacement": "▁",
    "prepend_scheme": "always",
    "split": true
  },
  "post_processor": null,
  "decoder": {
    "type": "ByteLevel",
    "add_prefix_space": true,
    "trim_offsets": true,
    "use_regex": true
  },
  "model": {
    "type": "BPE",
    "dropout": null,
    "unk_token": "<unk>",
    "continuing_subword_prefix": null,
    "end_of_word_suffix": null,
    "fuse_unk": false,
    "byte_fallback": false,
    "ignore_merges": false,
    "vocab": {
      "<unk>": 0,
      "<pad>": 1,
      "<mask>": 2,
      "<s>": 3,
      "</s>": 4,
      "\n": 5,
      "!": 6,
      "\"": 7,
      "#": 8,
      "$": 9,
      "%": 10,
      "&": 11,
      "'": 12,
      "(": 13,
      ")": 14,
      "*": 15,
      "+": 16,
      ",": 17,
      "-": 18,
      ".": 19,
      "/": 20,
      "0": 21,
      "1": 22,
      "2": 23,
      "3": 24,
      "4": 25,
      "5": 26,
      "6": 27,
      "7": 28,
      "8": 29,
      "9": 30,
      ":": 31,
      ";": 32,
      "<": 33,
      "=": 34,
      ">": 35,
      "?": 36,
      "@": 37,
      "A": 38,
      "B": 39,
      "C": 40,
      "D": 41,
      "E": 42,
      "F": 43,
      "G": 44,
      "H": 45,
      "I": 46,
      "J": 47,
      "K": 48,
      "L": 49,
      "M": 50,
      "N": 51,
      "O": 52,
      "P": 53,
      "Q": 54,
      "R": 55,
      "S": 56,
      "T": 57,
      "U": 58,
      "V": 59,
      "W": 60,
      "X": 61,
      "Y": 62,
      "Z": 63,
      "[": 64,
      "\\": 65,
      "]": 66,
      "^": 67,
      "_": 68,
      "`": 69,
      "a": 70,
      "b": 71,
      "c": 72,
      "d": 73,
      "e": 74,
      "f": 75,
      "g": 76,
      "h": 77,
      "i": 78,
      "j": 79,
      "k": 80,
      "l": 81,
      "m": 82,
      "n": 83,
      "o": 84,
      "p": 85,
      "q": 86,
      "r": 87,
      "s": 88,
      "t": 89,
      "u": 90,
      "v": 91,
      "w": 92,
      "x": 93,
      "y": 94,
      "z": 95,
      "{": 96,
      "|": 97,
      "}": 98,
      "~": 99,
      "¡": 100,
      "¢": 101,
      "£": 102,
      "¤": 103,
      "¥": 104,
      "¦": 105,
      "§": 106,
      "¨": 107,
      "©": 108,
      "ª": 109,
      "«": 110,
      "¬": 111,
      "®": 112,
      "¯": 113,
      "°": 114,
      "±": 115,
      "²": 116,
      "³": 117,
      "´": 118,
      "µ": 119,
      "¶": 120,
      "·": 121,
      "¸": 122,
      "¹": 123,
      "º": 124,
      "»": 125,
      "¼": 126,
      "½": 127,
      "¾": 128,
      "¿": 129,
      "À": 130,
      "Á": 131,
      "Â": 132,
      "Ã": 133,
      "Ä": 134,
      "Å": 135,
      "Æ": 136,
      "Ç": 137,
      "È": 138,
      "É": 139,
      "Ê": 140,
      "Ë": 141,
      "Ì": 142,
      "Í": 143,
      "Î": 144,
      "Ï": 145,
      "Ð": 146,
      "Ñ": 147,
      "Ò": 148,
      "Ó": 149,
      "Ô": 150,
      "Õ": 151,
      "Ö": 152,
      "×": 153,
      "Ø": 154,
      "Ù": 155,
      "Ú": 156,
      "Û": 157,
      "Ü": 158,
      "Ý": 159,
      "Þ": 160,
      "ß": 161,
      "à": 162,
      "á": 163,
      "â": 164,
      "ã": 165,
      "ä": 166,
      "å": 167,
      "æ": 168,
      "ç": 169,
      "è": 170,
      "é": 171,
      "ê": 172,
      "ë": 173,
      "ì": 174,
      "í": 175,
      "î": 176,
      "ï": 177,
      "ð": 178,
      "ñ": 179,
      "ò": 180,
      "ó": 181,
      "ô": 182,
      "õ": 183,
      "ö": 184,
      "÷": 185,
      "ø": 186,
      "ù": 187,
      "ú": 188,
      "û": 189,
      "ü": 190,
      "ý": 191,
      "þ": 192,
      "ÿ": 193,
      "Ā": 194,
      "ā": 195,
      "Ă": 196,
      "ă": 197,
      "Ą": 198,
      "ą": 199,
      "Ć": 200,
      "ć": 201,
      "Ĉ": 202,
      "ĉ": 203,
      "Ċ": 204,
      "ċ": 205,
      "Č": 206,
      "č": 207,
      "Ď": 208,
      "ď": 209,
      "Đ": 210,
      "đ": 211,
      "Ē": 212,
      "ē": 213,
      "Ĕ": 214,
      "ĕ": 215,
      "Ė": 216,
      "ė": 217,
      "Ę": 218,
      "ę": 219,
      "Ě": 220,
      "ě": 221,
      "Ĝ": 222,
      "ĝ": 223,
      "Ğ": 224,
      "ğ": 225,
      "Ġ": 226,
      "ġ": 227,
      "Ģ": 228,
      "ģ": 229,
      "Ĥ": 230,
      "ĥ": 231,
      "Ħ": 232,
      "ħ": 233,
      "Ĩ": 234,
      "ĩ": 235,
      "Ī": 236,
      "ī": 237,
      "Ĭ": 238,
      "ĭ": 239,
      "Į": 240,
      "į": 241,
      "İ": 242,
      "ı": 243,
      "Ĳ": 244,
      "ĳ": 245,
      "Ĵ": 246,
      "ĵ": 247,
      "Ķ": 248,
      "ķ": 249,
      "ĸ": 250,
      "Ĺ": 251,
      "ĺ": 252,
      "Ļ": 253,
      "ļ": 254,
      "Ľ": 255,
      "ľ": 256,
      "Ŀ": 257,
      "ŀ": 258,
      "Ł": 259,
      "ł": 260,
      "Ń": 261,
      "—": 262,
      "“": 263,
      "”": 264,
      "▁": 265,
      "、": 266,
      "。": 267,
      "《": 268,
      "》": 269,
      "一": 270,
      "万": 271,
      "三": 272,
      "上": 273,
      "下": 274,
      "不": 275,
      "与": 276,
      "专": 277,
      "且": 278,
      "世": 279,
      "业": 280,
      "东": 281,
      "两": 282,
      "严": 283,
      "个": 284,
      "中": 285,
      "临": 286,
      "为": 287,
      "主": 288,
      "举": 289,
      "么": 290,
      "义": 291,
      "之": 292,
      "乐": 293,
      "也": 294,
      "习": 295,
      "乡": 296,
      "书": 297,
      "了": 298,
      "争": 299,
      "事": 300,
      "二": 301,
      "于": 302,
      "互": 303,
      "五": 304,
      "亚": 305,
      "些": 306,
      "交": 307,
      "产": 308,
      "京": 309,
      "亲": 310,
      "人": 311,
      "亿": 312,
      "什": 313,
      "仅": 314,
      "今": 315,
      "介": 316,
      "从": 317,
      "他": 318,
      "代": 319,
      "以": 320,
      "们": 321,
      "件": 322,
      "价": 323,
      "任": 324,
      "份": 325,
      "企": 326,
      "众": 327,
      "优": 328,
      "会": 329,
      "传": 330,
      "伤": 331,
      "但": 332,
      "位": 333,
      "低": 334,
      "住": 335,
      "体": 336,
      "何": 337,
      "余": 338,
      "作": 339,
      "你": 340,
      "使": 341,
      "例": 342,
      "供": 343,
      "依": 344,
      "便": 345,
      "促": 346,
      "保": 347,
      "信": 348,
      "修": 349,
      "候": 350,
      "值": 351,
      "做": 352,
      "健": 353,
      "像": 354,
      "儿": 355,
      "元": 356,
      "充": 357,
      "先": 358,
      "光": 359,
      "克": 360,
      "免": 361,
      "党": 362,
      "入": 363,
      "全": 364,
      "八": 365,
      "公": 366,
      "六": 367,
      "共": 368,
      "关": 369,
      "兴": 370,
      "其": 371,
      "具": 372,
      "养": 373,
      "内": 374,
      "再": 375,
      "军": 376,
      "农": 377,
      "决": 378,
      "况": 379,
      "冷": 380,
      "准": 381,
      "减": 382,
      "几": 383,
      "出": 384,
      "分": 385,
      "切": 386,
      "划": 387,
      "列": 388,
      "则": 389,
      "创": 390,
      "初": 391,
      "利": 392,
      "别": 393,
      "到": 394,
      "制": 395,
      "剂": 396,
      "前": 397,
      "剧": 398,
      "副": 399,
      "力": 400,
      "办": 401,
      "功": 402,
      "加": 403,
      "务": 404,
      "动": 405,
      "助": 406,
      "势": 407,
      "包": 408,
      "化": 409,
      "北": 410,
      "区": 411,
      "医": 412,
      "十": 413,
      "升": 414,
      "半": 415,
      "华": 416,
      "协": 417,
      "单": 418,
      "南": 419,
      "博": 420,
      "占": 421,
      "卫": 422,
      "印": 423,
      "即": 424,
      "却": 425,
      "厂": 426,
      "历": 427,
      "压": 428,
      "原": 429,
      "去": 430,
      "县": 431,
      "参": 432,
      "又": 433,
      "及": 434,
      "友": 435,
      "双": 436,
      "反": 437,
      "发": 438,
      "取": 439,
      "受": 440,
      "变": 441,
      "口": 442,
      "古": 443,
      "另": 444,
      "只": 445,
      "可": 446,
      "台": 447,
      "史": 448,
      "号": 449,
      "司": 450,
      "吃": 451,
      "各": 452,
      "合": 453,
      "同": 454,
      "名": 455,
      "后": 456,
      "向": 457,
      "含": 458,
      "吸": 459,
      "告": 460,
      "员": 461,
      "周": 462,
      "味": 463,
      "命": 464,
      "和": 465,
      "品": 466,
      "响": 467,
      "售": 468,
      "商": 469,
      "善": 470,
      "喜": 471,
      "器": 472,
      "四": 473,
      "回": 474,
      "因": 475,
      "团": 476,
      "园": 477,
      "围": 478,
      "固": 479,
      "国": 480,
      "图": 481,
      "土": 482,
      "在": 483,
      "地": 484,
      "场": 485,
      "均": 486,
      "坚": 487,
      "型": 488,
      "城": 489,
      "域": 490,
      "培": 491,
      "基": 492,
      "境": 493,
      "增": 494,
      "士": 495,
      "声": 496,
      "处": 497,
      "备": 498,
      "复": 499,
      "外": 500,
      "多": 501,
      "够": 502,
      "大": 503,
      "天": 504,
      "太": 505,
      "央": 506,
      "失": 507,
      "头": 508,
      "奖": 509,
      "女": 510,
      "她": 511,
      "好": 512,
      "如": 513,
      "始": 514,
      "委": 515,
      "子": 516,
      "字": 517,
      "存": 518,
      "季": 519,
      "学": 520,
      "孩": 521,
      "它": 522,
      "安": 523,
      "完": 524,
      "官": 525,
      "定": 526,
      "宝": 527,
      "实": 528,
      "审": 529,
      "客": 530,
      "宣": 531,
      "室": 532,
      "害": 533,
      "家": 534,
      "容": 535,
      "密": 536,
      "富": 537,
      "对": 538,
      "导": 539,
      "将": 540,
      "小": 541,
      "少": 542,
      "尔": 543,
      "就": 544,
      "尽": 545,
      "局": 546,
      "层": 547,
      "居": 548,
      "展": 549,
      "属": 550,
      "山": 551,
      "州": 552,
      "工": 553,
      "差": 554,
      "己": 555,
      "已": 556,
      "巴": 557,
      "市": 558,
      "布": 559,
      "师": 560,
      "希": 561,
      "带": 562,
      "帮": 563,
      "常": 564,
      "干": 565,
      "平": 566,
      "年": 567,
      "并": 568,
      "广": 569,
      "应": 570,
      "底": 571,
      "府": 572,
      "度": 573,
      "康": 574,
      "建": 575,
      "开": 576,
      "式": 577,
      "引": 578,
      "张": 579,
      "强": 580,
      "当": 581,
      "形": 582,
      "影": 583,
      "往": 584,
      "征": 585,
      "很": 586,
      "律": 587,
      "得": 588,
      "微": 589,
      "德": 590,
      "心": 591,
      "必": 592,
      "志": 593,
      "快": 594,
      "念": 595,
      "态": 596,
      "思": 597,
      "性": 598,
      "总": 599,
      "息": 600,
      "患": 601,
      "情": 602,
      "想": 603,
      "意": 604,
      "感": 605,
      "成": 606,
      "我": 607,
      "或": 608,
      "战": 609,
      "户": 610,
      "房": 611,
      "所": 612,
      "手": 613,
      "才": 614,
      "打": 615,
      "执": 616,
      "批": 617,
      "承": 618,
      "技": 619,
      "把": 620,
      "投": 621,
      "抗": 622,
      "护": 623,
      "报": 624,
      "担": 625,
      "拉": 626,
      "择": 627,
      "括": 628,
      "持": 629,
      "指": 630,
      "按": 631,
      "据": 632,
      "排": 633,
      "接": 634,
      "控": 635,
      "推": 636,
      "提": 637,
      "支": 638,
      "收": 639,
      "改": 640,
      "放": 641,
      "政": 642,
      "故": 643,
      "效": 644,
      "教": 645,
      "数": 646,
      "整": 647,
      "文": 648,
      "料": 649,
      "断": 650,
      "斯": 651,
      "新": 652,
      "方": 653,
      "施": 654,
      "旅": 655,
      "族": 656,
      "无": 657,
      "日": 658,
      "早": 659,
      "时": 660,
      "明": 661,
      "易": 662,
      "星": 663,
      "春": 664,
      "是": 665,
      "显": 666,
      "普": 667,
      "景": 668,
      "智": 669,
      "更": 670,
      "曾": 671,
      "最": 672,
      "月": 673,
      "有": 674,
      "服": 675,
      "望": 676,
      "期": 677,
      "木": 678,
      "未": 679,
      "本": 680,
      "术": 681,
      "机": 682,
      "权": 683,
      "李": 684,
      "材": 685,
      "村": 686,
      "条": 687,
      "来": 688,
      "板": 689,
      "极": 690,
      "构": 691,
      "析": 692,
      "林": 693,
      "果": 694,
      "染": 695,
      "查": 696,
      "标": 697,
      "校": 698,
      "样": 699,
      "核": 700,
      "根": 701,
      "格": 702,
      "案": 703,
      "检": 704,
      "模": 705,
      "次": 706,
      "款": 707,
      "止": 708,
      "正": 709,
      "此": 710,
      "步": 711,
      "段": 712,
      "每": 713,
      "毒": 714,
      "比": 715,
      "民": 716,
      "气": 717,
      "水": 718,
      "求": 719,
      "江": 720,
      "污": 721,
      "汽": 722,
      "没": 723,
      "河": 724,
      "油": 725,
      "治": 726,
      "法": 727,
      "注": 728,
      "活": 729,
      "流": 730,
      "测": 731,
      "济": 732,
      "海": 733,
      "消": 734,
      "液": 735,
      "深": 736,
      "清": 737,
      "温": 738,
      "游": 739,
      "源": 740,
      "满": 741,
      "演": 742,
      "激": 743,
      "火": 744,
      "炎": 745,
      "点": 746,
      "热": 747,
      "然": 748,
      "照": 749,
      "爱": 750,
      "片": 751,
      "牌": 752,
      "物": 753,
      "特": 754,
      "状": 755,
      "独": 756,
      "率": 757,
      "王": 758,
      "环": 759,
      "现": 760,
      "班": 761,
      "球": 762,
      "理": 763,
      "生": 764,
      "用": 765,
      "由": 766,
      "电": 767,
      "男": 768,
      "画": 769,
      "界": 770,
      "留": 771,
      "略": 772,
      "疗": 773,
      "疫": 774,
      "疾": 775,
      "病": 776,
      "症": 777,
      "癜": 778,
      "白": 779,
      "百": 780,
      "的": 781,
      "皮": 782,
      "益": 783,
      "监": 784,
      "目": 785,
      "直": 786,
      "相": 787,
      "省": 788,
      "看": 789,
      "真": 790,
      "眼": 791,
      "着": 792,
      "知": 793,
      "石": 794,
      "研": 795,
      "破": 796,
      "础": 797,
      "确": 798,
      "示": 799,
      "社": 800,
      "神": 801,
      "福": 802,
      "离": 803,
      "种": 804,
      "科": 805,
      "积": 806,
      "称": 807,
      "程": 808,
      "税": 809,
      "稳": 810,
      "究": 811,
      "空": 812,
      "突": 813,
      "立": 814,
      "站": 815,
      "第": 816,
      "等": 817,
      "筑": 818,
      "策": 819,
      "简": 820,
      "算": 821,
      "管": 822,
      "米": 823,
      "类": 824,
      "精": 825,
      "系": 826,
      "素": 827,
      "紧": 828,
      "红": 829,
      "约": 830,
      "级": 831,
      "纪": 832,
      "线": 833,
      "组": 834,
      "细": 835,
      "织": 836,
      "终": 837,
      "经": 838,
      "结": 839,
      "给": 840,
      "统": 841,
      "继": 842,
      "续": 843,
      "维": 844,
      "缺": 845,
      "网": 846,
      "罗": 847,
      "置": 848,
      "美": 849,
      "群": 850,
      "老": 851,
      "考": 852,
      "者": 853,
      "而": 854,
      "职": 855,
      "联": 856,
      "聚": 857,
      "股": 858,
      "育": 859,
      "能": 860,
      "自": 861,
      "至": 862,
      "致": 863,
      "般": 864,
      "良": 865,
      "色": 866,
      "艺": 867,
      "节": 868,
      "花": 869,
      "英": 870,
      "范": 871,
      "药": 872,
      "获": 873,
      "营": 874,
      "落": 875,
      "著": 876,
      "融": 877,
      "血": 878,
      "行": 879,
      "补": 880,
      "表": 881,
      "被": 882,
      "装": 883,
      "西": 884,
      "要": 885,
      "见": 886,
      "观": 887,
      "规": 888,
      "视": 889,
      "觉": 890,
      "角": 891,
      "解": 892,
      "言": 893,
      "计": 894,
      "认": 895,
      "让": 896,
      "训": 897,
      "议": 898,
      "记": 899,
      "讲": 900,
      "许": 901,
      "论": 902,
      "设": 903,
      "证": 904,
      "评": 905,
      "识": 906,
      "试": 907,
      "话": 908,
      "该": 909,
      "语": 910,
      "说": 911,
      "请": 912,
      "课": 913,
      "调": 914,
      "象": 915,
      "负": 916,
      "财": 917,
      "责": 918,
      "质": 919,
      "购": 920,
      "费": 921,
      "资": 922,
      "赛": 923,
      "走": 924,
      "起": 925,
      "超": 926,
      "越": 927,
      "足": 928,
      "路": 929,
      "身": 930,
      "车": 931,
      "转": 932,
      "轻": 933,
      "较": 934,
      "输": 935,
      "边": 936,
      "达": 937,
      "过": 938,
      "运": 939,
      "近": 940,
      "还": 941,
      "这": 942,
      "进": 943,
      "远": 944,
      "连": 945,
      "送": 946,
      "适": 947,
      "选": 948,
      "通": 949,
      "速": 950,
      "造": 951,
      "道": 952,
      "那": 953,
      "部": 954,
      "都": 955,
      "配": 956,
      "酒": 957,
      "酸": 958,
      "采": 959,
      "里": 960,
      "重": 961,
      "量": 962,
      "金": 963,
      "钢": 964,
      "铁": 965,
      "银": 966,
      "销": 967,
      "长": 968,
      "门": 969,
      "问": 970,
      "间": 971,
      "队": 972,
      "防": 973,
      "阳": 974,
      "际": 975,
      "降": 976,
      "限": 977,
      "院": 978,
      "除": 979,
      "险": 980,
      "随": 981,
      "障": 982,
      "难": 983,
      "集": 984,
      "需": 985,
      "青": 986,
      "非": 987,
      "面": 988,
      "革": 989,
      "音": 990,
      "项": 991,
      "须": 992,
      "预": 993,
      "领": 994,
      "题": 995,
      "风": 996,
      "食": 997,
      "首": 998,
      "香": 999,
      "马": 1000,
      "验": 1001,
      "高": 1002,
      "黄": 1003,
      "龙": 1004,
      "。\n": 1005,
      "20": 1006,
      "发展": 1007,
      "工作": 1008,
      "中国": 1009,
      "可以": 1010,
      "的,": 1011,
      "我们": 1012,
      "公司": 1013,
      "企业": 1014,
      "一个": 1015,
      ",在": 1016,
      "00": 1017,
      ",不": 1018,
      "技术": 1019,
      "自己": 1020,
      ",这": 1021,
      "服务": 1022,
      "管理": 1023,
      "国家": 1024,
      "进行": 1025,
      ",但": 1026,
      "建设": 1027,
      "产品": 1028,
      "社会": 1029,
      "中,": 1030,
      "问题": 1031,
      "教育": 1032,
      ",是": 1033,
      "没有": 1034,
      "201": 1035,
      ",以": 1036,
      "、、": 1037,
      ",而": 1038,
      "生产": 1039,
      "使用": 1040,
      ",也": 1041,
      ",并": 1042,
      "需要": 1043,
      "经济": 1044,
      "后,": 1045,
      "时,": 1046,
      "市场": 1047,
      "通过": 1048,
      "就是": 1049,
      "生活": 1050,
      "重要": 1051,
      "研究": 1052,
      ",有": 1053,
      "安全": 1054,
      "主要": 1055,
      "专业": 1056,
      "的人": 1057,
      "10": 1058,
      "如果": 1059,
      "时间": 1060,
      ",一": 1061,
      "项目": 1062,
      "▁,": 1063,
      "他们": 1064,
      "工程": 1065,
      "方面": 1066,
      ",其": 1067,
      "治疗": 1068,
      "人民": 1069,
      "文化": 1070,
      "系统": 1071,
      ",为": 1072,
      "要求": 1073,
      "具有": 1074,
      "19": 1075,
      "世界": 1076,
      "环境": 1077,
      "提供": 1078,
      "影响": 1079,
      "可能": 1080,
      "情况": 1081,
      "的。": 1082,
      "学生": 1083,
      "行业": 1084,
      "什么": 1085,
      "质量": 1086,
      ",对": 1087,
      ",我": 1088,
      "设计": 1089,
      "因为": 1090,
      "学习": 1091,
      "设备": 1092,
      "。在": 1093,
      "产业": 1094,
      "好的": 1095,
      "能力": 1096,
      "所以": 1097,
      "的一": 1098,
      "活动": 1099,
      "。这": 1100,
      "创新": 1101,
      "患者": 1102,
      "组织": 1103,
      "上,": 1104,
      "提高": 1105,
      "。”": 1106,
      "大的": 1107,
      "信息": 1108,
      "作为": 1109,
      "人的": 1110,
      "中的": 1111,
      "精神": 1112,
      "中心": 1113,
      "”的": 1114,
      "来,": 1115,
      "人员": 1116,
      "成为": 1117,
      "不同": 1118,
      "作用": 1119,
      "是一": 1120,
      "很多": 1121,
      "政府": 1122,
      "出现": 1123,
      "年,": 1124,
      "这个": 1125,
      "学校": 1126,
      "国际": 1127,
      "”,": 1128,
      "大学": 1129,
      "实现": 1130,
      "非常": 1131,
      "下,": 1132,
      "第一": 1133,
      "材料": 1134,
      "选择": 1135,
      "健康": 1136,
      "已经": 1137,
      "相关": 1138,
      "全国": 1139,
      "科学": 1140,
      "科技": 1141,
      "合作": 1142,
      "过程": 1143,
      "自己的": 1144,
      "根据": 1145,
      "人,": 1146,
      "处理": 1147,
      "目前": 1148,
      "时候": 1149,
      "因此": 1150,
      "了,": 1151,
      "城市": 1152,
      "投资": 1153,
      ":\n": 1154,
      "12": 1155,
      "发生": 1156,
      "基础": 1157,
      "一些": 1158,
      "部门": 1159,
      "标准": 1160,
      "孩子": 1161,
      "单位": 1162,
      ",还": 1163,
      "方式": 1164,
      "到了": 1165,
      "的是": 1166,
      "一定": 1167,
      "大家": 1168,
      "部分": 1169,
      "其他": 1170,
      "医院": 1171,
      ",从": 1172,
      "能够": 1173,
      "应用": 1174,
      "表示": 1175,
      "200": 1176,
      "。\n2": 1177,
      "以及": 1178,
      "不是": 1179,
      "建筑": 1180,
      "数据": 1181,
      "主义": 1182,
      "同时": 1183,
      "都是": 1184,
      "历史": 1185,
      "11": 1186,
      "有限": 1187,
      ",就": 1188,
      "工业": 1189,
      "以上": 1190,
      "开始": 1191,
      "全面": 1192,
      "方法": 1193,
      ":“": 1194,
      "▁、": 1195,
      "包括": 1196,
      "说,": 1197,
      "资源": 1198,
      "集团": 1199,
      "功能": 1200,
      "白癜": 1201,
      "保护": 1202,
      "坚持": 1203,
      "白癜风": 1204,
      "开展": 1205,
      "或者": 1206,
      "获得": 1207,
      "日,": 1208,
      "必须": 1209,
      "规定": 1210,
      "地区": 1211,
      ",他": 1212,
      "。\n3": 1213,
      "积极": 1214,
      "水平": 1215,
      "由于": 1216,
      "增长": 1217,
      "领域": 1218,
      "代表": 1219,
      "提升": 1220,
      "结构": 1221,
      ",我们": 1222,
      "现在": 1223,
      "领导": 1224,
      "1.": 1225,
      "202": 1226,
      "比较": 1227,
      "注意": 1228,
      "机构": 1229,
      "对于": 1230,
      "美国": 1231,
      "不能": 1232,
      "加强": 1233,
      "北京": 1234,
      "30": 1235,
      "的“": 1236,
      "15": 1237,
      "一步": 1238,
      "时代": 1239,
      "了解": 1240,
      "增加": 1241,
      "?\n": 1242,
      "年的": 1243,
      "控制": 1244,
      "也是": 1245,
      "责任": 1246,
      "这样": 1247,
      "基本": 1248,
      "平台": 1249,
      "形成": 1250,
      "第二": 1251,
      "个人": 1252,
      "完成": 1253,
      "客户": 1254,
      "品牌": 1255,
      "现代": 1256,
      "改革": 1257,
      "有限公司": 1258,
      "新的": 1259,
      "导致": 1260,
      "思想": 1261,
      "不断": 1262,
      "关系": 1263,
      "国内": 1264,
      "学院": 1265,
      "上的": 1266,
      "政策": 1267,
      "内容": 1268,
      "需求": 1269,
      "教学": 1270,
      "解决": 1271,
      ",可": 1272,
      "制造": 1273,
      "人才": 1274,
      "发现": 1275,
      "分析": 1276,
      "推进": 1277,
      "那么": 1278,
      "体系": 1279,
      "各种": 1280,
      "认为": 1281,
      "外,": 1282,
      "经营": 1283,
      "更加": 1284,
      "一般": 1285,
      "希望": 1286,
      "产生": 1287,
      "重点": 1288,
      "政治": 1289,
      "的。\n": 1290,
      "利用": 1291,
      ",如": 1292,
      "自然": 1293,
      "元,": 1294,
      "大,": 1295,
      "制度": 1296,
      "这些": 1297,
      "会议": 1298,
      "用于": 1299,
      "造成": 1300,
      "开发": 1301,
      "党的": 1302,
      "目标": 1303,
      ",让": 1304,
      "实施": 1305,
      "容易": 1306,
      "存在": 1307,
      ",所以": 1308,
      "采用": 1309,
      "推动": 1310,
      "所有": 1311,
      "中央": 1312,
      "支持": 1313,
      "了一": 1314,
      "汽车": 1315,
      "书记": 1316,
      "▁。": 1317,
      "效果": 1318,
      "传统": 1319,
      "特色": 1320,
      "有关": 1321,
      "疾病": 1322,
      "不会": 1323,
      ",可以": 1324,
      "知道": 1325,
      "的时候": 1326,
      "。\n(": 1327,
      "消费": 1328,
      "知识": 1329,
      "我国": 1330,
      ",使": 1331,
      "达到": 1332,
      "业务": 1333,
      "特别": 1334,
      "建立": 1335,
      "应该": 1336,
      ",大": 1337,
      "条件": 1338,
      "保持": 1339,
      "地方": 1340,
      "分,": 1341,
      "结合": 1342,
      "价格": 1343,
      "有效": 1344,
      "进一步": 1345,
      "1、": 1346,
      "实际": 1347,
      "负责": 1348,
      "100": 1349,
      "身体": 1350,
      "”。": 1351,
      "的大": 1352,
      "50": 1353,
      "提出": 1354,
      ",只": 1355,
      "职业": 1356,
      "持续": 1357,
      "——": 1358,
      "。\n在": 1359,
      "还是": 1360,
      ",要": 1361,
      "取得": 1362,
      ",将": 1363,
      "智能": 1364,
      "艺术": 1365,
      "全球": 1366,
      "原因": 1367,
      "之一": 1368,
      "培养": 1369,
      "比赛": 1370,
      "如何": 1371,
      ",但是": 1372,
      "优势": 1373,
      "价值": 1374,
      "促进": 1375,
      "战略": 1376,
      "上海": 1377,
      "成功": 1378,
      "直接": 1379,
      "计划": 1380,
      "保障": 1381,
      "力,": 1382,
      "18": 1383,
      "销售": 1384,
      "稳定": 1385,
      "更多": 1386,
      "人们": 1387,
      "检查": 1388,
      "事业": 1389,
      "帮助": 1390,
      "行为": 1391,
      "进入": 1392,
      "来的": 1393,
      "委员": 1394,
      "一起": 1395,
      "食品": 1396,
      "这种": 1397,
      "运动": 1398,
      "生态": 1399,
      "。\n4": 1400,
      "参加": 1401,
      "随着": 1402,
      "规划": 1403,
      ",然": 1404,
      "共同": 1405,
      "了。": 1406,
      "用户": 1407,
      "月2": 1408,
      "医疗": 1409,
      "之间": 1410,
      "旅游": 1411,
      "为了": 1412,
      "落实": 1413,
      "法律": 1414,
      "电子": 1415,
      "民族": 1416,
      ",“": 1417,
      "金融": 1418,
      ",而且": 1419,
      "。但": 1420,
      "严重": 1421,
      "性能": 1422,
      "教师": 1423,
      "16": 1424,
      "及时": 1425,
      "交通": 1426,
      "第三": 1427,
      "充分": 1428,
      "按照": 1429,
      "加工": 1430,
      "的发展": 1431,
      "),": 1432,
      "得到": 1433,
      "核心": 1434,
      "能源": 1435,
      "任何": 1436,
      "关于": 1437,
      "这一": 1438,
      "培训": 1439,
      ",最": 1440,
      "才能": 1441,
      ",你": 1442,
      "继续": 1443,
      "减少": 1444,
      "报告": 1445,
      "超过": 1446,
      "两个": 1447,
      "完善": 1448,
      "发展的": 1449,
      "%,": 1450,
      "14": 1451,
      "今年": 1452,
      "。”\n": 1453,
      "范围": 1454,
      "专家": 1455,
      "方案": 1456,
      "规模": 1457,
      "性的": 1458,
      "社会主义": 1459,
      "生物": 1460,
      "13": 1461,
      "引起": 1462,
      "!\n": 1463,
      "系列": 1464,
      "经过": 1465,
      "模式": 1466,
      "指导": 1467,
      "出,": 1468,
      "成本": 1469,
      "受到": 1470,
      "1年": 1471,
      "一种": 1472,
      "施工": 1473,
      "表现": 1474,
      ",如果": 1475,
      "许多": 1476,
      "联网": 1477,
      "是在": 1478,
      "中华": 1479,
      "月,": 1480,
      "体育": 1481,
      "长期": 1482,
      "重大": 1483,
      "参与": 1484,
      "理论": 1485,
      "因素": 1486,
      "性,": 1487,
      "力量": 1488,
      "成立": 1489,
      "经验": 1490,
      "保证": 1491,
      "变化": 1492,
      "2年": 1493,
      "有的": 1494,
      "做好": 1495,
      "。而": 1496,
      "。其": 1497,
      "群众": 1498,
      "行政": 1499,
      "风险": 1500,
      "检测": 1501,
      "一次": 1502,
      "研发": 1503,
      "任务": 1504,
      "交流": 1505,
      "化、": 1506,
      "的重要": 1507,
      "同时,": 1508,
      "空间": 1509,
      ",它": 1510,
      "应当": 1511,
      "降低": 1512,
      "近平": 1513,
      ")、": 1514,
      "工作,": 1515,
      "先进": 1516,
      "点,": 1517,
      "卫生": 1518,
      "习近平": 1519,
      "。\n“": 1520,
      "9年": 1521,
      "等。": 1522,
      "决定": 1523,
      "正常": 1524,
      "显示": 1525,
      "以下": 1526,
      "农业": 1527,
      "银行": 1528,
      "具体": 1529,
      ",每": 1530,
      "。\n2、": 1531,
      ",更": 1532,
      "期间": 1533,
      "高的": 1534,
      "8年": 1535,
      "2.": 1536,
      "宣传": 1537,
      "一样": 1538,
      "结果": 1539,
      "疫情": 1540,
      "的事": 1541,
      "干部": 1542,
      "自动": 1543,
      "好,": 1544,
      "”、": 1545,
      "深入": 1546,
      "接受": 1547,
      "污染": 1548,
      "面积": 1549,
      "未来": 1550,
      "增强": 1551,
      "一直": 1552,
      "度,": 1553,
      "的高": 1554,
      ",其中": 1555,
      "不仅": 1556,
      "收入": 1557,
      "0.": 1558,
      "建议": 1559,
      "17": 1560,
      "无法": 1561,
      "方向": 1562,
      "设施": 1563,
      "他的": 1564,
      ",因为": 1565,
      "症状": 1566,
      "物质": 1567,
      "维护": 1568,
      "意识": 1569,
      "还有": 1570,
      "工艺": 1571,
      "发布": 1572,
      "不可": 1573,
      ",至": 1574,
      "食物": 1575,
      "意义": 1576,
      "理念": 1577,
      "、高": 1578,
      "记者": 1579,
      "不要": 1580,
      "区域": 1581,
      ";\n": 1582,
      "000": 1583,
      ",与": 1584,
      "。\n3、": 1585,
      "有些": 1586,
      "形式": 1587,
      "明确": 1588,
      "出了": 1589,
      "只有": 1590,
      "资金": 1591,
      "实验": 1592,
      "快速": 1593,
      "5年": 1594,
      "前,": 1595,
      "高,": 1596,
      "化的": 1597,
      "是一种": 1598,
      "心理": 1599,
      "后的": 1600,
      "现场": 1601,
      "日本": 1602,
      "作品": 1603,
      "员工": 1604,
      ",当": 1605,
      "团队": 1606,
      "看到": 1607,
      "明显": 1608,
      "环保": 1609,
      "电影": 1610,
      "完全": 1611,
      "成果": 1612,
      "规范": 1613,
      "开放": 1614,
      "创造": 1615,
      "简单": 1616,
      "生命": 1617,
      "合理": 1618,
      "机制": 1619,
      ",加": 1620,
      "确保": 1621,
      "联合": 1622,
      "。如果": 1623,
      "计算": 1624,
      "了。\n": 1625,
      "自身": 1626,
      "基地": 1627,
      "的话": 1628,
      "党员": 1629,
      "分别": 1630,
      "满足": 1631,
      "的情况": 1632,
      "十分": 1633,
      "40": 1634,
      "2020": 1635,
      "是一个": 1636,
      ",同时": 1637,
      "行动": 1638,
      "温度": 1639,
      "万元": 1640,
      "调整": 1641,
      "执行": 1642,
      "网站": 1643,
      "里,": 1644,
      "除了": 1645,
      "良好的": 1646,
      "大量": 1647,
      "我的": 1648,
      "人类": 1649,
      "。“": 1650,
      "安装": 1651,
      "表面": 1652,
      "打造": 1653,
      "运行": 1654,
      "表示,": 1655,
      "委员会": 1656,
      "你的": 1657,
      "主任": 1658,
      "比如": 1659,
      ",因此": 1660,
      ",即": 1661,
      "程度": 1662,
      "公共": 1663,
      "60": 1664,
      "的新": 1665,
      "关注": 1666,
      "。\n第": 1667,
      ",无": 1668,
      "3.": 1669,
      "状态": 1670,
      ",从而": 1671,
      "。\n5": 1672,
      "交易": 1673,
      "特点": 1674,
      "出的": 1675,
      "--": 1676,
      "3年": 1677,
      ",用": 1678,
      "起来": 1679,
      "体的": 1680,
      "空气": 1681,
      "五行": 1682,
      "亿元": 1683,
      "压力": 1684,
      "都有": 1685,
      "化学": 1686,
      "药物": 1687,
      "带来": 1688,
      "机关": 1689,
      "做到": 1690,
      "老师": 1691,
      "科研": 1692,
      "经常": 1693,
      "生的": 1694,
      "女性": 1695,
      ")\n": 1696,
      "我们的": 1697,
      "统一": 1698,
      "严格": 1699,
      "来越": 1700,
      "的问题": 1701,
      "。他": 1702,
      "。此": 1703,
      "越来越": 1704,
      ",以及": 1705,
      "an": 1706,
      "”。\n": 1707,
      "属于": 1708,
      "数字": 1709,
      "今天": 1710,
      ",中国": 1711,
      "互联网": 1712,
      "感染": 1713,
      "7年": 1714,
      "、等": 1715,
      "基金": 1716,
      "组成": 1717,
      "文明": 1718,
      "制作": 1719,
      "正在": 1720,
      ",把": 1721,
      ",那": 1722,
      "普通": 1723,
      "调查": 1724,
      "金属": 1725,
      "199": 1726,
      "下降": 1727,
      "营养": 1728,
      ",他们": 1729,
      "保险": 1730,
      ",,": 1731,
      "效率": 1732,
      "首先": 1733,
      "25": 1734,
      "性、": 1735,
      "为主": 1736,
      "。当": 1737,
      "时期": 1738,
      "__": 1739,
      "力的": 1740,
      ",也是": 1741,
      "来看": 1742,
      "。因此": 1743,
      "农村": 1744,
      "原则": 1745,
      "6年": 1746,
      "运输": 1747,
      ",人": 1748,
      "认真": 1749,
      "机会": 1750,
      "新时代": 1751,
      "。我": 1752,
      "、大": 1753,
      "就会": 1754,
      "学科": 1755,
      "多的": 1756,
      ",都": 1757,
      "办公": 1758,
      "党委": 1759,
      "改变": 1760,
      "真正": 1761,
      "意见": 1762,
      "认识": 1763,
      "不过": 1764,
      "确定": 1765,
      ",通过": 1766,
      "青年": 1767,
      "有一": 1768,
      "的工作": 1769,
      ")(": 1770,
      ",这样": 1771,
      "整个": 1772,
      "机、": 1773,
      "发展,": 1774,
      "故事": 1775,
      "之后": 1776,
      "来说,": 1777,
      "整体": 1778,
      "二十": 1779,
      "水,": 1780,
      "为“": 1781,
      "之后,": 1782,
      "资产": 1783,
      "制定": 1784,
      "80": 1785,
      ",并且": 1786,
      "商业": 1787,
      "课程": 1788,
      "面对": 1789,
      ",又": 1790,
      "亿元,": 1791,
      "改善": 1792,
      "协会": 1793,
      "治理": 1794,
      "广大": 1795,
      "共产": 1796,
      "多,": 1797,
      "不得": 1798,
      "依法": 1799,
      "方便": 1800,
      "消费者": 1801,
      "物流": 1802,
      "考试": 1803,
      "6.": 1804,
      "”、“": 1805,
      "电视": 1806,
      "不同的": 1807,
      "过程中": 1808,
      "创业": 1809,
      "二、": 1810,
      "等。\n": 1811,
      "全部": 1812,
      "。要": 1813,
      "子,": 1814,
      "也有": 1815,
      "多种": 1816,
      "适合": 1817,
      "反应": 1818,
      "过去": 1819,
      "重视": 1820,
      "根本": 1821,
      "道路": 1822,
      "强调": 1823,
      "4.": 1824,
      "等,": 1825,
      "学、": 1826,
      "运营": 1827,
      "高度": 1828,
      "就业": 1829,
      "集中": 1830,
      "来自": 1831,
      "日常": 1832,
      "始终": 1833,
      "强的": 1834,
      "费用": 1835,
      "革命": 1836,
      "正确": 1837,
      "小时": 1838,
      "速度": 1839,
      "》、": 1840,
      "感觉": 1841,
      "办法": 1842,
      "来说": 1843,
      "技能": 1844,
      "球队": 1845,
      "也不": 1846,
      "心,": 1847,
      "、水": 1848,
      ",不断": 1849,
      "工作的": 1850,
      "强化": 1851,
      ",多": 1852,
      "理解": 1853,
      "》,": 1854,
      "重要的": 1855,
      "出口": 1856,
      "、新": 1857,
      "4年": 1858,
      "准备": 1859,
      "相对": 1860,
      "道,": 1861,
      "通常": 1862,
      "内的": 1863,
      "东西": 1864,
      "从事": 1865,
      "的最": 1866,
      "包装": 1867,
      "采取": 1868,
      "如此": 1869,
      "山东": 1870,
      "各类": 1871,
      "高质量": 1872,
      "大会": 1873,
      "融合": 1874,
      ",提高": 1875,
      "相信": 1876,
      "合同": 1877,
      "一定的": 1878,
      "企业的": 1879,
      "人。": 1880,
      "品质": 1881,
      "2020年": 1882,
      "并不": 1883,
      "正式": 1884,
      "预防": 1885,
      "安排": 1886,
      "现象": 1887,
      "双方": 1888,
      "联系": 1889,
      ",能": 1890,
      "自由": 1891,
      "医生": 1892,
      "觉得": 1893,
      "优质": 1894,
      "会有": 1895,
      "供应": 1896,
      "主题": 1897,
      "动力": 1898,
      "一、": 1899,
      ",全": 1900,
      "in": 1901,
      "手术": 1902,
      "投入": 1903,
      "同比": 1904,
      "具备": 1905,
      "70": 1906,
      "各项": 1907,
      "同志": 1908,
      "音乐": 1909,
      "监管": 1910,
      "、中": 1911,
      "24": 1912,
      "。从": 1913,
      "资本": 1914,
      "。然": 1915,
      "性和": 1916,
      "平方": 1917,
      "。\n4、": 1918,
      "。我们": 1919,
      "现代化": 1920,
      ",这是": 1921,
      "防止": 1922,
      "资料": 1923,
      "的小": 1924,
      ",则": 1925,
      "位于": 1926,
      ",她": 1927,
      ",到": 1928,
      "一下": 1929,
      "当地": 1930,
      "商品": 1931,
      "必要": 1932,
      "分为": 1933,
      "个月": 1934,
      "生素": 1935,
      "不足": 1936,
      "人、": 1937,
      "7.": 1938,
      ",中": 1939,
      "曾经": 1940,
      "广东": 1941,
      "只是": 1942,
      "高校": 1943,
      "病毒": 1944,
      "评价": 1945,
      "下的": 1946,
      "中国特色": 1947,
      "再次": 1948,
      "利益": 1949,
      "人体": 1950,
      "数量": 1951,
      ",这些": 1952,
      "。\n2.": 1953,
      "体现": 1954,
      "说:“": 1955,
      "说过": 1956,
      "米,": 1957,
      ",然后": 1958,
      "位,": 1959,
      "机的": 1960,
      "总书记": 1961,
      "位置": 1962,
      "长,": 1963,
      "以来,": 1964,
      ",对于": 1965,
      "部、": 1966,
      "%。": 1967,
      "》、《": 1968,
      "构建": 1969,
      "不到": 1970,
      "等方面": 1971,
      "”\n": 1972,
      "▁。\n": 1973,
      "社区": 1974,
      "2021年": 1975,
      "医学": 1976,
      "、不": 1977,
      "主动": 1978,
      "情,": 1979,
      "不少": 1980,
      "赛季": 1981,
      ",由": 1982,
      "机,": 1983,
      "的主要": 1984,
      "之前": 1985,
      "职工": 1986,
      ",那么": 1987,
      "的作用": 1988,
      "形象": 1989,
      "突破": 1990,
      "连续": 1991,
      "另一": 1992,
      "多个": 1993,
      "厂家": 1994,
      "想要": 1995,
      "。一": 1996,
      "的、": 1997,
      "2、": 1998,
      "自我": 1999,
      "最后": 2000,
      "过程中,": 2001,
      "承担": 2002,
      "适应": 2003,
      "往往": 2004,
      "动物": 2005,
      "“”": 2006,
      "里的": 2007,
      "样的": 2008,
      "。\n三": 2009,
      "素质": 2010,
      "500": 2011,
      "处于": 2012,
      "同学": 2013,
      "坚定": 2014,
      "示范": 2015,
      "体验": 2016,
      "加快": 2017,
      ",上": 2018,
      "广州": 2019,
      "进行了": 2020,
      "2019年": 2021,
      "产品的": 2022,
      "世纪": 2023,
      "节能": 2024,
      "统计": 2025,
      "近年": 2026,
      "问题,": 2027,
      "例如": 2028,
      "升级": 2029,
      "的《": 2030,
      "土地": 2031,
      "资格": 2032,
      "免疫": 2033,
      "引导": 2034,
      "医药": 2035,
      "加入": 2036,
      "8.": 2037,
      "说明": 2038,
      "理想": 2039,
      "化,": 2040,
      "的产品": 2041,
      "有机": 2042,
      "成员": 2043,
      "的心": 2044,
      "此次": 2045,
      "化工": 2046,
      "有所": 2047,
      "的影响": 2048,
      ",具有": 2049,
      "居民": 2050,
      "多数": 2051,
      "用的": 2052,
      "含量": 2053,
      "最大的": 2054,
      "是,": 2055,
      "多年": 2056,
      "内部": 2057,
      "子的": 2058,
      "1日": 2059,
      "富的": 2060,
      "5.": 2061,
      ",而是": 2062,
      "协调": 2063,
      "也会": 2064,
      ",力": 2065,
      "财政": 2066,
      "都会": 2067,
      "是什么": 2068,
      "相比": 2069,
      "、电": 2070,
      "展示": 2071,
      "利于": 2072,
      "常见": 2073,
      "者,": 2074,
      "含有": 2075,
      "证明": 2076,
      "成了": 2077,
      "特别是": 2078,
      "上市": 2079,
      "其实": 2080,
      "天,": 2081,
      "公开": 2082,
      "领先": 2083,
      "机器": 2084,
      "三个": 2085,
      "区、": 2086,
      "。所以": 2087,
      "年轻": 2088,
      "生,": 2089,
      "一体": 2090,
      "人口": 2091,
      "要求,": 2092,
      "文件": 2093,
      "人在": 2094,
      "。\n3.": 2095,
      "本次": 2096,
      "成长": 2097,
      "°C": 2098,
      "2018年": 2099,
      "以来": 2100,
      "强度": 2101,
      "。有": 2102,
      "的水": 2103,
      "中国特色社会主义": 2104,
      ",再": 2105,
      "出来": 2106,
      ",不仅": 2107,
      "股份": 2108,
      "力、": 2109,
      "可能会": 2110,
      "90": 2111,
      "不,": 2112,
      "国务": 2113,
      "进步": 2114,
      "一定要": 2115,
      "球员": 2116,
      "23": 2117,
      "的治疗": 2118,
      "现实": 2119,
      ",包括": 2120,
      ",主要": 2121,
      "平均": 2122,
      "思考": 2123,
      "精神,": 2124,
      "自主": 2125,
      "这里": 2126,
      "共产党": 2127,
      "事件": 2128,
      "病情": 2129,
      "美元": 2130,
      "举办": 2131,
      "类型": 2132,
      ",就是": 2133,
      "一切": 2134,
      "的时间": 2135,
      "。它": 2136,
      "法院": 2137,
      ",或": 2138,
      "高速": 2139,
      "经历": 2140,
      "大型": 2141,
      "总结": 2142,
      ",实现": 2143,
      "河南": 2144,
      "维生素": 2145,
      "举行": 2146,
      "on": 2147,
      "2022年": 2148,
      "经理": 2149,
      "语言": 2150,
      "的不": 2151,
      "手机": 2152,
      "推广": 2153,
      "去年": 2154,
      "试验": 2155,
      "使命": 2156,
      "深化": 2157,
      "1个": 2158,
      "及其": 2159,
      "家长": 2160,
      "学术": 2161,
      "相应": 2162,
      "优化": 2163,
      "各地": 2164,
      "法规": 2165,
      "的基础": 2166,
      "面临": 2167,
      "1月": 2168,
      "美的": 2169,
      "是有": 2170,
      "运用": 2171,
      "独立": 2172,
      "时的": 2173,
      "这样的": 2174,
      "事故": 2175,
      "国务院": 2176,
      "相当": 2177,
      "建设,": 2178,
      "9月": 2179,
      "方面,": 2180,
      "不的": 2181,
      "人士": 2182,
      "广告": 2183,
      "先生": 2184,
      "了“": 2185,
      "设置": 2186,
      "而言": 2187,
      "太阳": 2188,
      "指出,": 2189,
      "吸引": 2190,
      "实行": 2191,
      "主体": 2192,
      "角度": 2193,
      "人工": 2194,
      "12月": 2195,
      ",会": 2196,
      "每天": 2197,
      "那些": 2198,
      ",的": 2199,
      "9.": 2200,
      "值得": 2201,
      "吸收": 2202,
      "出生": 2203,
      "的地": 2204,
      ")。": 2205,
      "突出": 2206,
      "状况": 2207,
      "知名": 2208,
      "营销": 2209,
      "观众": 2210,
      "先后": 2211,
      "有了": 2212,
      "》的": 2213,
      ",我国": 2214,
      "长、": 2215,
      "保温": 2216,
      "污水": 2217,
      "“一": 2218,
      "血管": 2219,
      "198": 2220,
      "面的": 2221,
      ",被": 2222,
      "量的": 2223,
      "排名": 2224,
      "联赛": 2225,
      "神经": 2226,
      "罗斯": 2227,
      ",一般": 2228,
      "讲话": 2229,
      "商标": 2230,
      "多少": 2231,
      "展开": 2232,
      "配合": 2233,
      "心的": 2234,
      "事实": 2235,
      "基层": 2236,
      "22": 2237,
      "铁路": 2238,
      "乡村": 2239,
      "的发": 2240,
      "全体": 2241,
      "元素": 2242,
      "成就": 2243,
      "手段": 2244,
      "。如": 2245,
      "其中": 2246,
      "分子": 2247,
      "公司的": 2248,
      "。对": 2249,
      "食用": 2250,
      "次,": 2251,
      "的生活": 2252,
      "中小": 2253,
      "好地": 2254,
      "7月": 2255,
      "物的": 2256,
      "民主": 2257,
      "准确": 2258,
      "、、、": 2259,
      "er": 2260,
      "%的": 2261,
      "良好": 2262,
      "本身": 2263,
      "主持": 2264,
      "生长": 2265,
      "装备": 2266,
      "6、": 2267,
      "是不": 2268,
      "下来": 2269,
      "工具": 2270,
      "通知": 2271,
      "相互": 2272,
      "。\n二、": 2273,
      "商务": 2274,
      "团结": 2275,
      "协议": 2276,
      "性。": 2277,
      "博士": 2278,
      "布局": 2279,
      "公路": 2280,
      "室内": 2281,
      "者的": 2282,
      "加大": 2283,
      "3月": 2284,
      "之间的": 2285,
      "▁在": 2286,
      "测试": 2287,
      "十二": 2288,
      "德国": 2289,
      ",于": 2290,
      "老年": 2291,
      "家的": 2292,
      "天然": 2293,
      "习近平总书记": 2294,
      ",不要": 2295,
      "8月": 2296,
      ",该": 2297,
      "自治": 2298,
      "英国": 2299,
      "为什么": 2300,
      "真的": 2301,
      "en": 2302,
      "6月": 2303,
      "每个": 2304,
      "专利": 2305,
      "色的": 2306,
      "、中国": 2307,
      "”“": 2308,
      "i)": 2309,
      "和的": 2310,
      "事情": 2311,
      "。据": 2312,
      "家,": 2313,
      "指出": 2314,
      "实验室": 2315,
      "比例": 2316,
      "他们的": 2317,
      "10月": 2318,
      "监测": 2319,
      ",发": 2320,
      "有着": 2321,
      "转型": 2322,
      "试管": 2323,
      "州市": 2324,
      "一年": 2325,
      "本科": 2326,
      "这个问题": 2327,
      "学会": 2328,
      "。目前": 2329,
      "环节": 2330,
      "实力": 2331,
      "成的": 2332,
      "展现": 2333,
      "风格": 2334,
      "注重": 2335,
      "限制": 2336,
      "著名": 2337,
      "最终": 2338,
      "▁(": 2339,
      "放在": 2340,
      "重新": 2341,
      "管理、": 2342,
      "少年": 2343,
      ",没有": 2344,
      ",自": 2345,
      "防控": 2346,
      "上升": 2347,
      "另外": 2348,
      "四个": 2349,
      "2017年": 2350,
      ",后": 2351,
      "变得": 2352,
      "下面": 2353,
      ",还有": 2354,
      "身份": 2355,
      "一名": 2356,
      "主管": 2357,
      "作出": 2358,
      "消防": 2359,
      "的关": 2360,
      "改造": 2361,
      "35": 2362,
      "连接": 2363,
      ",目前": 2364,
      "百年": 2365,
      "负责人": 2366,
      "成都": 2367,
      ")的": 2368,
      "新型": 2369,
      "各级": 2370,
      "消息": 2371,
      "马克": 2372,
      "足球": 2373,
      ",这个": 2374,
      "的方式": 2375,
      "制品": 2376,
      "工作。": 2377,
      "小,": 2378,
      "切实": 2379,
      "提供了": 2380,
      ",这种": 2381,
      "1-": 2382,
      "更多的": 2383,
      "引领": 2384,
      "地产": 2385,
      "大、": 2386,
      "院校": 2387,
      "和国": 2388,
      "特的": 2389,
      "的一种": 2390,
      "地,": 2391,
      "委会": 2392,
      "证书": 2393,
      ",坚持": 2394,
      "2个": 2395,
      ",推动": 2396,
      "11月": 2397,
      "建成": 2398,
      "护理": 2399,
      "色,": 2400,
      "。\n据": 2401,
      "2000": 2402,
      "批准": 2403,
      "认证": 2404,
      "人生": 2405,
      "原料": 2406,
      "专业的": 2407,
      "前的": 2408,
      "一点": 2409,
      "。(": 2410,
      "小的": 2411,
      "道德": 2412,
      "农民": 2413,
      "起,": 2414,
      "最高": 2415,
      "它的": 2416,
      ",不能": 2417,
      "表达": 2418,
      "、市": 2419,
      "决策": 2420,
      "只要": 2421,
      "中华民族": 2422,
      "难以": 2423,
      "的地方": 2424,
      "很大": 2425,
      "水、": 2426,
      "真实": 2427,
      "方面的": 2428,
      "期的": 2429,
      "二是": 2430,
      "特征": 2431,
      "人民政府": 2432,
      "十年": 2433,
      "之,": 2434,
      "固定": 2435,
      "感到": 2436,
      "依据": 2437,
      "几个": 2438,
      "都不": 2439,
      "引发": 2440,
      "5月": 2441,
      "、有": 2442,
      "这么": 2443,
      "指标": 2444,
      "公安": 2445,
      "各个": 2446,
      "意味": 2447,
      "进口": 2448,
      "一,": 2449,
      "效益": 2450,
      "力。": 2451,
      "1)": 2452,
      "\n在": 2453,
      "只能": 2454,
      "八字": 2455,
      ",给": 2456,
      "品种": 2457,
      "一家": 2458,
      ",高": 2459,
      "但是": 2460,
      "总体": 2461,
      "这是": 2462,
      "不良": 2463,
      "别人": 2464,
      "装置": 2465,
      "构成": 2466,
      "度的": 2467,
      ",确保": 2468,
      "第四": 2469,
      "办理": 2470,
      "28": 2471,
      "同样": 2472,
      "设立": 2473,
      "认为,": 2474,
      "的合": 2475,
      "活动,": 2476,
      "每年": 2477,
      "心、": 2478,
      "3、": 2479,
      "表明": 2480,
      "公布": 2481,
      ",因": 2482,
      "还要": 2483,
      "创作": 2484,
      "场所": 2485,
      "300": 2486,
      "小组": 2487,
      "的和": 2488,
      ",成为": 2489,
      "的热": 2490,
      "百分": 2491,
      "石油": 2492,
      "省级": 2493,
      "做出": 2494,
      "在于": 2495,
      "。\n此": 2496,
      ",着": 2497,
      ",且": 2498,
      "大利": 2499,
      "无论": 2500,
      ",形成": 2501,
      "显著": 2502,
      "患者的": 2503,
      "维修": 2504,
      "江省": 2505,
      "尽管": 2506,
      "案件": 2507,
      "多次": 2508,
      "决赛": 2509,
      "高等": 2510,
      "21": 2511,
      "所在": 2512,
      "就可以": 2513,
      ",新": 2514,
      "中国共产党": 2515,
      "流程": 2516,
      "电动": 2517,
      "他人": 2518,
      ",积极": 2519,
      "。\n5、": 2520,
      ",此": 2521,
      "2)": 2522,
      "26": 2523,
      "十四": 2524,
      "伤害": 2525,
      "测量": 2526,
      "充满": 2527,
      "标志": 2528,
      "4月": 2529,
      "很多人": 2530,
      ",和": 2531,
      "管道": 2532,
      "适当": 2533,
      "体制": 2534,
      "代理": 2535,
      "公园": 2536,
      "爱情": 2537,
      "尽量": 2538,
      ",加强": 2539,
      "首次": 2540,
      "有人": 2541,
      "十三": 2542,
      "%。\n": 2543,
      "到的": 2544,
      "培育": 2545,
      "红色": 2546,
      "设计、": 2547,
      "它们": 2548,
      "完整": 2549,
      "目的": 2550,
      "相同": 2551,
      "合格": 2552,
      "校园": 2553,
      "办公室": 2554,
      ",促进": 2555,
      "是“": 2556,
      "的好": 2557,
      "了一个": 2558,
      "很难": 2559,
      "财务": 2560,
      ",需要": 2561,
      "气体": 2562,
      "马克思": 2563,
      "器、": 2564,
      "形势": 2565,
      "调节": 2566,
      "公里": 2567,
      "成分": 2568,
      "3个": 2569,
      "的中": 2570,
      "每一": 2571,
      "。该": 2572,
      "国有": 2573,
      "显示,": 2574,
      "一流": 2575,
      "的企业": 2576,
      "内,": 2577,
      "坚决": 2578,
      "职责": 2579,
      "技术、": 2580,
      "致力": 2581,
      "起到": 2582,
      "预计": 2583,
      "2016年": 2584,
      ",免": 2585,
      "最大": 2586,
      "的方法": 2587,
      "的原因": 2588,
      "排放": 2589,
      "作业": 2590,
      "是指": 2591,
      "带着": 2592,
      "期,": 2593,
      "地位": 2594,
      "、南": 2595,
      "信用": 2596,
      "集体": 2597,
      "\n1、": 2598,
      "党中央": 2599,
      "补充": 2600,
      "计算机": 2601,
      "的时候,": 2602,
      "了我": 2603,
      "在一起": 2604,
      "感受": 2605,
      "人。\n": 2606,
      "支部": 2607,
      "要注意": 2608,
      "。但是": 2609,
      "g)": 2610,
      "大大": 2611,
      "。由于": 2612,
      "发电": 2613,
      ",比如": 2614,
      "。同时,": 2615,
      "功效": 2616,
      "产权": 2617,
      "生活中": 2618,
      "对方": 2619,
      "当时": 2620,
      "快乐": 2621,
      "。本": 2622,
      "对外": 2623,
      "27": 2624,
      "称为": 2625,
      "河北": 2626,
      "都在": 2627,
      "等奖": 2628,
      "人大": 2629,
      "学生的": 2630,
      "规律": 2631,
      "水的": 2632,
      "。\n三、": 2633,
      "和“": 2634,
      "药品": 2635,
      "重的": 2636,
      "两种": 2637,
      ",总": 2638,
      "银病": 2639,
      "专门": 2640,
      ",小": 2641,
      "制造业": 2642,
      "担任": 2643,
      "报道": 2644,
      "感情": 2645,
      "和社会": 2646,
      "的前": 2647,
      "官方": 2648,
      "正是": 2649,
      "适用于": 2650,
      "对象": 2651,
      "。公司": 2652,
      "、和": 2653,
      "层次": 2654,
      "。\n4.": 2655,
      "创建": 2656,
      "宝宝": 2657,
      "新技术": 2658,
      "应对": 2659,
      "物理": 2660,
      "依然": 2661,
      "更好的": 2662,
      "满意": 2663,
      ",本": 2664,
      "合金": 2665,
      "思维": 2666,
      "发表": 2667,
      "上下": 2668,
      "十八": 2669,
      "学历": 2670,
      "很好的": 2671,
      "血液": 2672,
      "融资": 2673,
      "的一个": 2674,
      ",希望": 2675,
      "检验": 2676,
      "病人": 2677,
      "天的": 2678,
      "》《": 2679,
      "自信": 2680,
      ",只有": 2681,
      "分布": 2682,
      "事项": 2683,
      "45": 2684,
      "手,": 2685,
      "专项": 2686,
      "保健": 2687,
      "节目": 2688,
      "高效": 2689,
      "一)": 2690,
      "定期": 2691,
      "高级": 2692,
      "学位": 2693,
      "2015年": 2694,
      "1000": 2695,
      "研究生": 2696,
      "会计": 2697,
      "外的": 2698,
      "转化": 2699,
      "青春": 2700,
      "一致": 2701,
      "四、": 2702,
      "成,": 2703,
      "养老": 2704,
      "%;": 2705,
      "发展。": 2706,
      "提到": 2707,
      "二)": 2708,
      ",水": 2709,
      "事,": 2710,
      "防治": 2711,
      "器的": 2712,
      "应用于": 2713,
      "原理": 2714,
      "一个人": 2715,
      "办学": 2716,
      "地的": 2717,
      "失去": 2718,
      ",向": 2719,
      ",出": 2720,
      "很大的": 2721,
      "离开": 2722,
      "电话": 2723,
      "的事情": 2724,
      "年代": 2725,
      "、西": 2726,
      "健全": 2727,
      "回应": 2728,
      "中有": 2729,
      "现有": 2730,
      "7、": 2731,
      "动,": 2732,
      "规则": 2733,
      "权利": 2734,
      "全省": 2735,
      "意味着": 2736,
      "住房": 2737,
      "文学": 2738,
      "充分发": 2739,
      "的是,": 2740,
      "在线": 2741,
      "传承": 2742,
      "一路": 2743,
      "分类": 2744,
      "当然": 2745,
      ":\n1、": 2746,
      ",却": 2747,
      ",才能": 2748,
      "回收": 2749,
      "工商": 2750,
      "阳光": 2751,
      "演员": 2752,
      "美术": 2753,
      "发作": 2754,
      "。为": 2755,
      "电力": 2756,
      "人物": 2757,
      "。《": 2758,
      "意思": 2759,
      "市场的": 2760,
      "五”": 2761,
      "转变": 2762,
      "mm": 2763,
      ",导致": 2764,
      "机场": 2765,
      "众多": 2766,
      "带领": 2767,
      "36": 2768,
      "行的": 2769,
      "战争": 2770,
      "区,": 2771,
      "场比赛": 2772,
      "法国": 2773,
      "”等": 2774,
      "中国的": 2775,
      "上了": 2776,
      "也可以": 2777,
      "点。": 2778,
      ",得": 2779,
      "论文": 2780,
      "试管儿": 2781,
      "引进": 2782,
      "深度": 2783,
      "一条": 2784,
      "是最": 2785,
      "一的": 2786,
      "共和国": 2787,
      "态度": 2788,
      "万元,": 2789,
      "全会": 2790,
      "以为": 2791,
      "考核": 2792,
      "高、": 2793,
      "激素": 2794,
      "工厂": 2795,
      "行业的": 2796,
      "致力于": 2797,
      "较为": 2798,
      "三年": 2799,
      ",或者": 2800,
      "认可": 2801,
      "。因为": 2802,
      "系统的": 2803,
      "长的": 2804,
      "你们": 2805,
      "设备的": 2806,
      "官网": 2807,
      "安全生产": 2808,
      "立即": 2809,
      "离子": 2810,
      "定位": 2811,
      "家具": 2812,
      "当前": 2813,
      "。\n我": 2814,
      "作者": 2815,
      "年度": 2816,
      "建设、": 2817,
      "突然": 2818,
      ",只要": 2819,
      "部位": 2820,
      "“三": 2821,
      ",其是": 2822,
      "。因此,": 2823,
      "万,": 2824,
      "国家级": 2825,
      "能量": 2826,
      "担当": 2827,
      "。这些": 2828,
      "。\n《": 2829,
      "是由": 2830,
      "营业": 2831,
      "部件": 2832,
      "通信": 2833,
      "面,": 2834,
      "男性": 2835,
      "、无": 2836,
      "大多数": 2837,
      "将在": 2838,
      "球,": 2839,
      "这话": 2840,
      "优良": 2841,
      "十大": 2842,
      "周围": 2843,
      "信号": 2844,
      "复合": 2845,
      "基于": 2846,
      "一段": 2847,
      "法》": 2848,
      "采购": 2849,
      "大。": 2850,
      "工作人员": 2851,
      "她的": 2852,
      ",请": 2853,
      "高温": 2854,
      "配置": 2855,
      "即可": 2856,
      "了《": 2857,
      "国内外": 2858,
      "部,": 2859,
      "城乡": 2860,
      "英语": 2861,
      "大力": 2862,
      "e)": 2863,
      "的服务": 2864,
      "另外,": 2865,
      "说道": 2866,
      "的技术": 2867,
      "认定": 2868,
      "的生": 2869,
      "。不": 2870,
      "文字": 2871,
      "。\n第二": 2872,
      "法,": 2873,
      "气,": 2874,
      "。\n而": 2875,
      "很容易": 2876,
      "基础设施": 2877,
      "国的": 2878,
      "让人": 2879,
      "大部分": 2880,
      "房地产": 2881,
      "平时": 2882,
      "基因": 2883,
      "长时间": 2884,
      "工资": 2885,
      "面向": 2886,
      "的性": 2887,
      "参考": 2888,
      "中医": 2889,
      "血压": 2890,
      "司法": 2891,
      "如今": 2892,
      "免费": 2893,
      "2月": 2894,
      "头,": 2895,
      "早已": 2896,
      "宣布": 2897,
      "以“": 2898,
      "美好": 2899,
      "。对于": 2900,
      "格局": 2901,
      "色素": 2902,
      "在的": 2903,
      "周期": 2904,
      "最近": 2905,
      ",下": 2906,
      "。第": 2907,
      ",应": 2908,
      "。此外,": 2909,
      "有可能": 2910,
      "党建": 2911,
      ")。\n": 2912,
      "条例": 2913,
      "海外": 2914,
      ",为了": 2915,
      "起来,": 2916,
      "____": 2917,
      "主要是": 2918,
      "很快": 2919,
      "4、": 2920,
      "新能源": 2921,
      "信息化": 2922,
      "过,": 2923,
      "表演": 2924,
      "几年": 2925,
      "线,": 2926,
      "取得了": 2927,
      "》(": 2928,
      "义务": 2929,
      "。\n这": 2930,
      "发病": 2931,
      "29": 2932,
      "。通过": 2933,
      "角色": 2934,
      "南京": 2935,
      "书记、": 2936,
      "世界上": 2937,
      "第一次": 2938,
      "消化": 2939,
      "流量": 2940,
      "流动": 2941,
      "更为": 2942,
      "优的": 2943,
      "体会": 2944,
      "游客": 2945,
      "解决方案": 2946,
      "行,": 2947,
      "。可": 2948,
      "\n(": 2949,
      "正规": 2950,
      "低,": 2951,
      "早期": 2952,
      "活性": 2953,
      "公益": 2954,
      "深的": 2955,
      ",公司": 2956,
      "、江": 2957,
      "加热": 2958,
      "网上": 2959,
      "复兴": 2960,
      "情感": 2961,
      "气候": 2962,
      "许可": 2963,
      "在上": 2964,
      "提前": 2965,
      "整合": 2966,
      "力和": 2967,
      "以后": 2968,
      "景区": 2969,
      "强,": 2970,
      "审查": 2971,
      "激光": 2972,
      "确实": 2973,
      "协同": 2974,
      "总经理": 2975,
      ",开": 2976,
      "发育": 2977,
      "有很多": 2978,
      "孩子的": 2979,
      "同比增长": 2980,
      "来到": 2981,
      "想到": 2982,
      "名字": 2983,
      "的子": 2984,
      "事长": 2985,
      "来源": 2986,
      "委、": 2987,
      "纪念": 2988,
      "队的": 2989,
      "回到": 2990,
      "密切": 2991,
      "技术的": 2992,
      "PP": 2993,
      "、地": 2994,
      "2010": 2995,
      "的女": 2996,
      "4个": 2997,
      "经济社会": 2998,
      "维持": 2999,
      ",还是": 3000,
      ",必须": 3001,
      "装修": 3002,
      "国民": 3003,
      "业生": 3004,
      "福建": 3005,
      "产量": 3006,
      "名,": 3007,
      "全市": 3008,
      "合适": 3009,
      "至今": 3010,
      "能力,": 3011,
      "多样": 3012,
      "领域的": 3013,
      "资质": 3014,
      ",看": 3015,
      "高质量发展": 3016,
      "、防": 3017,
      "研究院": 3018,
      "马克思主义": 3019,
      "3)": 3020,
      "低于": 3021,
      ",最终": 3022,
      ",两": 3023,
      "律师": 3024,
      "也在": 3025,
      "收益": 3026,
      "规定,": 3027,
      "2014年": 3028,
      "就能": 3029,
      "法治": 3030,
      "之路": 3031,
      "天气": 3032,
      "到底": 3033,
      "经济发展": 3034,
      "总是": 3035,
      "。这种": 3036,
      "2-": 3037,
      "物,": 3038,
      "指数": 3039,
      "最好": 3040,
      "生产、": 3041,
      "推出": 3042,
      "组合": 3043,
      "的要求": 3044,
      "如下": 3045,
      "动作": 3046,
      "十五": 3047,
      "广西": 3048,
      "ar": 3049,
      "也能": 3050,
      "平方米": 3051,
      "看,": 3052,
      "一代": 3053,
      "白癜风的": 3054,
      "精准": 3055,
      "可以在": 3056,
      "发,": 3057,
      "力。\n": 3058,
      "并不是": 3059,
      "的特": 3060,
      ",一定": 3061,
      "来看,": 3062,
      "更是": 3063,
      ",已": 3064,
      "的历史": 3065,
      "人为": 3066,
      "区别": 3067,
      "的家": 3068,
      "的基本": 3069,
      "、海": 3070,
      "执法": 3071,
      "sh": 3072,
      "声音": 3073,
      "。以": 3074,
      "印度": 3075,
      ",才": 3076,
      "带动": 3077,
      "人民共和国": 3078,
      "科技创新": 3079,
      "。中国": 3080,
      "预算": 3081,
      "作风": 3082,
      "打开": 3083,
      "营造": 3084,
      ",心": 3085,
      "人数": 3086,
      "市民": 3087,
      "国外": 3088,
      ",各": 3089,
      "防护": 3090,
      "的需求": 3091,
      "身边": 3092,
      "十六": 3093,
      "天下": 3094,
      "十条": 3095,
      "老人": 3096,
      "不再": 3097,
      "部的": 3098,
      "----": 3099,
      "命运": 3100,
      "8、": 3101,
      "中华人民共和国": 3102,
      "中共": 3103,
      "。根据": 3104,
      "都要": 3105,
      "金,": 3106,
      ",进一步": 3107,
      "康复": 3108,
      "网友": 3109,
      "使用命": 3110,
      "中心、": 3111,
      "市、": 3112,
      "前进": 3113,
      "市委": 3114,
      "党和": 3115,
      "线上": 3116,
      "疫情防控": 3117,
      "子、": 3118,
      "师生": 3119,
      "权益": 3120,
      "是对": 3121,
      "称,": 3122,
      "生态环境": 3123,
      "紧张": 3124,
      "。\n从": 3125,
      "空调": 3126,
      "适用": 3127,
      "园区": 3128,
      "方位": 3129,
      "▁“": 3130,
      "里面": 3131,
      "党的二十": 3132,
      "自行": 3133,
      "所有的": 3134,
      "其它": 3135,
      "有一个": 3136,
      "们的": 3137,
      "下了": 3138,
      "可持续": 3139,
      "会在": 3140,
      "人群": 3141,
      "生活的": 3142,
      "人才培养": 3143,
      "更好": 3144,
      "改进": 3145,
      "职业教育": 3146,
      "作用。": 3147,
      "定的": 3148,
      "助于": 3149,
      "公平": 3150,
      "下去": 3151,
      ",共": 3152,
      "多元": 3153,
      "半年": 3154,
      ",加快": 3155,
      "火,": 3156,
      "问题。": 3157,
      "白色": 3158,
      "报名": 3159,
      "直到": 3160,
      "情况,": 3161,
      "一是": 3162,
      "调研": 3163,
      "和其他": 3164,
      "生存": 3165,
      "白癜风患者": 3166,
      "简称": 3167,
      "有效的": 3168,
      "事务": 3169,
      "都能": 3170,
      "获取": 3171,
      "更新": 3172,
      "信心": 3173,
      "此,": 3174,
      "那个": 3175,
      "中。": 3176,
      "观念": 3177,
      "的主": 3178,
      "整改": 3179,
      "优点": 3180,
      "病例": 3181,
      "自觉": 3182,
      "5个": 3183,
      "监控": 3184,
      "山西": 3185,
      "一系列": 3186,
      "白质": 3187,
      ",建立": 3188,
      "冷却": 3189,
      "自动化": 3190,
      "支出": 3191,
      "相结合": 3192,
      "分离": 3193,
      "包含": 3194,
      "服用": 3195,
      ",反": 3196,
      "以上,": 3197,
      "使用的": 3198,
      ",\n": 3199,
      ",做": 3200,
      ",由于": 3201,
      "企业、": 3202,
      ",提升": 3203,
      "、人": 3204,
      "即使": 3205,
      "足够": 3206,
      "5%": 3207,
      "知识产权": 3208,
      "明白": 3209,
      "公众": 3210,
      ",全面": 3211,
      "前列": 3212,
      "定制": 3213,
      "、小": 3214,
      "专科": 3215,
      "形态": 3216,
      "月经": 3217,
      "股份有限公司": 3218,
      ",实": 3219,
      "纪律": 3220,
      "节约": 3221,
      "得到了": 3222,
      "会员": 3223,
      "考生": 3224,
      "博物": 3225,
      "居住": 3226,
      "的外": 3227,
      "中药": 3228,
      "传感": 3229,
      "。与": 3230,
      "公告": 3231,
      "输送": 3232,
      ",根据": 3233,
      "33": 3234,
      "不知道": 3235,
      "售后": 3236,
      "三)": 3237,
      "》中": 3238,
      "成效": 3239,
      "电商": 3240,
      "男人": 3241,
      "至少": 3242,
      "融入": 3243,
      "所得": 3244,
      "新时代中国特色社会主义": 3245,
      "等等": 3246,
      "种类": 3247,
      "国家的": 3248,
      "pp": 3249,
      "教育部": 3250,
      "收集": 3251,
      "近年来,": 3252,
      "、社会": 3253,
      "提出了": 3254,
      "东北": 3255,
      "利亚": 3256,
      "的生产": 3257,
      "青少年": 3258,
      "女人": 3259,
      "并没有": 3260,
      "的食物": 3261,
      ",经": 3262,
      "一批": 3263,
      "在中国": 3264,
      ",能够": 3265,
      "财产": 3266,
      "不好": 3267,
      "周边": 3268,
      "。\n然": 3269,
      "的能力": 3270,
      "近期": 3271,
      "加重": 3272,
      ",其实": 3273,
      "这次": 3274,
      "五年": 3275,
      "等多": 3276,
      "。那么": 3277,
      "消除": 3278,
      "带来的": 3279,
      "的有": 3280,
      ",深": 3281,
      "的,而": 3282,
      "研究所": 3283,
      "运会": 3284,
      "大赛": 3285,
      "修复": 3286,
      "紧密": 3287,
      "克,": 3288,
      ",大家": 3289,
      "民间": 3290,
      "身上": 3291,
      "和平": 3292,
      "发的": 3293,
      "立足": 3294,
      "的专业": 3295,
      ",《": 3296,
      "密度": 3297,
      "。其中,": 3298,
      "38": 3299,
      "古代": 3300,
      "、州": 3301,
      "。这是": 3302,
      "各位": 3303,
      "59": 3304,
      "明的": 3305,
      "建设的": 3306,
      "关节": 3307,
      "主管部门": 3308,
      ",以免": 3309,
      "。\n本": 3310,
      "不够": 3311,
      "区的": 3312,
      "非法": 3313,
      "期间,": 3314,
      "便利": 3315,
      "南省": 3316,
      "景观": 3317,
      "确认": 3318,
      "试点": 3319,
      "股东": 3320,
      "”为": 3321,
      "门,": 3322,
      "儿子": 3323,
      "等级": 3324,
      "发动": 3325,
      "的物": 3326,
      "2013年": 3327,
      "最好的": 3328,
      "军事": 3329,
      "识别": 3330,
      "西方": 3331,
      "后来": 3332,
      "。然而": 3333,
      "400": 3334,
      "图书": 3335,
      "就要": 3336,
      "期望": 3337,
      "常常": 3338,
      "工程、": 3339,
      "变成": 3340,
      "工作。\n": 3341,
      "照片": 3342,
      "长江": 3343,
      "三大": 3344,
      "获得了": 3345,
      ",并在": 3346,
      "水果": 3347,
      ",现在": 3348,
      "信念": 3349,
      "党组织": 3350,
      "和服务": 3351,
      ",增强": 3352,
      "专用": 3353,
      "助力": 3354,
      "场景": 3355,
      "报》": 3356,
      "走向": 3357,
      "、多": 3358,
      "担心": 3359,
      "专题": 3360,
      "学者": 3361,
      ",不过": 3362,
      "就不": 3363,
      "细的": 3364,
      "思路": 3365,
      "。是": 3366,
      "家人": 3367,
      "消毒": 3368,
      ",了": 3369,
      "改革开放": 3370,
      "投资者": 3371,
      "、服务": 3372,
      "导向": 3373,
      "同意": 3374,
      "案例": 3375,
      ",一个": 3376,
      "、金": 3377,
      "一位": 3378,
      "西安": 3379,
      "人民群众": 3380,
      "合法": 3381,
      "3-": 3382,
      "通风": 3383,
      "和发展": 3384,
      "成年": 3385,
      "前景": 3386,
      "动的": 3387,
      "地球": 3388,
      "钢管": 3389,
      "做法": 3390,
      "家、": 3391,
      "有什么": 3392,
      "作用,": 3393,
      "优先": 3394,
      "创意": 3395,
      "大量的": 3396,
      "设备、": 3397,
      "反复": 3398,
      "地下": 3399,
      "占地": 3400,
      "很有": 3401,
      "出现了": 3402,
      "服装": 3403,
      "的发生": 3404,
      "高于": 3405,
      "集成": 3406,
      "性。\n": 3407,
      "的一些": 3408,
      "(d": 3409,
      "教育、": 3410,
      "并且": 3411,
      "48": 3412,
      "5、": 3413,
      "图片": 3414,
      "必然": 3415,
      "一级": 3416,
      "大学生": 3417,
      "在中": 3418,
      "造型": 3419,
      "参观": 3420,
      "文物": 3421,
      "副主任": 3422,
      "解放": 3423,
      "工程师": 3424,
      "选用": 3425,
      "也要": 3426,
      "企业,": 3427,
      "个性": 3428,
      "通道": 3429,
      "最新": 3430,
      "是非常": 3431,
      "终于": 3432,
      "就在": 3433,
      "讲解": 3434,
      "之一。": 3435,
      "每一个": 3436,
      "分。": 3437,
      "油、": 3438,
      "协助": 3439,
      "ch": 3440,
      "加速": 3441,
      "将会": 3442,
      "群体": 3443,
      "是以": 3444,
      "37": 3445,
      "体内": 3446,
      "院长": 3447,
      "系统、": 3448,
      "的情": 3449,
      "用药": 3450,
      "处置": 3451,
      "春节": 3452,
      "场,": 3453,
      "微信": 3454,
      "。他们": 3455,
      "名单": 3456,
      "减轻": 3457,
      "小学": 3458,
      "。\n6、": 3459,
      "气、": 3460,
      "就像": 3461,
      "视觉": 3462,
      "少数": 3463,
      "()": 3464,
      "第五": 3465,
      "热水": 3466,
      "线路": 3467,
      "相应的": 3468,
      "。作为": 3469,
      "称号": 3470,
      "想象": 3471,
      "物联网": 3472,
      "党的二十大": 3473,
      ",合": 3474,
      "政协": 3475,
      "大众": 3476,
      "近年来": 3477,
      "书法": 3478,
      "用水": 3479,
      "发展。\n": 3480,
      "季度": 3481,
      "收费": 3482,
      "印象": 3483,
      "自治区": 3484,
      "克斯": 3485,
      "黄金": 3486,
      "发达": 3487,
      "介,": 3488,
      ",也可以": 3489,
      "为核心": 3490,
      "。\n5.": 3491,
      "的动": 3492,
      "、重": 3493,
      ",无论": 3494,
      "感,": 3495,
      "服务,": 3496,
      "新时代中国特色社会主义思想": 3497,
      "站在": 3498,
      "广的": 3499,
      "。\n第三": 3500,
      "上。": 3501,
      "亿美元": 3502,
      "》等": 3503,
      "一天": 3504,
      "日益": 3505,
      "可能是": 3506,
      "接近": 3507,
      "、色": 3508,
      "故障": 3509,
      "管理,": 3510,
      "197": 3511,
      "过的": 3512,
      "项目的": 3513,
      "力度": 3514,
      "富有": 3515,
      "精度": 3516,
      "加上": 3517,
      "问题的": 3518,
      "乐部": 3519,
      "第一个": 3520,
      "民生": 3521,
      "合物": 3522,
      "关心": 3523,
      ",便": 3524,
      "污水处理": 3525,
      "的色": 3526,
      "影视": 3527,
      "影片": 3528,
      "的气": 3529,
      "产品质量": 3530,
      ",即使": 3531,
      "以后,": 3532,
      "(中国": 3533,
      "生育": 3534,
      ":00": 3535,
      ",天": 3536,
      "身体健康": 3537,
      "会出现": 3538,
      "进程": 3539,
      "合作,": 3540,
      "。\n但": 3541,
      ",有的": 3542,
      "高。": 3543,
      "也很": 3544,
      "范围内": 3545,
      "用品": 3546,
      "师范": 3547,
      "给了": 3548,
      "信任": 3549,
      "的精神": 3550,
      "男子": 3551,
      "人民法院": 3552,
      "税务": 3553,
      "清,": 3554,
      "\n1.": 3555,
      "。她": 3556,
      ")有限公司": 3557,
      "规定的": 3558,
      "尽快": 3559,
      "对手": 3560,
      "分配": 3561,
      "前往": 3562,
      "内外": 3563,
      "日子": 3564,
      "随后": 3565,
      "进展": 3566,
      "两年": 3567,
      "有关部门": 3568,
      ",也有": 3569,
      "国家和": 3570,
      "病的": 3571,
      "。\n如果": 3572,
      "有害": 3573,
      "起重": 3574,
      "2012年": 3575,
      "不利": 3576,
      "。同时": 3577,
      "or": 3578,
      "、外": 3579,
      "的安全": 3580,
      "爱国": 3581,
      "名称": 3582,
      "性质": 3583,
      "说的": 3584,
      "所需": 3585,
      "党史": 3586,
      "修改": 3587,
      "出去": 3588,
      "三是": 3589,
      "家里": 3590,
      "8日": 3591,
      ",重": 3592,
      "的效果": 3593,
      "酸、": 3594,
      "功率": 3595,
      "发行": 3596,
      "出台": 3597,
      "班子": 3598,
      "钢铁": 3599,
      "会,": 3600,
      "万人": 3601,
      "以上的": 3602,
      "99": 3603,
      "战,": 3604,
      "炎症": 3605,
      "东方": 3606,
      "美观": 3607,
      "性格": 3608,
      "医师": 3609,
      "发言": 3610,
      "赛事": 3611,
      "体、": 3612,
      ",最后": 3613,
      "新增": 3614,
      "相关的": 3615,
      "激发": 3616,
      "同学们": 3617,
      "北京市": 3618,
      "分的": 3619,
      "周年": 3620,
      "”和“": 3621,
      ",不得": 3622,
      "热情": 3623,
      "承包": 3624,
      "出血": 3625,
      "会导致": 3626,
      "传统的": 3627,
      "江西": 3628,
      ",也就是": 3629,
      "是个": 3630,
      ",好": 3631,
      "女儿": 3632,
      "使得": 3633,
      "预测": 3634,
      "皮的": 3635,
      "策略": 3636,
      "增值": 3637,
      "88": 3638,
      "广东省": 3639,
      "的环境": 3640,
      "新区": 3641,
      "u)": 3642,
      "可见": 3643,
      "。随着": 3644,
      "上有": 3645,
      "材质": 3646,
      "大学、": 3647,
      "客户提供": 3648,
      "的目": 3649,
      "、文化": 3650,
      "工作中": 3651,
      "ED": 3652,
      "195": 3653,
      "人力": 3654,
      "放入": 3655,
      "维度": 3656,
      "村民": 3657,
      "型的": 3658,
      "5日": 3659,
      "而不": 3660,
      "得了": 3661,
      "要有": 3662,
      "党支部": 3663,
      "增速": 3664,
      "所的": 3665,
      "三分": 3666,
      "在不": 3667,
      "的,但": 3668,
      ",有效": 3669,
      "东南": 3670,
      "车、": 3671,
      "人工智能": 3672,
      "到,": 3673,
      "就有": 3674,
      "是中国": 3675,
      "口,": 3676,
      "审计": 3677,
      "过于": 3678,
      "31": 3679,
      "以前": 3680,
      "6个": 3681,
      "..": 3682,
      "整理": 3683,
      "分析:": 3684,
      "细节": 3685,
      "器,": 3686,
      "带一路": 3687,
      "。\n(二)": 3688,
      "的人,": 3689,
      "真理": 3690,
      "头、": 3691,
      "安全、": 3692,
      "都可以": 3693,
      "不了": 3694,
      "法、": 3695,
      "专注": 3696,
      "控股": 3697,
      "三角": 3698,
      "。\n公司": 3699,
      "财富": 3700,
      "。至": 3701,
      "剧《": 3702,
      "公里,": 3703,
      "较大": 3704,
      "高中": 3705,
      "孩子们": 3706,
      "处,": 3707,
      "9、": 3708,
      "审批": 3709,
      "事业单位": 3710,
      "效应": 3711,
      "材料的": 3712,
      ",特别是": 3713,
      "节日": 3714,
      ")和": 3715,
      "大约": 3716,
      "BA": 3717,
      "要素": 3718,
      "一个新的": 3719,
      "。为了": 3720,
      "大数据": 3721,
      "园林": 3722,
      "局部": 3723,
      "局、": 3724,
      "、实": 3725,
      "的同时,": 3726,
      "西部": 3727,
      "收获": 3728,
      "32": 3729,
      ",长": 3730,
      "今后": 3731,
      "al": 3732,
      "理事": 3733,
      "明星": 3734,
      "习近平新时代中国特色社会主义思想": 3735,
      "大小": 3736,
      "规格": 3737,
      "供给": 3738,
      "共有": 3739,
      "是我": 3740,
      "接下来": 3741,
      "随时": 3742,
      "保养": 3743,
      "发出": 3744,
      "34": 3745,
      "提交": 3746,
      "的情况下,": 3747,
      "发展、": 3748,
      "合成": 3749,
      "55": 3750,
      "让我们": 3751,
      "电源": 3752,
      "电、": 3753,
      "想法": 3754,
      "的中国": 3755,
      "传统文化": 3756,
      "会、": 3757,
      "数学": 3758,
      "意大利": 3759,
      ",有些": 3760,
      "先进的": 3761,
      "是:": 3762,
      "做了": 3763,
      "动态": 3764,
      "多年的": 3765,
      ";在": 3766,
      "物品": 3767,
      "本人": 3768,
      "用来": 3769,
      "600": 3770,
      "不钢": 3771,
      "?”": 3772,
      "高考": 3773,
      "还可以": 3774,
      "看看": 3775,
      "。中": 3776,
      "公务": 3777,
      "地区的": 3778,
      "风机": 3779,
      "的研究": 3780,
      "段,": 3781,
      "路线": 3782,
      "每个人": 3783,
      "爱的": 3784,
      "板、": 3785,
      "传染": 3786,
      "各自": 3787,
      "省委": 3788,
      "一份": 3789,
      "机器人": 3790,
      "7日": 3791,
      "变革": 3792,
      "审核": 3793,
      "客观": 3794,
      "课题": 3795,
      "电机": 3796,
      "炎、": 3797,
      "部长": 3798,
      "校长": 3799,
      "五行缺": 3800,
      "运动员": 3801,
      "主演": 3802,
      "常规": 3803,
      "过度": 3804,
      "最低": 3805,
      "2010年": 3806,
      "独特": 3807,
      "的成": 3808,
      "显然": 3809,
      "很少": 3810,
      "导演": 3811,
      "查看": 3812,
      "中医药": 3813,
      "的光": 3814,
      "子女": 3815,
      "实际上": 3816,
      "反对": 3817,
      "好。": 3818,
      "保存": 3819,
      "会的": 3820,
      "和,": 3821,
      "IS": 3822,
      "料、": 3823,
      "广场": 3824,
      "风景": 3825,
      "说:": 3826,
      "39": 3827,
      ",不是": 3828,
      "严重的": 3829,
      "总统": 3830,
      "打印": 3831,
      "体,": 3832,
      "形状": 3833,
      "进球": 3834,
      "二级": 3835,
      "、天": 3836,
      "更好地": 3837,
      "文艺": 3838,
      ",外": 3839,
      "。\n四、": 3840,
      "om": 3841,
      ",生": 3842,
      "之外": 3843,
      "价值观": 3844,
      "流行": 3845,
      "经费": 3846,
      "未来的": 3847,
      "的内容": 3848,
      "上年": 3849,
      "难度": 3850,
      "的力量": 3851,
      "会上,": 3852,
      "6日": 3853,
      "强大的": 3854,
      "不用": 3855,
      "病因": 3856,
      "更大的": 3857,
      "女子": 3858,
      "产生的": 3859,
      "服务。": 3860,
      "高达": 3861,
      "监管理": 3862,
      "防范": 3863,
      "消失": 3864,
      "2019": 3865,
      ",作为": 3866,
      "情况下,": 3867,
      "观点": 3868,
      "新兴": 3869,
      "。\n我们": 3870,
      "才是": 3871,
      "我想": 3872,
      "。不过": 3873,
      "征程": 3874,
      "不开": 3875,
      "1.5": 3876,
      "65": 3877,
      "地面": 3878,
      "证据": 3879,
      "。一般": 3880,
      "技术,": 3881,
      "精品": 3882,
      "不得不": 3883,
      "75": 3884,
      "平方米,": 3885,
      "、、、、": 3886,
      "等领域": 3887,
      "意间": 3888,
      "公民": 3889,
      "季节": 3890,
      ",现": 3891,
      "生产的": 3892,
      "全身": 3893,
      "产业发展": 3894,
      "an)": 3895,
      "的市场": 3896,
      "at": 3897,
      "。\n其": 3898,
      "的使用": 3899,
      "(z": 3900,
      "。其中": 3901,
      "从严": 3902,
      "。\n他": 3903,
      ",都是": 3904,
      "独特的": 3905,
      "2011年": 3906,
      "剂、": 3907,
      ",一些": 3908,
      "电气": 3909,
      "之外,": 3910,
      "理由": 3911,
      "社交": 3912,
      "无人": 3913,
      "化和": 3914,
      "一线": 3915,
      ",比": 3916,
      "▁本": 3917,
      "建造": 3918,
      "然后": 3919,
      "。\n五行": 3920,
      "10.": 3921,
      "民营": 3922,
      "同期": 3923,
      "职能": 3924,
      "常务": 3925,
      "选手": 3926,
      "间的": 3927,
      "。上": 3928,
      "留下": 3929,
      "销量": 3930,
      ",进": 3931,
      "被告": 3932,
      "3日": 3933,
      "普及": 3934,
      "股权": 3935,
      "项目,": 3936,
      "演出": 3937,
      "成人": 3938,
      "好、": 3939,
      "。\n1、": 3940,
      "。新": 3941,
      "报道,": 3942,
      "建设和": 3943,
      "整治": 3944,
      "微生物": 3945,
      "实的": 3946,
      "体系,": 3947,
      "强、": 3948,
      "一体化": 3949,
      ",使得": 3950,
      "选举": 3951,
      "半场": 3952,
      "、山": 3953,
      "了的": 3954,
      "出生于": 3955,
      "150": 3956,
      "内心": 3957,
      "健身": 3958,
      "还在": 3959,
      "电器": 3960,
      "曾经提到": 3961,
      ":\n(": 3962,
      "地理": 3963,
      "中国人民": 3964,
      "再生": 3965,
      "防火": 3966,
      "、国": 3967,
      "参赛": 3968,
      "土,": 3969,
      "山东省": 3970,
      "斯特": 3971,
      "有多": 3972,
      "一场": 3973,
      "主场": 3974,
      "充足": 3975,
      "显得": 3976,
      "产能": 3977,
      "类、": 3978,
      "3000": 3979,
      "中全会": 3980,
      "车的": 3981,
      "自身的": 3982,
      "较低": 3983,
      "中学": 3984,
      ",子": 3985,
      "实用": 3986,
      "教材": 3987,
      "制度,": 3988,
      ";\n(": 3989,
      ",也不": 3990,
      "初步": 3991,
      "2018": 3992,
      "本质": 3993,
      "人和": 3994,
      "。\n当": 3995,
      "(y": 3996,
      "投标": 3997,
      "超声": 3998,
      "到达": 3999,
      "还会": 4000,
      "的美": 4001,
      "9日": 4002,
      "理念,": 4003,
      "ao": 4004,
      "互动": 4005,
      "件的": 4006,
      "外国": 4007,
      "占比": 4008,
      "快速增长": 4009,
      "设有": 4010,
      "元/": 4011,
      "。而且": 4012,
      "法定": 4013,
      "变形": 4014,
      "难题": 4015,
      "地、": 4016,
      "不同,": 4017,
      "。200": 4018,
      "服务、": 4019,
      "于是": 4020,
      "▁的": 4021,
      ",西": 4022,
      "白酒": 4023,
      "方的": 4024,
      "心里": 4025,
      "互相": 4026,
      "更有": 4027,
      "2021": 4028,
      "之前,": 4029,
      "常见的": 4030,
      "疾病的": 4031,
      "思考这个问题": 4032,
      "用人": 4033,
      ",年": 4034,
      "批评": 4035,
      "等地": 4036,
      "、的": 4037,
      "较高的": 4038,
      "味道": 4039,
      "起了": 4040,
      "完美": 4041,
      "方式,": 4042,
      "、三": 4043,
      "主办": 4044,
      "”是": 4045,
      "已有": 4046,
      "评论": 4047,
      "各界": 4048,
      "钢结构": 4049,
      "气的": 4050,
      "明,": 4051,
      "党员干部": 4052,
      "负担": 4053,
      "液体": 4054,
      "业、": 4055,
      "特性": 4056,
      "两人": 4057,
      "板,": 4058,
      "配备": 4059,
      "。你": 4060,
      "间,": 4061,
      "同一": 4062,
      "。\n(2)": 4063,
      "道:“": 4064,
      "!”": 4065,
      "报考": 4066,
      "120": 4067,
      "会上": 4068,
      "4日": 4069,
      "管理的": 4070,
      "将其": 4071,
      "名的": 4072,
      "高压": 4073,
      "观看": 4074,
      "节省": 4075,
      "大复兴": 4076,
      "在这": 4077,
      "发现,": 4078,
      "合理的": 4079,
      "LED": 4080,
      "电路": 4081,
      "全力": 4082,
      "es": 4083,
      "木,": 4084,
      "是因为": 4085,
      "超越": 4086,
      "回家": 4087,
      "会对": 4088,
      "较高": 4089,
      "。这个": 4090,
      "优势,": 4091,
      "各国": 4092,
      "。现在": 4093,
      "的人生": 4094,
      "el": 4095,
      ",一直": 4096,
      "产品,": 4097,
      "职务": 4098,
      "??": 4099,
      "教育的": 4100,
      "并非": 4101,
      "五、": 4102,
      "指示": 4103,
      "程度上": 4104,
      "把我们": 4105,
      "巴西": 4106,
      "更大": 4107,
      "重量": 4108,
      "税收": 4109,
      "工会": 4110,
      "要在": 4111,
      "让我": 4112,
      "。\n中国": 4113,
      "大于": 4114,
      "太阳能": 4115,
      "、花": 4116,
      "高新技术": 4117,
      "5000": 4118,
      ",其他": 4119,
      "或许": 4120,
      "即将": 4121,
      "数控": 4122,
      "IP": 4123,
      "期限": 4124,
      "分解": 4125,
      "收到": 4126,
      "则是": 4127,
      "保留": 4128,
      "那样": 4129,
      "活动的": 4130,
      "办事": 4131,
      "已成为": 4132,
      "之所以": 4133,
      "实,": 4134,
      "2022": 4135,
      "4)": 4136,
      "真空": 4137,
      "气象": 4138,
      "争取": 4139,
      "传感器": 4140,
      "员、": 4141,
      "研发、": 4142,
      "之一,": 4143,
      "光,": 4144,
      "来了": 4145,
      "增加了": 4146,
      "也就": 4147,
      "。\n目前": 4148,
      "工人": 4149,
      "强大": 4150,
      "当代": 4151,
      "件,": 4152,
      "照明": 4153,
      "着力": 4154,
      "。\n对": 4155,
      "的东西": 4156,
      "度、": 4157,
      "平稳": 4158,
      ":\n1.": 4159,
      "历程": 4160,
      "河南省": 4161,
      "风,": 4162,
      "成立于": 4163,
      "项,": 4164,
      "出发": 4165,
      "发明": 4166,
      "承受": 4167,
      "外界": 4168,
      "清的": 4169,
      "落地": 4170,
      "利的": 4171,
      "军队": 4172,
      "原本": 4173,
      ",家": 4174,
      "外观": 4175,
      "局面": 4176,
      "能力和": 4177,
      "旅行": 4178,
      "施,": 4179,
      "会影响": 4180,
      "。比如": 4181,
      "\n“": 4182,
      "一体的": 4183,
      "多家": 4184,
      "1/": 4185,
      "协作": 4186,
      "纪委": 4187,
      "意外": 4188,
      "水利": 4189,
      "带到了": 4190,
      "的行为": 4191,
      "件事": 4192,
      "通报": 4193,
      "大多": 4194,
      "精心": 4195,
      "十一": 4196,
      "乡村兴": 4197,
      "通用": 4198,
      "手续": 4199,
      "强国": 4200,
      "平安": 4201,
      "技术和": 4202,
      "原材料": 4203,
      "更高": 4204,
      "。例如": 4205,
      "走进": 4206,
      "数字化": 4207,
      "不在": 4208,
      "定了": 4209,
      "料的": 4210,
      "说是": 4211,
      "的社会": 4212,
      "中华民族大复兴": 4213,
      "队员": 4214,
      "人文": 4215,
      "策划": 4216,
      "也就是": 4217,
      "好处": 4218,
      "et": 4219,
      "▁年": 4220,
      "城区": 4221,
      "打破": 4222,
      "(含": 4223,
      "科、": 4224,
      "自学": 4225,
      "管理体系": 4226,
      "同步": 4227,
      "正确的": 4228,
      "196": 4229,
      "低温": 4230,
      "精密": 4231,
      "。\n一": 4232,
      "的花": 4233,
      "“两个": 4234,
      "协商": 4235,
      "县级": 4236,
      "入选": 4237,
      "入口": 4238,
      "的,所以": 4239,
      "的话,": 4240,
      "客户的": 4241,
      "社会主义现代化": 4242,
      "个体": 4243,
      "完成了": 4244,
      "实体": 4245,
      "带来了": 4246,
      "时间,": 4247,
      "是什么?": 4248,
      "实在": 4249,
      "清理": 4250,
      "从业": 4251,
      "、国家": 4252,
      "建材": 4253,
      "有利于": 4254,
      "最后,": 4255,
      "为中心": 4256,
      "老年人": 4257,
      "他在": 4258,
      "利率": 4259,
      "评审": 4260,
      ",大力": 4261,
      "的质量": 4262,
      "智能化": 4263,
      "女孩": 4264,
      "、黄": 4265,
      "预示": 4266,
      "技术人员": 4267,
      "对接": 4268,
      "(如": 4269,
      "、省": 4270,
      "深思": 4271,
      "实习": 4272,
      "的关系": 4273,
      "49": 4274,
      "压机": 4275,
      "现状": 4276,
      "太多": 4277,
      "去,": 4278,
      "类的": 4279,
      "预期": 4280,
      "著作": 4281,
      "出来,": 4282,
      "感受到": 4283,
      "全方位": 4284,
      "电子商务": 4285,
      "院士": 4286,
      "建立了": 4287,
      "很好": 4288,
      "的,在": 4289,
      "件、": 4290,
      ",造成": 4291,
      ",故": 4292,
      "85": 4293,
      "流通": 4294,
      "响应": 4295,
      "能在": 4296,
      "、安": 4297,
      "真正的": 4298,
      ",时": 4299,
      "广应用于": 4300,
      "工作者": 4301,
      "团体": 4302,
      "模型": 4303,
      ";而": 4304,
      "带头": 4305,
      "皮病": 4306,
      "做的": 4307,
      "组建": 4308,
      "而言,": 4309,
      "800": 4310,
      "四大": 4311,
      "去除": 4312,
      "法的": 4313,
      "职称": 4314,
      "活动。": 4315,
      "重复": 4316,
      "2023年": 4317,
      ",正": 4318,
      "app": 4319,
      "的过程": 4320,
      "不一样": 4321,
      "介质": 4322,
      "同事": 4323,
      "党组": 4324,
      "输入": 4325,
      "业内": 4326,
      "美元,": 4327,
      "服务的": 4328,
      "容量": 4329,
      "维度去": 4330,
      ",前": 4331,
      ",保证": 4332,
      "46": 4333,
      "。大": 4334,
      "社会的": 4335,
      "it": 4336,
      "把我们带到了": 4337,
      "。\n上": 4338,
      "强制": 4339,
      "法律法规": 4340,
      "开了": 4341,
      "一个新的维度去": 4342,
      "把我们带到了一个新的维度去": 4343,
      "超级": 4344,
      "势,": 4345,
      "车间": 4346,
      "地质": 4347,
      "。\n有": 4348,
      "线的": 4349,
      "多吃": 4350,
      "治党": 4351,
      "认知": 4352,
      "体质": 4353,
      "板的": 4354,
      "、石": 4355,
      "、白": 4356,
      "7个": 4357,
      "确立": 4358,
      ",但在": 4359,
      "道的": 4360,
      "是要": 4361,
      "性炎": 4362,
      ",减少": 4363,
      "作用。\n": 4364,
      "机组": 4365,
      "。这样": 4366,
      ",三": 4367,
      "制冷": 4368,
      "日起": 4369,
      "供应商": 4370,
      "人都": 4371,
      "、、等": 4372,
      "精的": 4373,
      "》\n": 4374,
      "是的": 4375,
      "?”\n": 4376,
      "原则,": 4377,
      "看着": 4378,
      "依照": 4379,
      "重,": 4380,
      "“四个": 4381,
      "取消": 4382,
      "家居": 4383,
      "标准化": 4384,
      "创新、": 4385,
      "将于": 4386,
      "看见": 4387,
      "继承": 4388,
      "由此": 4389,
      "4-": 4390,
      "车,": 4391,
      "领导干部": 4392,
      "开,": 4393,
      "任意": 4394,
      "生理": 4395,
      "在《": 4396,
      "最为": 4397,
      "把我们带到了一个新的维度去思考这个问题": 4398,
      "达成": 4399,
      "影响,": 4400,
      "审视": 4401,
      "。\n一、": 4402,
      "富含": 4403,
      "8个": 4404,
      "历史上": 4405,
      "机制,": 4406,
      "家族": 4407,
      "的数据": 4408,
      "说话": 4409,
      "5-": 4410,
      "上海市": 4411,
      "仅仅": 4412,
      "公司、": 4413,
      "总局": 4414,
      "层面": 4415,
      "。”\n“": 4416,
      "度和": 4417,
      "室、": 4418,
      "防水": 4419,
      "发展和": 4420,
      "之中": 4421,
      "输出": 4422,
      ",南": 4423,
      "参数": 4424,
      "▁\n": 4425,
      "总部": 4426,
      "心态": 4427,
      "。\n(三)": 4428,
      "小说": 4429,
      "地铁": 4430,
      ":在": 4431,
      "道、": 4432,
      "可以通过": 4433,
      "不受": 4434,
      "常委会": 4435,
      "会长": 4436,
      "初心": 4437,
      "接种": 4438,
      "(j": 4439,
      "运作": 4440,
      "g/": 4441,
      "的变化": 4442,
      "阳市": 4443,
      "化疗": 4444,
      "了中国": 4445,
      "2017": 4446,
      "力度,": 4447,
      "物资": 4448,
      "还没有": 4449,
      "文化的": 4450,
      "器官": 4451,
      "是一家": 4452,
      "当事": 4453,
      "情节": 4454,
      "便是": 4455,
      "人们的": 4456,
      "最的": 4457,
      "设备,": 4458,
      "两次": 4459,
      "、更": 4460,
      "的机会": 4461,
      "缺少": 4462,
      "动画": 4463,
      "化剂": 4464,
      "和《": 4465,
      "收购": 4466,
      "志者": 4467,
      "环境保护": 4468,
      "▁C": 4469,
      "第六": 4470,
      "大师": 4471,
      "学校的": 4472,
      "代表大会": 4473,
      "四)": 4474,
      "大地": 4475,
      "称为“": 4476,
      "基本上": 4477,
      "内古": 4478,
      "善于": 4479,
      "两国": 4480,
      "海南": 4481,
      "水中": 4482,
      "》。": 4483,
      "克服": 4484,
      "心情": 4485,
      "西亚": 4486,
      "道理": 4487,
      ",及时": 4488,
      "患者在": 4489,
      "研制": 4490,
      "简介": 4491,
      "对比": 4492,
      ",国": 4493,
      "点。\n": 4494,
      "发生了": 4495,
      "全年": 4496,
      "后果": 4497,
      "面前": 4498,
      "新炎": 4499,
      "西北": 4500,
      "局长": 4501,
      "也将": 4502,
      "可是": 4503,
      "儿园": 4504,
      "水平的": 4505,
      "光的": 4506,
      "形成了": 4507,
      "部队": 4508,
      "。\n以上": 4509,
      "售后服务": 4510,
      ",只是": 4511,
      "山,": 4512,
      "有“": 4513,
      "当中": 4514,
      "平台,": 4515,
      "每次": 4516,
      "二次": 4517,
      "的目标": 4518,
      "高度重视": 4519,
      "龙头": 4520,
      "身心": 4521,
      "此前": 4522,
      "福利": 4523,
      "增进": 4524,
      "而成": 4525,
      "也没有": 4526,
      "47": 4527,
      "实训": 4528,
      "常态": 4529,
      "西南": 4530,
      "重要讲话": 4531,
      "体积": 4532,
      "出行": 4533,
      "“双": 4534,
      "。当然": 4535,
      "实现了": 4536,
      "大气": 4537,
      "、李": 4538,
      "学的": 4539,
      "四省": 4540,
      "2008年": 4541,
      "和技术": 4542,
      "还能": 4543,
      "信、": 4544,
      "原来": 4545,
      "共建": 4546,
      "“一带一路": 4547,
      "差,": 4548,
      "上一": 4549,
      "聚集": 4550,
      "世界的": 4551,
      "▁S": 4552,
      "治疗,": 4553,
      "外,还": 4554,
      "卫星": 4555,
      "对此": 4556,
      "适量": 4557,
      "农产品": 4558,
      "科学家": 4559,
      "经意间": 4560,
      "西班": 4561,
      "。\n7、": 4562,
      "下来,": 4563,
      "人力资源": 4564,
      "情况下": 4565,
      "3D": 4566,
      "ic": 4567,
      "权的": 4568,
      "对其": 4569,
      "微量": 4570,
      "大批": 4571,
      "场的": 4572,
      "称之": 4573,
      "DP": 4574,
      "上、": 4575,
      "房子": 4576,
      "另一方面": 4577,
      "进取": 4578,
      "喜爱": 4579,
      "不管": 4580,
      "了解,": 4581,
      "上面": 4582,
      "儿的": 4583,
      ",而不是": 4584,
      "业的": 4585,
      "男女": 4586,
      "。这话": 4587,
      "重要的是": 4588,
      "线、": 4589,
      "方,": 4590,
      "公司,": 4591,
      "。\n对于": 4592,
      "市场需求": 4593,
      "科学技术": 4594,
      "系统,": 4595,
      "、技术": 4596,
      "公交": 4597,
      "参加了": 4598,
      "省市": 4599,
      "之中,": 4600,
      "经济的": 4601,
      "为大家": 4602,
      "外部": 4603,
      "模具": 4604,
      "物、": 4605,
      "的设计": 4606,
      "研究中心": 4607,
      ",很多": 4608,
      "意志": 4609,
      "学员": 4610,
      "转让": 4611,
      "不易": 4612,
      "病、": 4613,
      "。\n此外,": 4614,
      "是不是": 4615,
      "精细": 4616,
      ",受": 4617,
      "女士": 4618,
      "乐观": 4619,
      ",除了": 4620,
      "下列": 4621,
      "小区": 4622,
      "户外": 4623,
      ",就会": 4624,
      "传输": 4625,
      "。\n中": 4626,
      "的管理": 4627,
      "线下": 4628,
      ",花": 4629,
      "或是": 4630,
      "让你": 4631,
      "科学院": 4632,
      "、安全": 4633,
      "“中国": 4634,
      "美容": 4635,
      "2009年": 4636,
      "引入": 4637,
      ",例如": 4638,
      "。自": 4639,
      "另一个": 4640,
      "患有": 4641,
      "(sh": 4642,
      "成为了": 4643,
      "、清": 4644,
      "用作": 4645,
      "的利": 4646,
      "的天": 4647,
      "%以上": 4648,
      "缺点": 4649,
      "用电": 4650,
      "66": 4651,
      "是可以": 4652,
      "无限": 4653,
      "企业在": 4654,
      "5年,": 4655,
      "心。": 4656,
      "都很": 4657,
      "我们在": 4658,
      "等的": 4659,
      ",不会": 4660,
      "未来,": 4661,
      "立法": 4662,
      "体现了": 4663,
      "新生": 4664,
      "养生": 4665,
      "无数": 4666,
      "资助": 4667,
      "市场上": 4668,
      "当年": 4669,
      "企业和": 4670,
      "不需要": 4671,
      "制成": 4672,
      "也许": 4673,
      "出来的": 4674,
      "气温": 4675,
      "。\n根据": 4676,
      "定义": 4677,
      "承认": 4678,
      "了很多": 4679,
      ",每天": 4680,
      "中间": 4681,
      ",同": 4682,
      "较大的": 4683,
      ",一定要": 4684,
      ",这一": 4685,
      "%、": 4686,
      "坚强": 4687,
      "简单的": 4688,
      "种子": 4689,
      "临时": 4690,
      "健康的": 4691,
      "各部门": 4692,
      "特点,": 4693,
      "林业": 4694,
      "的人才": 4695,
      ",打造": 4696,
      "的,是": 4697,
      "都没有": 4698,
      ",不可": 4699,
      ",不管": 4700,
      "内分": 4701,
      "。\n1.": 4702,
      "机动": 4703,
      "学家": 4704,
      "医院的": 4705,
      "名为": 4706,
      "分数": 4707,
      "率先": 4708,
      "联合国": 4709,
      "▁公司": 4710,
      "干,": 4711,
      "2万": 4712,
      "相关部门": 4713,
      "产值": 4714,
      "科技有限公司": 4715,
      "木材": 4716,
      "提高了": 4717,
      "制药": 4718,
      "、合": 4719,
      "然而": 4720,
      "人不": 4721,
      "开始,": 4722,
      "接到": 4723,
      "发放": 4724,
      "黄河": 4725,
      "增值税": 4726,
      "。\n会议": 4727,
      ",这也是": 4728,
      "分别为": 4729,
      "le": 4730,
      "如果你": 4731,
      "PV": 4732,
      "米的": 4733,
      "坚持以": 4734,
      "考到": 4735,
      "来讲": 4736,
      "至于": 4737,
      "思想政治": 4738,
      "象征": 4739,
      "服务业": 4740,
      "。另外,": 4741,
      "新发展": 4742,
      "76": 4743,
      "11.": 4744,
      "占有": 4745,
      "北方": 4746,
      "小时,": 4747,
      "有:": 4748,
      "总量": 4749,
      "电站": 4750,
      "认同": 4751,
      "这样说过": 4752,
      "不仅仅": 4753,
      "出现在": 4754,
      ",切实": 4755,
      "车站": 4756,
      "1:": 4757,
      "热的": 4758,
      "系数": 4759,
      "有效地": 4760,
      "首批": 4761,
      "是很": 4762,
      "的学习": 4763,
      "30日": 4764,
      "台,": 4765,
      "不多": 4766,
      "路,": 4767,
      "相比,": 4768,
      "模范": 4769,
      "。\n(3)": 4770,
      "经意间这样说过": 4771,
      "、开": 4772,
      "、抗": 4773,
      "2016": 4774,
      "”(": 4775,
      "外交": 4776,
      "的人员": 4777,
      ",随着": 4778,
      "过了": 4779,
      "。\n第四": 4780,
      "成型": 4781,
      "。主要": 4782,
      "的信息": 4783,
      "说过一": 4784,
      "主导": 4785,
      "电影《": 4786,
      "各大": 4787,
      "提示": 4788,
      "转化为": 4789,
      "10年": 4790,
      "电流": 4791,
      "的上": 4792,
      "的友": 4793,
      "记得": 4794,
      "表现为": 4795,
      "需要注意": 4796,
      "通,": 4797,
      "将继续": 4798,
      "评选": 4799,
      "较好的": 4800,
      "心中": 4801,
      "\n五行": 4802,
      "平,": 4803,
      "采集": 4804,
      "的情况下": 4805,
      "发性": 4806,
      "争力": 4807,
      "微博": 4808,
      "日元": 4809,
      "(x": 4810,
      "意,": 4811,
      "销商": 4812,
      "明显的": 4813,
      "画面": 4814,
      "备案": 4815,
      "、热": 4816,
      "、上海": 4817,
      ",来": 4818,
      "每日": 4819,
      "达到了": 4820,
      "不超过": 4821,
      "白的": 4822,
      "给你": 4823,
      "而且": 4824,
      "、以": 4825,
      "等多种": 4826,
      "、生": 4827,
      "门的": 4828,
      "人员的": 4829,
      "上市公司": 4830,
      "▁《": 4831,
      "队,": 4832,
      "得以": 4833,
      "。\n0": 4834,
      "不适": 4835,
      ",国家": 4836,
      "感。": 4837,
      "组成部分": 4838,
      "都市": 4839,
      ",他的": 4840,
      "主角": 4841,
      "华为": 4842,
      "出一": 4843,
      "引起的": 4844,
      "都知道": 4845,
      "济南": 4846,
      "高兴": 4847,
      ",防止": 4848,
      "完善的": 4849,
      "“不": 4850,
      "人与": 4851,
      "i)(": 4852,
      "尔斯": 4853,
      "公正": 4854,
      "导师": 4855,
      "、香": 4856,
      "12.": 4857,
      "说法": 4858,
      "接着": 4859,
      "紧紧": 4860,
      "民众": 4861,
      "两大": 4862,
      "山水": 4863,
      "理工": 4864,
      "情的": 4865,
      "占据": 4866,
      "能力、": 4867,
      "原始": 4868,
      "马上": 4869,
      "1,": 4870,
      "化合物": 4871,
      "的基础上,": 4872,
      "能力。": 4873,
      "电压": 4874,
      "比亚": 4875,
      "经验,": 4876,
      "以下简称": 4877,
      "场、": 4878,
      "42": 4879,
      "电的": 4880,
      "e)(": 4881,
      "也不会": 4882,
      ",地": 4883,
      "副主": 4884,
      "交通运输": 4885,
      "无论是": 4886,
      "大。\n": 4887,
      "分、": 4888,
      "理财": 4889,
      ",有利于": 4890,
      "包皮": 4891,
      "特定": 4892,
      "要把": 4893,
      "一生": 4894,
      "高铁": 4895,
      "不起": 4896,
      "人民的": 4897,
      ",使用": 4898,
      "全面从严": 4899,
      "称“": 4900,
      "受伤": 4901,
      "化。": 4902,
      "95": 4903,
      "国防": 4904,
      ",企业": 4905,
      "在家": 4906,
      "争议": 4907,
      "年(": 4908,
      "以往": 4909,
      "今日": 4910,
      "展会": 4911,
      "的老": 4912,
      "那里": 4913,
      "展现出": 4914,
      "文、": 4915,
      "入了": 4916,
      "公示": 4917,
      "素养": 4918,
      "对的": 4919,
      "小康": 4920,
      "”;": 4921,
      "水质": 4922,
      "相反": 4923,
      "学院、": 4924,
      "。的": 4925,
      "五个": 4926,
      "难的": 4927,
      ",不同": 4928,
      "▁:": 4929,
      "心血管": 4930,
      "对话": 4931,
      "建筑面积": 4932,
      "动、": 4933,
      "管、": 4934,
      "不如": 4935,
      "化品": 4936,
      "可达": 4937,
      "式的": 4938,
      "开设": 4939,
      "流产": 4940,
      "环境的": 4941,
      "提取": 4942,
      "排水": 4943,
      "实质": 4944,
      "排除": 4945,
      "实时": 4946,
      "最早": 4947,
      "《关于": 4948,
      ",可是": 4949,
      "约为": 4950,
      "组织的": 4951,
      ",如何": 4952,
      "热量": 4953,
      "党和国家": 4954,
      "料,": 4955,
      "传达": 4956,
      "的故事": 4957,
      "模式,": 4958,
      "电网": 4959,
      "的核心": 4960,
      "少,": 4961,
      "。\n为": 4962,
      "现在的": 4963,
      "养成": 4964,
      "快,": 4965,
      "公元": 4966,
      "(中国)有限公司": 4967,
      "运转": 4968,
      "为止": 4969,
      "三、": 4970,
      "液压": 4971,
      "房间": 4972,
      "远离": 4973,
      "NA": 4974,
      "生产线": 4975,
      "转型升级": 4976,
      "处的": 4977,
      "。\n新": 4978,
      "新能源汽车": 4979,
      "初期": 4980,
      ",帮助": 4981,
      "率为": 4982,
      "中小企业": 4983,
      ",按照": 4984,
      "!”\n": 4985,
      "名。": 4986,
      ",共同": 4987,
      "制的": 4988,
      "58": 4989,
      "南北": 4990,
      "好像": 4991,
      "高速公路": 4992,
      "近日,": 4993,
      "感和": 4994,
      "爱好": 4995,
      "才会": 4996,
      ",明": 4997,
      ",清": 4998,
      "上去": 4999,
      "国产": 5000,
      "是我们": 5001,
      "法人": 5002,
      "有点": 5003,
      "远程": 5004,
      "、土": 5005,
      "不知": 5006,
      "比重": 5007,
      "。\n6": 5008,
      "、北": 5009,
      "cm": 5010,
      ",及": 5011,
      "。经过": 5012,
      "南方": 5013,
      "物业": 5014,
      "194": 5015,
      "。。": 5016,
      "美好的": 5017,
      "回报": 5018,
      "的战": 5019,
      "言,": 5020,
      "许可证": 5021,
      "防疫": 5022,
      "减速": 5023,
      "验收": 5024,
      "源于": 5025,
      "黄色": 5026,
      "一片": 5027,
      ",白": 5028,
      "多。": 5029,
      "开工": 5030,
      ",强化": 5031,
      "金融机构": 5032,
      "现金": 5033,
      "共计": 5034,
      "头的": 5035,
      "尽可能": 5036,
      "作物": 5037,
      ",深入": 5038,
      "0个": 5039,
      "平等": 5040,
      "位。": 5041,
      "多项": 5042,
      "不当": 5043,
      "购物": 5044,
      "st": 5045,
      "。\n所以": 5046,
      "可的": 5047,
      "复的": 5048,
      "发了": 5049,
      "考验": 5050,
      "体检": 5051,
      "病变": 5052,
      "较强的": 5053,
      "经济社会发展": 5054,
      "等行业": 5055,
      "主张": 5056,
      "十四五”": 5057,
      "书画": 5058,
      "底,": 5059,
      "一段时间": 5060,
      "固体": 5061,
      "的规定": 5062,
      "占地面积": 5063,
      "进出口": 5064,
      "、张": 5065,
      "下一步": 5066,
      "难,": 5067,
      "本地": 5068,
      "小型": 5069,
      "农药": 5070,
      "、王": 5071,
      "生产经营": 5072,
      "坚实": 5073,
      "天地": 5074,
      "仅有": 5075,
      "看起来": 5076,
      "ol": 5077,
      "、光": 5078,
      "事实上,": 5079,
      "给大家": 5080,
      "的第一": 5081,
      "全民": 5082,
      "我校": 5083,
      "此同时,": 5084,
      "配送": 5085,
      "留在": 5086,
      "44": 5087,
      ",想": 5088,
      ",除": 5089,
      "三种": 5090,
      ",立": 5091,
      "、“": 5092,
      "有力": 5093,
      "和管理": 5094,
      "15日": 5095,
      "2.5": 5096,
      "大规模": 5097,
      "“一带一路”": 5098,
      ",着力": 5099,
      ",王": 5100,
      "机和": 5101,
      "集团有限公司": 5102,
      ",人们": 5103,
      "”之": 5104,
      "稳定性": 5105,
      "、一": 5106,
      "微量元素": 5107,
      ",等": 5108,
      "上级": 5109,
      "的价格": 5110,
      "输管": 5111,
      "ISO": 5112,
      "说。\n": 5113,
      "境界": 5114,
      "用人单位": 5115,
      "未成年": 5116,
      "了对": 5117,
      "教育教学": 5118,
      "机电": 5119,
      "用地": 5120,
      "开发、": 5121,
      "的同时": 5122,
      "发展战略": 5123,
      "的手": 5124,
      "充电": 5125,
      "城市的": 5126,
      "路、": 5127,
      "的高度": 5128,
      "列入": 5129,
      ",充分": 5130,
      "发热": 5131,
      "它是": 5132,
      "酒、": 5133,
      "境内": 5134,
      "说过这样": 5135,
      "师资": 5136,
      "3万": 5137,
      "问题。\n": 5138,
      "曾经提到过,": 5139,
      "财运": 5140,
      "造成的": 5141,
      "上。\n": 5142,
      "爱心": 5143,
      "“大": 5144,
      ",自己": 5145,
      "子。": 5146,
      "干、": 5147,
      "标准,": 5148,
      "的一切": 5149,
      "生活中,": 5150,
      "点的": 5151,
      "98": 5152,
      "容器": 5153,
      "近日": 5154,
      "客场": 5155,
      "、家": 5156,
      "污染物": 5157,
      "的首": 5158,
      "介了": 5159,
      "旅客": 5160,
      ",已经": 5161,
      "三十": 5162,
      "之处": 5163,
      "她们": 5164,
      "年轻人": 5165,
      ",以便": 5166,
      "最重要的": 5167,
      ":一是": 5168,
      "管控": 5169,
      "本土": 5170,
      "后期": 5171,
      "出。": 5172,
      "”,“": 5173,
      "厂房": 5174,
      "制造、": 5175,
      "友们": 5176,
      "的精": 5177,
      "(zh": 5178,
      "▁A": 5179,
      "离不开": 5180,
      "在全国": 5181,
      ",降低": 5182,
      "纪检": 5183,
      "财经": 5184,
      "注意事项": 5185,
      "和水": 5186,
      "的国家": 5187,
      "民事": 5188,
      "随意": 5189,
      "有助于": 5190,
      "不。": 5191,
      ");": 5192,
      "富,": 5193,
      "的力": 5194,
      "给我": 5195,
      "制,": 5196,
      "物料": 5197,
      "境外": 5198,
      "II": 5199,
      "、对": 5200,
      "结论": 5201,
      "印发": 5202,
      "、深": 5203,
      "必需": 5204,
      "行。": 5205,
      "生态文明": 5206,
      "的长": 5207,
      "均可": 5208,
      "医疗机构": 5209,
      "开关": 5210,
      "排查": 5211,
      "费、": 5212,
      "失望": 5213,
      "全过程": 5214,
      "获奖": 5215,
      "美食": 5216,
      "1万": 5217,
      "五行缺什么": 5218,
      "分。\n": 5219,
      "中共中央": 5220,
      "900": 5221,
      "活力": 5222,
      "体重": 5223,
      "(C": 5224,
      "持有": 5225,
      "为,": 5226,
      "部和": 5227,
      "不想": 5228,
      "钢板": 5229,
      "面试": 5230,
      "实、": 5231,
      "决议": 5232,
      "性疾病": 5233,
      "在北京": 5234,
      "的度": 5235,
      "放心": 5236,
      "过多": 5237,
      ",是一种": 5238,
      "学习教育": 5239,
      "感、": 5240,
      "市政府": 5241,
      "之。": 5242,
      "设计,": 5243,
      "复发": 5244,
      ",更是": 5245,
      "实地": 5246,
      "内地": 5247,
      "68": 5248,
      "集团公司": 5249,
      "留学": 5250,
      "水处理": 5251,
      "医治": 5252,
      "好评": 5253,
      "。可以": 5254,
      "不太": 5255,
      "PE": 5256,
      "管理和": 5257,
      "的结果": 5258,
      ",保持": 5259,
      "外线": 5260,
      "动者": 5261,
      ",是一": 5262,
      "副书记": 5263,
      "定,": 5264,
      "更容易": 5265,
      "罗马": 5266,
      "几十": 5267,
      "越南": 5268,
      "官员": 5269,
      "不但": 5270,
      "、林": 5271,
      "为基础": 5272,
      "交往": 5273,
      "化解": 5274,
      "“两": 5275,
      "当中,": 5276,
      ",常": 5277,
      "不可能": 5278,
      "总理": 5279,
      "的选择": 5280,
      "那种": 5281,
      "好好": 5282,
      "10个": 5283,
      "首都": 5284,
      "立方": 5285,
      "AA": 5286,
      "流域": 5287,
      "回来": 5288,
      "重组": 5289,
      "门、": 5290,
      "的可能": 5291,
      "水平,": 5292,
      "、企业": 5293,
      "用车": 5294,
      "天然气": 5295,
      "情形": 5296,
      "花,": 5297,
      "未能": 5298,
      "补助": 5299,
      "。今年": 5300,
      "、经济": 5301,
      "。学校": 5302,
      ",它们": 5303,
      "的相关": 5304,
      "预示着": 5305,
      "早在": 5306,
      "稳定的": 5307,
      "PC": 5308,
      "77": 5309,
      "加以": 5310,
      "高血压": 5311,
      ",很": 5312,
      "标识": 5313,
      "八字中": 5314,
      "新建": 5315,
      "共识": 5316,
      "血、": 5317,
      "\n《": 5318,
      "特别是在": 5319,
      "需要的": 5320,
      "不合": 5321,
      "不吃": 5322,
      "文,": 5323,
      "能力的": 5324,
      "产业的": 5325,
      "为核心的": 5326,
      "服务。\n": 5327,
      ";二是": 5328,
      "带有": 5329,
      "相,": 5330,
      ",只能": 5331,
      "快的": 5332,
      "场地": 5333,
      "一一": 5334,
      "▁据": 5335,
      "百分点": 5336,
      "小心": 5337,
      "和大": 5338,
      ",以“": 5339,
      "、可": 5340,
      "43": 5341,
      "中等": 5342,
      "之一。\n": 5343,
      "相当于": 5344,
      "美,": 5345,
      "不应": 5346,
      "百万": 5347,
      "、红": 5348,
      "一直在": 5349,
      "博会": 5350,
      "▁我": 5351,
      "通、": 5352,
      ",也可": 5353,
      "高水平": 5354,
      "设计师": 5355,
      "手表": 5356,
      "因此,": 5357,
      "在大": 5358,
      "科目": 5359,
      "什么是": 5360,
      "打算": 5361,
      "机。": 5362,
      "么办": 5363,
      "新征程": 5364,
      "因而": 5365,
      "二化": 5366,
      "创立": 5367,
      "过来": 5368,
      ",李": 5369,
      "月22": 5370,
      "建设。": 5371,
      "3年,": 5372,
      "并发": 5373,
      "10日": 5374,
      "十八大": 5375,
      ",加大": 5376,
      "青海": 5377,
      "品的": 5378,
      "ac": 5379,
      "、低": 5380,
      "区内": 5381,
      "看来,": 5382,
      "。\n作为": 5383,
      "政策,": 5384,
      "中和": 5385,
      "次数": 5386,
      "在不经意间这样说过": 5387,
      "核酸": 5388,
      "稳步": 5389,
      "单独": 5390,
      "20日": 5391,
      ",经过": 5392,
      "审议": 5393,
      ",去": 5394,
      "GDP": 5395,
      "说,“": 5396,
      "然很": 5397,
      ",成": 5398,
      "教、": 5399,
      "技术创新": 5400,
      "几天": 5401,
      "压力,": 5402,
      "配件": 5403,
      "\n生": 5404,
      "图像": 5405,
      "级的": 5406,
      "。\n6.": 5407,
      "老板": 5408,
      "学习、": 5409,
      "走出": 5410,
      "取决": 5411,
      "的特点": 5412,
      "领导班子": 5413,
      "份,": 5414,
      "13.": 5415,
      "条例》": 5416,
      "板材": 5417,
      "有益": 5418,
      "法律、": 5419,
      "大利亚": 5420,
      "点、": 5421,
      "需求,": 5422,
      "两位": 5423,
      "五大": 5424,
      "极为": 5425,
      "在里": 5426,
      "老化": 5427,
      "产生了": 5428,
      "GB": 5429,
      "指定": 5430,
      "书面": 5431,
      "积极开展": 5432,
      "前后": 5433,
      "的形式": 5434,
      "人心": 5435,
      "▁2": 5436,
      "包括:": 5437,
      "作了": 5438,
      "及以上": 5439,
      "的优": 5440,
      "com": 5441,
      "书,": 5442,
      "河北省": 5443,
      "用,": 5444,
      "▁?": 5445,
      "人有": 5446,
      "例,": 5447,
      "而已": 5448,
      "星期": 5449,
      "男孩": 5450,
      "科普": 5451,
      "解,": 5452,
      "合并": 5453,
      "的多": 5454,
      "书长": 5455,
      "不变": 5456,
      "分工": 5457,
      "权力": 5458,
      "科学的": 5459,
      "也可": 5460,
      "作,": 5461,
      "APP": 5462,
      "外资": 5463,
      "。\n大": 5464,
      "强调,": 5465,
      "易于": 5466,
      "八字中的": 5467,
      "之际": 5468,
      "、长": 5469,
      "主流": 5470,
      "、心": 5471,
      "维生素C": 5472,
      "场上": 5473,
      "视为": 5474,
      "路上": 5475,
      "的前提": 5476,
      "水分": 5477,
      "市场,": 5478,
      "的功能": 5479,
      "之下,": 5480,
      "、东": 5481,
      "远远": 5482,
      "在此": 5483,
      ",还可以": 5484,
      "人”": 5485,
      ",影响": 5486,
      "人事": 5487,
      "将军": 5488,
      "在一": 5489,
      "精子": 5490,
      "成功的": 5491,
      "请求": 5492,
      "创新创业": 5493,
      "任务,": 5494,
      "中文": 5495,
      "住了": 5496,
      "场合": 5497,
      "“四": 5498,
      "决心": 5499,
      "作家": 5500,
      "取决于": 5501,
      "随后,": 5502,
      "生成": 5503,
      "出售": 5504,
      "和。": 5505,
      "在内的": 5506,
      "前期": 5507,
      "\n(一)": 5508,
      "标准的": 5509,
      "信息技术": 5510,
      "拉斯": 5511,
      "本,": 5512,
      "除此": 5513,
      "存在的": 5514,
      "(g": 5515,
      ",还要": 5516,
      "食品安全": 5517,
      "的亲": 5518,
      "公安机关": 5519,
      "清除": 5520,
      "不动": 5521,
      "变更": 5522,
      "56": 5523,
      "▁M": 5524,
      "最多": 5525,
      "地。": 5526,
      "其是": 5527,
      "解除": 5528,
      "86": 5529,
      ",这里": 5530,
      "实中": 5531,
      "身份证": 5532,
      "我们要": 5533,
      "经销商": 5534,
      "一等奖": 5535,
      "别人的": 5536,
      "太平": 5537,
      "者、": 5538,
      "2007年": 5539,
      "有一定的": 5540,
      "细致": 5541,
      "热爱": 5542,
      "结,": 5543,
      "am": 5544,
      "自律": 5545,
      "着的": 5546,
      ",这就是": 5547,
      "水平。": 5548,
      "利,": 5549,
      "二等奖": 5550,
      "县(": 5551,
      "更高的": 5552,
      "本赛季": 5553,
      "电视台": 5554,
      "小、": 5555,
      "各方面": 5556,
      "有,": 5557,
      "第三方": 5558,
      "科学研究": 5559,
      "加强对": 5560,
      "指南": 5561,
      "位的": 5562,
      "是大": 5563,
      "ro": 5564,
      "发生在": 5565,
      "型号": 5566,
      "非常重要": 5567,
      "山区": 5568,
      "落后": 5569,
      "治疗。": 5570,
      ",同时也": 5571,
      ";(": 5572,
      ",手": 5573,
      "电视剧": 5574,
      "的组织": 5575,
      "发动机": 5576,
      "材料、": 5577,
      ",每年": 5578,
      "在使用": 5579,
      "时光": 5580,
      "。\n与": 5581,
      ",有时": 5582,
      "加剂": 5583,
      "目标,": 5584,
      "热器": 5585,
      "经济效益": 5586,
      "神的": 5587,
      "。\n见": 5588,
      "提供的": 5589,
      "在“": 5590,
      "来看看": 5591,
      "新华": 5592,
      "不可免": 5593,
      "已经成为": 5594,
      "发生的": 5595,
      "全面从严治党": 5596,
      "必要的": 5597,
      "全程": 5598,
      "日的": 5599,
      "资源,": 5600,
      "金、": 5601,
      "网安全": 5602,
      "反而": 5603,
      "权、": 5604,
      "条件的": 5605,
      "制造商": 5606,
      "提高,": 5607,
      "子内": 5608,
      "越来越多": 5609,
      "在校": 5610,
      "生意": 5611,
      "的事实": 5612,
      "段的": 5613,
      "2006年": 5614,
      "差别": 5615,
      "放置": 5616,
      "▁2、": 5617,
      "好好地": 5618,
      "政策的": 5619,
      ",因而": 5620,
      "):": 5621,
      "限于": 5622,
      "31日": 5623,
      "喜的": 5624,
      "CO": 5625,
      "《》": 5626,
      "。\n随着": 5627,
      "开的": 5628,
      "热,": 5629,
      "着“": 5630,
      "推行": 5631,
      "小于": 5632,
      "所得税": 5633,
      "这类": 5634,
      "为主题": 5635,
      "多名": 5636,
      "口、": 5637,
      "中毒": 5638,
      "主要有": 5639,
      "清华": 5640,
      "从来": 5641,
      "的一部分": 5642,
      "人大常委会": 5643,
      "这位": 5644,
      "9个": 5645,
      ",并对": 5646,
      "g)(": 5647,
      "不及": 5648,
      "新一": 5649,
      "图案": 5650,
      "和工作": 5651,
      "宣讲": 5652,
      "学习,": 5653,
      "型、": 5654,
      "管理部门": 5655,
      ",海": 5656,
      "面上": 5657,
      "评为": 5658,
      "习近平同志": 5659,
      "5万": 5660,
      "层的": 5661,
      "保安": 5662,
      "适当的": 5663,
      "突发": 5664,
      "全党": 5665,
      "第二个": 5666,
      "NBA": 5667,
      "还将": 5668,
      "疗效": 5669,
      "疗法": 5670,
      "。那": 5671,
      "及其他": 5672,
      "要求。": 5673,
      "特种": 5674,
      "不出": 5675,
      "医生的": 5676,
      "演的": 5677,
      "政务": 5678,
      "算是": 5679,
      "合作关系": 5680,
      "油,": 5681,
      "电信": 5682,
      "中心,": 5683,
      "党委书记": 5684,
      "入学": 5685,
      "。\n10": 5686,
      "作战": 5687,
      "78": 5688,
      "第十": 5689,
      "。目前,": 5690,
      "的文化": 5691,
      "、火": 5692,
      "者。": 5693,
      "方法,": 5694,
      "征收": 5695,
      "一项": 5696,
      "《中国": 5697,
      "是从": 5698,
      "江南": 5699,
      "商家": 5700,
      "单元": 5701,
      ",我们还要": 5702,
      "级别": 5703,
      "公积": 5704,
      "得很": 5705,
      "的,应当": 5706,
      "的发展,": 5707,
      ",全力": 5708,
      "考古": 5709,
      "看到了": 5710,
      "厂商": 5711,
      "将来": 5712,
      "党内": 5713,
      "大局": 5714,
      "最初": 5715,
      "白,": 5716,
      "可性": 5717,
      "人对": 5718,
      "用户的": 5719,
      ",不少": 5720,
      "环境,": 5721,
      "增加,": 5722,
      "一样,": 5723,
      "的就是": 5724,
      "并未": 5725,
      "车型": 5726,
      "、科研": 5727,
      "身体的": 5728,
      "或者是": 5729,
      "时代的": 5730,
      "京东": 5731,
      "这部": 5732,
      "导体": 5733,
      "后续": 5734,
      "底线": 5735,
      "最重要": 5736,
      "的世界": 5737,
      "免疫力": 5738,
      ",当然": 5739,
      "好。\n": 5740,
      "段时间": 5741,
      ":00-": 5742,
      "四是": 5743,
      "比分": 5744,
      "2,": 5745,
      "动员": 5746,
      "带给": 5747,
      ",是指": 5748,
      "PS": 5749,
      "密集": 5750,
      "企业。": 5751,
      "管理人员": 5752,
      "的出": 5753,
      "、为": 5754,
      "事物": 5755,
      "每一位": 5756,
      "亲自": 5757,
      "花的": 5758,
      "、性": 5759,
      "实事": 5760,
      "4年,": 5761,
      "党风": 5762,
      "日期": 5763,
      "个人的": 5764,
      "全世界": 5765,
      "24小时": 5766,
      "市区": 5767,
      "应该是": 5768,
      "一行": 5769,
      "表明,": 5770,
      ",于是": 5771,
      "去世": 5772,
      ",那就是": 5773,
      "PVC": 5774,
      "检院": 5775,
      "--------": 5776,
      "几种": 5777,
      ",如今": 5778,
      ",可能": 5779,
      "带着这话": 5780,
      "委员、": 5781,
      ",分": 5782,
      "9月2": 5783,
      "承“": 5784,
      "1日,": 5785,
      "执业": 5786,
      "。\n李": 5787,
      "患上": 5788,
      "公司在": 5789,
      "成品": 5790,
      "起点": 5791,
      "创始": 5792,
      ",色": 5793,
      "生、": 5794,
      "英超": 5795,
      "高职": 5796,
      "各项工作": 5797,
      "经济增长": 5798,
      "使用。": 5799,
      "的重": 5800,
      "。\n7": 5801,
      "成功率": 5802,
      "16日": 5803,
      "ian": 5804,
      "会使": 5805,
      "▁0": 5806,
      "调理": 5807,
      "大国": 5808,
      "受益": 5809,
      "演讲": 5810,
      "温室": 5811,
      "a)": 5812,
      "治国": 5813,
      ",一切": 5814,
      "在这里": 5815,
      "安全性": 5816,
      "18日": 5817,
      "相处": 5818,
      "。\n通过": 5819,
      "精力": 5820,
      "在地": 5821,
      "故意": 5822,
      ",我们还要更加": 5823,
      ",皮": 5824,
      "带着这话,我们还要更加": 5825,
      "总数": 5826,
      "市政": 5827,
      "头发": 5828,
      "如下:\n": 5829,
      "受理": 5830,
      "不清": 5831,
      "上班": 5832,
      "开发区": 5833,
      ",这话": 5834,
      "发了我": 5835,
      "开心": 5836,
      "全新": 5837,
      "医保": 5838,
      "科室": 5839,
      "统治": 5840,
      ",打": 5841,
      ",认真": 5842,
      "失业": 5843,
      ",张": 5844,
      "种种": 5845,
      "装配": 5846,
      "合适的": 5847,
      "(包括": 5848,
      "其中,": 5849,
      "会。": 5850,
      "精神和": 5851,
      "解决了": 5852,
      "机体": 5853,
      ",今年": 5854,
      ",行": 5855,
      "、网": 5856,
      "指引": 5857,
      "2005年": 5858,
      "之日起": 5859,
      "建设项目": 5860,
      "者和": 5861,
      "实际情况": 5862,
      "具有良好的": 5863,
      "校企": 5864,
      "的大型": 5865,
      "化工、": 5866,
      "国际化": 5867,
      ",说": 5868,
      "再度": 5869,
      "11月2": 5870,
      "CE": 5871,
      "企业家": 5872,
      "坚持“": 5873,
      "全,": 5874,
      "正当": 5875,
      "起重机": 5876,
      "学习的": 5877,
      "促使": 5878,
      "爱你": 5879,
      "的,因为": 5880,
      "深市": 5881,
      "执政": 5882,
      "有利": 5883,
      "题材": 5884,
      "14.": 5885,
      "老的": 5886,
      "有关规定": 5887,
      "初中": 5888,
      "的发病": 5889,
      "友好": 5890,
      "制、": 5891,
      "6-": 5892,
      "。\n小": 5893,
      "复,": 5894,
      "当天": 5895,
      "治疗的": 5896,
      "重的审视": 5897,
      "告知": 5898,
      "▁3": 5899,
      "重的审视这个问题": 5900,
      "里斯": 5901,
      ",聚": 5902,
      "政府的": 5903,
      "、华": 5904,
      "不住": 5905,
      "各方": 5906,
      "今年的": 5907,
      "北省": 5908,
      "也被": 5909,
      ",进而": 5910,
      "的,可以": 5911,
      "无线": 5912,
      "班级": 5913,
      "1500": 5914,
      "。\n王": 5915,
      "。后": 5916,
      "转入": 5917,
      "去了": 5918,
      "、马": 5919,
      "党的领导": 5920,
      "出社": 5921,
      ",就像": 5922,
      "全面建设": 5923,
      "亿美元,": 5924,
      "。\n8、": 5925,
      "人是": 5926,
      "、最": 5927,
      "意见》": 5928,
      "类别": 5929,
      "国资": 5930,
      "的海": 5931,
      "生产和": 5932,
      "长远": 5933,
      "明年": 5934,
      ",产品": 5935,
      "一个月": 5936,
      "带着这话,我们还要更加重的审视这个问题": 5937,
      "影响。": 5938,
      "清单": 5939,
      "的风": 5940,
      "is": 5941,
      "的传": 5942,
      "批发": 5943,
      "也能好好地": 5944,
      "的症状": 5945,
      "为:": 5946,
      "比上年": 5947,
      "。但是,": 5948,
      "给人": 5949,
      "合性": 5950,
      "修养": 5951,
      "、发": 5952,
      "首先要": 5953,
      "中。\n": 5954,
      "0.0": 5955,
      "的政治": 5956,
      "第二次": 5957,
      "▁B": 5958,
      "受到了": 5959,
      "12月2": 5960,
      "专注于": 5961,
      "态势": 5962,
      ";要": 5963,
      "ao)": 5964,
      "、工作": 5965,
      "国家队": 5966,
      "数据显示,": 5967,
      "公共服务": 5968,
      "法行为": 5969,
      "一下,": 5970,
      "价比": 5971,
      "▁那么": 5972,
      "。\n五、": 5973,
      "1%": 5974,
      "、动": 5975,
      "中超": 5976,
      ",推进": 5977,
      "什么?": 5978,
      "也能好好地体会": 5979,
      "的重大": 5980,
      "条件下": 5981,
      ",应当": 5982,
      "士学位": 5983,
      "均为": 5984,
      "用。": 5985,
      "光明": 5986,
      "的学生": 5987,
      "老百": 5988,
      "女性的": 5989,
      "见证": 5990,
      ",患者": 5991,
      "当事人": 5992,
      "《中华人民共和国": 5993,
      "对我": 5994,
      "解决问题": 5995,
      "质量和": 5996,
      "有限责任": 5997,
      "公积金": 5998,
      "做事": 5999,
      ",主": 6000,
      "个数": 6001,
      "平面": 6002,
      "副书记、": 6003,
      "内在": 6004,
      "57": 6005,
      "深入学习": 6006,
      "声明": 6007,
      "是为了": 6008,
      "效果。": 6009,
      "的感觉": 6010,
      "德里": 6011,
      "让他": 6012,
      "亿元,同比增长": 6013,
      "很强的": 6014,
      "么样": 6015,
      "的现象": 6016,
      "什么样的": 6017,
      "\n本": 6018,
      "要想": 6019,
      "等相关": 6020,
      "为人": 6021,
      "67": 6022,
      "不地": 6023,
      "失,": 6024,
      ",如果你": 6025,
      "取代": 6026,
      "山的": 6027,
      "助理": 6028,
      "我在": 6029,
      "常用的": 6030,
      "东京": 6031,
      "亲子": 6032,
      "ou": 6033,
      "北京时间": 6034,
      "调控": 6035,
      "。小": 6036,
      "。到": 6037,
      "不断的": 6038,
      "三级": 6039,
      "极大": 6040,
      "年来": 6041,
      "专业技术": 6042,
      "地点": 6043,
      "▁-": 6044,
      "▁P": 6045,
      "文的": 6046,
      "到来": 6047,
      ",并将": 6048,
      "功能,": 6049,
      "和新": 6050,
      "水性": 6051,
      "终身": 6052,
      "学期": 6053,
      "起的": 6054,
      "成。": 6055,
      "创造了": 6056,
      "高等教育": 6057,
      "负面": 6058,
      "布置": 6059,
      "师范大学": 6060,
      "全新的": 6061,
      "用量": 6062,
      "商会": 6063,
      "极其": 6064,
      "话题": 6065,
      "送到": 6066,
      ",但我想": 6067,
      "深受": 6068,
      "5)": 6069,
      "明天": 6070,
      "有时": 6071,
      "一部分": 6072,
      "程,": 6073,
      "表示:“": 6074,
      "的风险": 6075,
      "举报": 6076,
      "的教育": 6077,
      "县委": 6078,
      "就医": 6079,
      "现出": 6080,
      "然是": 6081,
      ",所": 6082,
      "期内": 6083,
      "极大的": 6084,
      "排出": 6085,
      "不人": 6086,
      "家属": 6087,
      "》和《": 6088,
      "当今": 6089,
      "4万": 6090,
      "征求": 6091,
      "实际行动": 6092,
      "制约": 6093,
      "不平": 6094,
      "全县": 6095,
      "结后,": 6096,
      "相继": 6097,
      "真是": 6098,
      "领会": 6099,
      "也能好好地体会这话": 6100,
      "地域": 6101,
      "类型的": 6102,
      "1月2": 6103,
      "亿元。": 6104,
      "20世纪": 6105,
      "全国各地": 6106,
      "油的": 6107,
      "住院": 6108,
      "余人": 6109,
      ",安": 6110,
      "酒精": 6111,
      ",要求": 6112,
      "各族": 6113,
      "国家安全": 6114,
      "值得一": 6115,
      ",也会": 6116,
      "影响力": 6117,
      "次于": 6118,
      "机动车": 6119,
      "剧情": 6120,
      "、阳": 6121,
      "、自": 6122,
      "有力的": 6123,
      ",这就": 6124,
      "、食": 6125,
      "品牌的": 6126,
      "小孩": 6127,
      "常用": 6128,
      "创办": 6129,
      "与其他": 6130,
      "已完成": 6131,
      "军,": 6132,
      "的,但是": 6133,
      "前三": 6134,
      "工作会议": 6135,
      "严的": 6136,
      "造价": 6137,
      "的项目": 6138,
      "片,": 6139,
      "等;": 6140,
      "所,": 6141,
      "前提": 6142,
      "护士": 6143,
      "把我们带到了一个新的维度去思考这个问题。\n": 6144,
      "下一": 6145,
      "的比赛": 6146,
      "样子": 6147,
      "切尔": 6148,
      "足够的": 6149,
      "地板": 6150,
      "角度来看": 6151,
      "美、": 6152,
      "减排": 6153,
      "务实": 6154,
      "积分": 6155,
      "。此外": 6156,
      ",开展": 6157,
      "样品": 6158,
      "产业化": 6159,
      "数十": 6160,
      "资源的": 6161,
      "准则": 6162,
      "家中": 6163,
      "语然很": 6164,
      "规划、": 6165,
      "动合同": 6166,
      "生。": 6167,
      "C罗": 6168,
      "米、": 6169,
      "解了我": 6170,
      "特普": 6171,
      "山市": 6172,
      "管理办法": 6173,
      "在新": 6174,
      "和生活": 6175,
      "语文": 6176,
      "的患者": 6177,
      "。\n(四)": 6178,
      "钢材": 6179,
      "东部": 6180,
      "0.5": 6181,
      "年初": 6182,
      "。\n该": 6183,
      "文化产": 6184,
      "党的十八大": 6185,
      "就没有": 6186,
      "(h": 6187,
      "97": 6188,
      "验证": 6189,
      "所缺": 6190,
      "产品。": 6191,
      "的一次": 6192,
      "4000": 6193,
      "为主要": 6194,
      "一人": 6195,
      "建筑物": 6196,
      ",但我想联": 6197,
      "口的": 6198,
      "变化,": 6199,
      "语然很,但我想联": 6200,
      "形容": 6201,
      "在这个": 6202,
      "龙江": 6203,
      "IT": 6204,
      "的,由": 6205,
      "做出了": 6206,
      "责任,": 6207,
      "研究,": 6208,
      "早日": 6209,
      "完整的": 6210,
      "il": 6211,
      "主人": 6212,
      "认识到": 6213,
      "医疗器": 6214,
      ",还能": 6215,
      "食品、": 6216,
      "英文": 6217,
      "改革的": 6218,
      ",大大": 6219,
      "领导小组": 6220,
      "约定": 6221,
      "装机": 6222,
      "血,": 6223,
      "党风政": 6224,
      "海上": 6225,
      ",像": 6226,
      "外科": 6227,
      "17日": 6228,
      "却是": 6229,
      "厂、": 6230,
      ",按": 6231,
      "感动": 6232,
      "手的": 6233,
      "治疗白癜风": 6234,
      "影像": 6235,
      "。只有": 6236,
      "没想到": 6237,
      "病患者": 6238,
      "百度": 6239,
      "优越": 6240,
      "设定": 6241,
      ":59": 6242,
      "产品、": 6243,
      "要求的": 6244,
      "工、": 6245,
      "患病": 6246,
      "感的": 6247,
      "一度": 6248,
      "助,": 6249,
      "▁这": 6250,
      "审美": 6251,
      "不见": 6252,
      "水。": 6253,
      "全局": 6254,
      "子公司": 6255,
      "创新,": 6256,
      "里程": 6257,
      ",就可以": 6258,
      "德、": 6259,
      "业,": 6260,
      "分公司": 6261,
      "打进": 6262,
      "▁,在": 6263,
      "早上": 6264,
      "存款": 6265,
      "确病例": 6266,
      "党的二十大精神": 6267,
      "和中": 6268,
      "2000年": 6269,
      "家乡": 6270,
      "艺术家": 6271,
      "花园": 6272,
      "公主": 6273,
      "15.": 6274,
      "责任。": 6275,
      "化物": 6276,
      "和高": 6277,
      "得知": 6278,
      "注入": 6279,
      "味,": 6280,
      "时期,": 6281,
      "。另外": 6282,
      ",使其": 6283,
      "原创": 6284,
      "最具": 6285,
      "测定": 6286,
      ",当时": 6287,
      "目前,": 6288,
      "的开": 6289,
      "8日,": 6290,
      "号线": 6291,
      "、四": 6292,
      "96": 6293,
      "▁为": 6294,
      "请人": 6295,
      "网,": 6296,
      ",然而": 6297,
      "军人": 6298,
      "、出": 6299,
      "传动": 6300,
      "接收": 6301,
      "和实": 6302,
      "党的十大": 6303,
      "、用": 6304,
      "影响到": 6305,
      "失调": 6306,
      "的基础上": 6307,
      "位居": 6308,
      "ed": 6309,
      "为主,": 6310,
      "、木": 6311,
      "。人": 6312,
      "国有企业": 6313,
      "12日": 6314,
      "本来": 6315,
      "bo": 6316,
      "校区": 6317,
      "从而": 6318,
      "分和": 6319,
      "调解": 6320,
      ",起": 6321,
      "的电": 6322,
      "方可": 6323,
      "。\n:": 6324,
      "处处": 6325,
      "队在": 6326,
      "、高效": 6327,
      "非常的": 6328,
      "等于": 6329,
      ",未": 6330,
      "教的": 6331,
      "每月": 6332,
      "等多个": 6333,
      "时间的": 6334,
      "不上": 6335,
      "省、": 6336,
      "提升,": 6337,
      "名、": 6338,
      "省份": 6339,
      "的食": 6340,
      "经历了": 6341,
      ",就要": 6342,
      "是使": 6343,
      "流,": 6344,
      "“我": 6345,
      "给他": 6346,
      "3%": 6347,
      "市级": 6348,
      "等因素": 6349,
      "入境": 6350,
      "2年,": 6351,
      "单位和": 6352,
      "十二条": 6353,
      "转向": 6354,
      "出场": 6355,
      "设计的": 6356,
      "在外": 6357,
      "生产厂家": 6358,
      "感。\n": 6359,
      "、子": 6360,
      "管理局": 6361,
      "金的": 6362,
      "近视": 6363,
      "形,": 6364,
      "回头": 6365,
      "日前": 6366,
      "生活,": 6367,
      "或其他": 6368,
      "单位、": 6369,
      "气管": 6370,
      "还需要": 6371,
      "等问题": 6372,
      "较少": 6373,
      "高。\n": 6374,
      "省政府": 6375,
      "建筑工程": 6376,
      "机设备": 6377,
      "材料,": 6378,
      "交易所": 6379,
      "八字:": 6380,
      "对应": 6381,
      "时间内": 6382,
      "有没有": 6383,
      "。王": 6384,
      "了解到": 6385,
      "有一定": 6386,
      "说过这样一名": 6387,
      "的景": 6388,
      "就越": 6389,
      "教,": 6390,
      ",加上": 6391,
      "结算": 6392,
      "主营": 6393,
      "养护": 6394,
      "等方式": 6395,
      "中含有": 6396,
      "集聚": 6397,
      "的优势": 6398,
      "。这一": 6399,
      "科技成果": 6400,
      "高层": 6401,
      "看来": 6402,
      "72": 6403,
      "19日": 6404,
      "曾在": 6405,
      "水量": 6406,
      "一支": 6407,
      ";对": 6408,
      "的一项": 6409,
      "41": 6410,
      "五金": 6411,
      "中所": 6412,
      "主要用于": 6413,
      "。\n第五": 6414,
      "可分为": 6415,
      "复印": 6416,
      "干的": 6417,
      ",这也": 6418,
      "新中国": 6419,
      "长春": 6420,
      "、北京": 6421,
      "。\n\n": 6422,
      "uo": 6423,
      "经常出现": 6424,
      ":59)": 6425,
      "事。": 6426,
      "史上": 6427,
      "11日": 6428,
      "好友": 6429,
      "体现在": 6430,
      "、,": 6431,
      "建设工程": 6432,
      "表现出": 6433,
      "个数:": 6434,
      "业主": 6435,
      "\n生八字:": 6436,
      ",不但": 6437,
      "富有理": 6438,
      "土。\n五行": 6439,
      "\n五行个数:": 6440,
      "五行缺什么\n生八字:": 6441,
      ":59)五行缺什么\n生八字:": 6442,
      "土。\n五行分析:": 6443,
      "对外开放": 6444,
      "52": 6445,
      "、环境": 6446,
      "10万": 6447,
      "力量。": 6448,
      "治安": 6449,
      ",美国": 6450,
      "尔·": 6451,
      "处。": 6452,
      "全日": 6453,
      "的功效": 6454,
      "回了": 6455,
      "病,": 6456,
      "所缺:": 6457,
      "放,": 6458,
      "、创新": 6459,
      "。\n五行所缺:": 6460,
      "头部": 6461,
      ",也要": 6462,
      "。\n由于": 6463,
      "的,我": 6464,
      "去做": 6465,
      "等)": 6466,
      "空中": 6467,
      "加油": 6468,
      ",每个": 6469,
      "道交通": 6470,
      "很重要": 6471,
      "文化和": 6472,
      "单位的": 6473,
      "基酸": 6474,
      "见到": 6475,
      "现代化的": 6476,
      "。\n不过": 6477,
      "室外": 6478,
      "六、": 6479,
      "多人": 6480,
      "离心": 6481,
      "教育,": 6482,
      "公务员": 6483,
      "低的": 6484,
      "学,": 6485,
      "无的": 6486,
      "。现": 6487,
      "人均": 6488,
      "193": 6489,
      "第八": 6490,
      "ong)": 6491,
      "先行": 6492,
      "几率": 6493,
      "走在": 6494,
      "文化、": 6495,
      "所致": 6496,
      ",最好": 6497,
      "家电": 6498,
      "越来越多的": 6499,
      "聚合": 6500,
      ",增加": 6501,
      "称之为": 6502,
      "下。": 6503,
      "将以": 6504,
      "人体的": 6505,
      "育人": 6506,
      "分会": 6507,
      "调动": 6508,
      "名列": 6509,
      "。\n张": 6510,
      "对中国": 6511,
      "党政": 6512,
      "集群": 6513,
      "注目": 6514,
      ",采用": 6515,
      "讲究": 6516,
      "参展": 6517,
      "了,我": 6518,
      "不容易": 6519,
      "关爱": 6520,
      "宣告": 6521,
      "都需要": 6522,
      ",进行": 6523,
      ",提供": 6524,
      "变速": 6525,
      "的出现": 6526,
      "第一时间": 6527,
      "工作、": 6528,
      ".\n": 6529,
      "有期": 6530,
      "。如今": 6531,
      "联动": 6532,
      "半导体": 6533,
      "理想信念": 6534,
      "四年": 6535,
      "是比较": 6536,
      "思想、": 6537,
      "再行": 6538,
      "担保": 6539,
      "工伤": 6540,
      "立体": 6541,
      "低、": 6542,
      "互联": 6543,
      ",取": 6544,
      "试图": 6545,
      "超市": 6546,
      "高品质": 6547,
      "理性": 6548,
      "供水": 6549,
      "度。": 6550,
      ",是中国": 6551,
      "纪检监": 6552,
      ",有人": 6553,
      "工件": 6554,
      "、在": 6555,
      ",做到": 6556,
      "IC": 6557,
      "的具体": 6558,
      "一次性": 6559,
      "家。": 6560,
      "的。在": 6561,
      "说过一富有理": 6562,
      "染色": 6563,
      "常委、": 6564,
      ";有": 6565,
      "的面": 6566,
      "必须要": 6567,
      "。二是": 6568,
      "大战": 6569,
      "少量": 6570,
      "及相关": 6571,
      "。经": 6572,
      "学校、": 6573,
      ",更加": 6574,
      "变成了": 6575,
      "64": 6576,
      "又是": 6577,
      "电解": 6578,
      "服务中心": 6579,
      "还不": 6580,
      "一定会": 6581,
      "日常生活": 6582,
      "充分利用": 6583,
      "型材": 6584,
      ",过": 6585,
      "马尔": 6586,
      "开创": 6587,
      "情、": 6588,
      "领域,": 6589,
      "你是": 6590,
      "此时": 6591,
      "清水": 6592,
      "发起": 6593,
      "的口": 6594,
      "十三条": 6595,
      "修建": 6596,
      "事会": 6597,
      "等等。": 6598,
      "。\n不": 6599,
      "re": 6600,
      "随之": 6601,
      "引起了": 6602,
      ":\n(一)": 6603,
      ",容易": 6604,
      "的眼": 6605,
      "到位": 6606,
      "生产、销售": 6607,
      "选择了": 6608,
      "计量": 6609,
      "________": 6610,
      "明、": 6611,
      "87": 6612,
      "研究、": 6613,
      "开。": 6614,
      "代的": 6615,
      "县城": 6616,
      "最高的": 6617,
      "长安": 6618,
      "光、": 6619,
      "单一": 6620,
      "精英": 6621,
      "还原": 6622,
      "处在": 6623,
      "30年": 6624,
      "外出": 6625,
      "并发症": 6626,
      ",作": 6627,
      "科学与": 6628,
      "开展了": 6629,
      "流传": 6630,
      "的经济": 6631,
      "行政部门": 6632,
      "副作用": 6633,
      "▁;": 6634,
      "号,": 6635,
      "制剂": 6636,
      "10月2": 6637,
      "县、": 6638,
      "13日": 6639,
      "开式": 6640,
      "为指导": 6641,
      "监会": 6642,
      "着一": 6643,
      "五)": 6644,
      "国家和地区": 6645,
      "女生": 6646,
      "清、": 6647,
      "仅次于": 6648,
      "组织、": 6649,
      "可在": 6650,
      "成交": 6651,
      "入,": 6652,
      "我们就": 6653,
      "的表现": 6654,
      "会议。": 6655,
      "将为": 6656,
      "首个": 6657,
      "检查,": 6658,
      "共同体": 6659,
      "基础上": 6660,
      "会展": 6661,
      "有毒": 6662,
      "大道": 6663,
      "研究员": 6664,
      "16.": 6665
    },
    "merges": [
      [
        "。",
        "\n"
      ],
      [
        "2",
        "0"
      ],
      [
        "发",
        "展"
      ],
      [
        "工",
        "作"
      ],
      [
        "中",
        "国"
      ],
      [
        "可",
        "以"
      ],
      [
        "的",
        ","
      ],
      [
        "我",
        "们"
      ],
      [
        "公",
        "司"
      ],
      [
        "企",
        "业"
      ],
      [
        "一",
        "个"
      ],
      [
        ",",
        "在"
      ],
      [
        "0",
        "0"
      ],
      [
        ",",
        "不"
      ],
      [
        "技",
        "术"
      ],
      [
        "自",
        "己"
      ],
      [
        ",",
        "这"
      ],
      [
        "服",
        "务"
      ],
      [
        "管",
        "理"
      ],
      [
        "国",
        "家"
      ],
      [
        "进",
        "行"
      ],
      [
        ",",
        "但"
      ],
      [
        "建",
        "设"
      ],
      [
        "产",
        "品"
      ],
      [
        "社",
        "会"
      ],
      [
        "中",
        ","
      ],
      [
        "问",
        "题"
      ],
      [
        "教",
        "育"
      ],
      [
        ",",
        "是"
      ],
      [
        "没",
        "有"
      ],
      [
        "20",
        "1"
      ],
      [
        ",",
        "以"
      ],
      [
        "、",
        "、"
      ],
      [
        ",",
        "而"
      ],
      [
        "生",
        "产"
      ],
      [
        "使",
        "用"
      ],
      [
        ",",
        "也"
      ],
      [
        ",",
        "并"
      ],
      [
        "需",
        "要"
      ],
      [
        "经",
        "济"
      ],
      [
        "后",
        ","
      ],
      [
        "时",
        ","
      ],
      [
        "市",
        "场"
      ],
      [
        "通",
        "过"
      ],
      [
        "就",
        "是"
      ],
      [
        "生",
        "活"
      ],
      [
        "重",
        "要"
      ],
      [
        "研",
        "究"
      ],
      [
        ",",
        "有"
      ],
      [
        "安",
        "全"
      ],
      [
        "主",
        "要"
      ],
      [
        "专",
        "业"
      ],
      [
        "的",
        "人"
      ],
      [
        "1",
        "0"
      ],
      [
        "如",
        "果"
      ],
      [
        "时",
        "间"
      ],
      [
        ",",
        "一"
      ],
      [
        "项",
        "目"
      ],
      [
        "▁",
        ","
      ],
      [
        "他",
        "们"
      ],
      [
        "工",
        "程"
      ],
      [
        "方",
        "面"
      ],
      [
        ",",
        "其"
      ],
      [
        "治",
        "疗"
      ],
      [
        "人",
        "民"
      ],
      [
        "文",
        "化"
      ],
      [
        "系",
        "统"
      ],
      [
        ",",
        "为"
      ],
      [
        "要",
        "求"
      ],
      [
        "具",
        "有"
      ],
      [
        "1",
        "9"
      ],
      [
        "世",
        "界"
      ],
      [
        "环",
        "境"
      ],
      [
        "提",
        "供"
      ],
      [
        "影",
        "响"
      ],
      [
        "可",
        "能"
      ],
      [
        "情",
        "况"
      ],
      [
        "的",
        "。"
      ],
      [
        "学",
        "生"
      ],
      [
        "行",
        "业"
      ],
      [
        "什",
        "么"
      ],
      [
        "质",
        "量"
      ],
      [
        ",",
        "对"
      ],
      [
        ",",
        "我"
      ],
      [
        "设",
        "计"
      ],
      [
        "因",
        "为"
      ],
      [
        "学",
        "习"
      ],
      [
        "设",
        "备"
      ],
      [
        "。",
        "在"
      ],
      [
        "产",
        "业"
      ],
      [
        "好",
        "的"
      ],
      [
        "能",
        "力"
      ],
      [
        "所",
        "以"
      ],
      [
        "的",
        "一"
      ],
      [
        "活",
        "动"
      ],
      [
        "。",
        "这"
      ],
      [
        "创",
        "新"
      ],
      [
        "患",
        "者"
      ],
      [
        "组",
        "织"
      ],
      [
        "上",
        ","
      ],
      [
        "提",
        "高"
      ],
      [
        "。",
        "”"
      ],
      [
        "大",
        "的"
      ],
      [
        "信",
        "息"
      ],
      [
        "作",
        "为"
      ],
      [
        "人",
        "的"
      ],
      [
        "中",
        "的"
      ],
      [
        "精",
        "神"
      ],
      [
        "中",
        "心"
      ],
      [
        "”",
        "的"
      ],
      [
        "来",
        ","
      ],
      [
        "人",
        "员"
      ],
      [
        "成",
        "为"
      ],
      [
        "不",
        "同"
      ],
      [
        "作",
        "用"
      ],
      [
        "是",
        "一"
      ],
      [
        "很",
        "多"
      ],
      [
        "政",
        "府"
      ],
      [
        "出",
        "现"
      ],
      [
        "年",
        ","
      ],
      [
        "这",
        "个"
      ],
      [
        "学",
        "校"
      ],
      [
        "国",
        "际"
      ],
      [
        "”",
        ","
      ],
      [
        "大",
        "学"
      ],
      [
        "实",
        "现"
      ],
      [
        "非",
        "常"
      ],
      [
        "下",
        ","
      ],
      [
        "第",
        "一"
      ],
      [
        "材",
        "料"
      ],
      [
        "选",
        "择"
      ],
      [
        "健",
        "康"
      ],
      [
        "已",
        "经"
      ],
      [
        "相",
        "关"
      ],
      [
        "全",
        "国"
      ],
      [
        "科",
        "学"
      ],
      [
        "科",
        "技"
      ],
      [
        "合",
        "作"
      ],
      [
        "过",
        "程"
      ],
      [
        "自己",
        "的"
      ],
      [
        "根",
        "据"
      ],
      [
        "人",
        ","
      ],
      [
        "处",
        "理"
      ],
      [
        "目",
        "前"
      ],
      [
        "时",
        "候"
      ],
      [
        "因",
        "此"
      ],
      [
        "了",
        ","
      ],
      [
        "城",
        "市"
      ],
      [
        "投",
        "资"
      ],
      [
        ":",
        "\n"
      ],
      [
        "1",
        "2"
      ],
      [
        "发",
        "生"
      ],
      [
        "基",
        "础"
      ],
      [
        "一",
        "些"
      ],
      [
        "部",
        "门"
      ],
      [
        "标",
        "准"
      ],
      [
        "孩",
        "子"
      ],
      [
        "单",
        "位"
      ],
      [
        ",",
        "还"
      ],
      [
        "方",
        "式"
      ],
      [
        "到",
        "了"
      ],
      [
        "的",
        "是"
      ],
      [
        "一",
        "定"
      ],
      [
        "大",
        "家"
      ],
      [
        "部",
        "分"
      ],
      [
        "其",
        "他"
      ],
      [
        "医",
        "院"
      ],
      [
        ",",
        "从"
      ],
      [
        "能",
        "够"
      ],
      [
        "应",
        "用"
      ],
      [
        "表",
        "示"
      ],
      [
        "20",
        "0"
      ],
      [
        "。\n",
        "2"
      ],
      [
        "以",
        "及"
      ],
      [
        "不",
        "是"
      ],
      [
        "建",
        "筑"
      ],
      [
        "数",
        "据"
      ],
      [
        "主",
        "义"
      ],
      [
        "同",
        "时"
      ],
      [
        "都",
        "是"
      ],
      [
        "历",
        "史"
      ],
      [
        "1",
        "1"
      ],
      [
        "有",
        "限"
      ],
      [
        ",",
        "就"
      ],
      [
        "工",
        "业"
      ],
      [
        "以",
        "上"
      ],
      [
        "开",
        "始"
      ],
      [
        "全",
        "面"
      ],
      [
        "方",
        "法"
      ],
      [
        ":",
        "“"
      ],
      [
        "▁",
        "、"
      ],
      [
        "包",
        "括"
      ],
      [
        "说",
        ","
      ],
      [
        "资",
        "源"
      ],
      [
        "集",
        "团"
      ],
      [
        "功",
        "能"
      ],
      [
        "白",
        "癜"
      ],
      [
        "保",
        "护"
      ],
      [
        "坚",
        "持"
      ],
      [
        "白癜",
        "风"
      ],
      [
        "开",
        "展"
      ],
      [
        "或",
        "者"
      ],
      [
        "获",
        "得"
      ],
      [
        "日",
        ","
      ],
      [
        "必",
        "须"
      ],
      [
        "规",
        "定"
      ],
      [
        "地",
        "区"
      ],
      [
        ",",
        "他"
      ],
      [
        "。\n",
        "3"
      ],
      [
        "积",
        "极"
      ],
      [
        "水",
        "平"
      ],
      [
        "由",
        "于"
      ],
      [
        "增",
        "长"
      ],
      [
        "领",
        "域"
      ],
      [
        "代",
        "表"
      ],
      [
        "提",
        "升"
      ],
      [
        "结",
        "构"
      ],
      [
        ",",
        "我们"
      ],
      [
        "现",
        "在"
      ],
      [
        "领",
        "导"
      ],
      [
        "1",
        "."
      ],
      [
        "20",
        "2"
      ],
      [
        "比",
        "较"
      ],
      [
        "注",
        "意"
      ],
      [
        "机",
        "构"
      ],
      [
        "对",
        "于"
      ],
      [
        "美",
        "国"
      ],
      [
        "不",
        "能"
      ],
      [
        "加",
        "强"
      ],
      [
        "北",
        "京"
      ],
      [
        "3",
        "0"
      ],
      [
        "的",
        "“"
      ],
      [
        "1",
        "5"
      ],
      [
        "一",
        "步"
      ],
      [
        "时",
        "代"
      ],
      [
        "了",
        "解"
      ],
      [
        "增",
        "加"
      ],
      [
        "?",
        "\n"
      ],
      [
        "年",
        "的"
      ],
      [
        "控",
        "制"
      ],
      [
        "也",
        "是"
      ],
      [
        "责",
        "任"
      ],
      [
        "这",
        "样"
      ],
      [
        "基",
        "本"
      ],
      [
        "平",
        "台"
      ],
      [
        "形",
        "成"
      ],
      [
        "第",
        "二"
      ],
      [
        "个",
        "人"
      ],
      [
        "完",
        "成"
      ],
      [
        "客",
        "户"
      ],
      [
        "品",
        "牌"
      ],
      [
        "现",
        "代"
      ],
      [
        "改",
        "革"
      ],
      [
        "有限",
        "公司"
      ],
      [
        "新",
        "的"
      ],
      [
        "导",
        "致"
      ],
      [
        "思",
        "想"
      ],
      [
        "不",
        "断"
      ],
      [
        "关",
        "系"
      ],
      [
        "国",
        "内"
      ],
      [
        "学",
        "院"
      ],
      [
        "上",
        "的"
      ],
      [
        "政",
        "策"
      ],
      [
        "内",
        "容"
      ],
      [
        "需",
        "求"
      ],
      [
        "教",
        "学"
      ],
      [
        "解",
        "决"
      ],
      [
        ",",
        "可"
      ],
      [
        "制",
        "造"
      ],
      [
        "人",
        "才"
      ],
      [
        "发",
        "现"
      ],
      [
        "分",
        "析"
      ],
      [
        "推",
        "进"
      ],
      [
        "那",
        "么"
      ],
      [
        "体",
        "系"
      ],
      [
        "各",
        "种"
      ],
      [
        "认",
        "为"
      ],
      [
        "外",
        ","
      ],
      [
        "经",
        "营"
      ],
      [
        "更",
        "加"
      ],
      [
        "一",
        "般"
      ],
      [
        "希",
        "望"
      ],
      [
        "产",
        "生"
      ],
      [
        "重",
        "点"
      ],
      [
        "政",
        "治"
      ],
      [
        "的",
        "。\n"
      ],
      [
        "利",
        "用"
      ],
      [
        ",",
        "如"
      ],
      [
        "自",
        "然"
      ],
      [
        "元",
        ","
      ],
      [
        "大",
        ","
      ],
      [
        "制",
        "度"
      ],
      [
        "这",
        "些"
      ],
      [
        "会",
        "议"
      ],
      [
        "用",
        "于"
      ],
      [
        "造",
        "成"
      ],
      [
        "开",
        "发"
      ],
      [
        "党",
        "的"
      ],
      [
        "目",
        "标"
      ],
      [
        ",",
        "让"
      ],
      [
        "实",
        "施"
      ],
      [
        "容",
        "易"
      ],
      [
        "存",
        "在"
      ],
      [
        ",",
        "所以"
      ],
      [
        "采",
        "用"
      ],
      [
        "推",
        "动"
      ],
      [
        "所",
        "有"
      ],
      [
        "中",
        "央"
      ],
      [
        "支",
        "持"
      ],
      [
        "了",
        "一"
      ],
      [
        "汽",
        "车"
      ],
      [
        "书",
        "记"
      ],
      [
        "▁",
        "。"
      ],
      [
        "效",
        "果"
      ],
      [
        "传",
        "统"
      ],
      [
        "特",
        "色"
      ],
      [
        "有",
        "关"
      ],
      [
        "疾",
        "病"
      ],
      [
        "不",
        "会"
      ],
      [
        ",",
        "可以"
      ],
      [
        "知",
        "道"
      ],
      [
        "的",
        "时候"
      ],
      [
        "。\n",
        "("
      ],
      [
        "消",
        "费"
      ],
      [
        "知",
        "识"
      ],
      [
        "我",
        "国"
      ],
      [
        ",",
        "使"
      ],
      [
        "达",
        "到"
      ],
      [
        "业",
        "务"
      ],
      [
        "特",
        "别"
      ],
      [
        "建",
        "立"
      ],
      [
        "应",
        "该"
      ],
      [
        ",",
        "大"
      ],
      [
        "条",
        "件"
      ],
      [
        "保",
        "持"
      ],
      [
        "地",
        "方"
      ],
      [
        "分",
        ","
      ],
      [
        "结",
        "合"
      ],
      [
        "价",
        "格"
      ],
      [
        "有",
        "效"
      ],
      [
        "进",
        "一步"
      ],
      [
        "1",
        "、"
      ],
      [
        "实",
        "际"
      ],
      [
        "负",
        "责"
      ],
      [
        "1",
        "00"
      ],
      [
        "身",
        "体"
      ],
      [
        "”",
        "。"
      ],
      [
        "的",
        "大"
      ],
      [
        "5",
        "0"
      ],
      [
        "提",
        "出"
      ],
      [
        ",",
        "只"
      ],
      [
        "职",
        "业"
      ],
      [
        "持",
        "续"
      ],
      [
        "—",
        "—"
      ],
      [
        "。\n",
        "在"
      ],
      [
        "还",
        "是"
      ],
      [
        ",",
        "要"
      ],
      [
        "取",
        "得"
      ],
      [
        ",",
        "将"
      ],
      [
        "智",
        "能"
      ],
      [
        "艺",
        "术"
      ],
      [
        "全",
        "球"
      ],
      [
        "原",
        "因"
      ],
      [
        "之",
        "一"
      ],
      [
        "培",
        "养"
      ],
      [
        "比",
        "赛"
      ],
      [
        "如",
        "何"
      ],
      [
        ",但",
        "是"
      ],
      [
        "优",
        "势"
      ],
      [
        "价",
        "值"
      ],
      [
        "促",
        "进"
      ],
      [
        "战",
        "略"
      ],
      [
        "上",
        "海"
      ],
      [
        "成",
        "功"
      ],
      [
        "直",
        "接"
      ],
      [
        "计",
        "划"
      ],
      [
        "保",
        "障"
      ],
      [
        "力",
        ","
      ],
      [
        "1",
        "8"
      ],
      [
        "销",
        "售"
      ],
      [
        "稳",
        "定"
      ],
      [
        "更",
        "多"
      ],
      [
        "人",
        "们"
      ],
      [
        "检",
        "查"
      ],
      [
        "事",
        "业"
      ],
      [
        "帮",
        "助"
      ],
      [
        "行",
        "为"
      ],
      [
        "进",
        "入"
      ],
      [
        "来",
        "的"
      ],
      [
        "委",
        "员"
      ],
      [
        "一",
        "起"
      ],
      [
        "食",
        "品"
      ],
      [
        "这",
        "种"
      ],
      [
        "运",
        "动"
      ],
      [
        "生",
        "态"
      ],
      [
        "。\n",
        "4"
      ],
      [
        "参",
        "加"
      ],
      [
        "随",
        "着"
      ],
      [
        "规",
        "划"
      ],
      [
        ",",
        "然"
      ],
      [
        "共",
        "同"
      ],
      [
        "了",
        "。"
      ],
      [
        "用",
        "户"
      ],
      [
        "月",
        "2"
      ],
      [
        "医",
        "疗"
      ],
      [
        "之",
        "间"
      ],
      [
        "旅",
        "游"
      ],
      [
        "为",
        "了"
      ],
      [
        "落",
        "实"
      ],
      [
        "法",
        "律"
      ],
      [
        "电",
        "子"
      ],
      [
        "民",
        "族"
      ],
      [
        ",",
        "“"
      ],
      [
        "金",
        "融"
      ],
      [
        ",而",
        "且"
      ],
      [
        "。",
        "但"
      ],
      [
        "严",
        "重"
      ],
      [
        "性",
        "能"
      ],
      [
        "教",
        "师"
      ],
      [
        "1",
        "6"
      ],
      [
        "及",
        "时"
      ],
      [
        "交",
        "通"
      ],
      [
        "第",
        "三"
      ],
      [
        "充",
        "分"
      ],
      [
        "按",
        "照"
      ],
      [
        "加",
        "工"
      ],
      [
        "的",
        "发展"
      ],
      [
        ")",
        ","
      ],
      [
        "得",
        "到"
      ],
      [
        "核",
        "心"
      ],
      [
        "能",
        "源"
      ],
      [
        "任",
        "何"
      ],
      [
        "关",
        "于"
      ],
      [
        "这",
        "一"
      ],
      [
        "培",
        "训"
      ],
      [
        ",",
        "最"
      ],
      [
        "才",
        "能"
      ],
      [
        ",",
        "你"
      ],
      [
        "继",
        "续"
      ],
      [
        "减",
        "少"
      ],
      [
        "报",
        "告"
      ],
      [
        "超",
        "过"
      ],
      [
        "两",
        "个"
      ],
      [
        "完",
        "善"
      ],
      [
        "发展",
        "的"
      ],
      [
        "%",
        ","
      ],
      [
        "1",
        "4"
      ],
      [
        "今",
        "年"
      ],
      [
        "。”",
        "\n"
      ],
      [
        "范",
        "围"
      ],
      [
        "专",
        "家"
      ],
      [
        "方",
        "案"
      ],
      [
        "规",
        "模"
      ],
      [
        "性",
        "的"
      ],
      [
        "社会",
        "主义"
      ],
      [
        "生",
        "物"
      ],
      [
        "1",
        "3"
      ],
      [
        "引",
        "起"
      ],
      [
        "!",
        "\n"
      ],
      [
        "系",
        "列"
      ],
      [
        "经",
        "过"
      ],
      [
        "模",
        "式"
      ],
      [
        "指",
        "导"
      ],
      [
        "出",
        ","
      ],
      [
        "成",
        "本"
      ],
      [
        "受",
        "到"
      ],
      [
        "1",
        "年"
      ],
      [
        "一",
        "种"
      ],
      [
        "施",
        "工"
      ],
      [
        "表",
        "现"
      ],
      [
        ",",
        "如果"
      ],
      [
        "许",
        "多"
      ],
      [
        "联",
        "网"
      ],
      [
        "是",
        "在"
      ],
      [
        "中",
        "华"
      ],
      [
        "月",
        ","
      ],
      [
        "体",
        "育"
      ],
      [
        "长",
        "期"
      ],
      [
        "重",
        "大"
      ],
      [
        "参",
        "与"
      ],
      [
        "理",
        "论"
      ],
      [
        "因",
        "素"
      ],
      [
        "性",
        ","
      ],
      [
        "力",
        "量"
      ],
      [
        "成",
        "立"
      ],
      [
        "经",
        "验"
      ],
      [
        "保",
        "证"
      ],
      [
        "变",
        "化"
      ],
      [
        "2",
        "年"
      ],
      [
        "有",
        "的"
      ],
      [
        "做",
        "好"
      ],
      [
        "。",
        "而"
      ],
      [
        "。",
        "其"
      ],
      [
        "群",
        "众"
      ],
      [
        "行",
        "政"
      ],
      [
        "风",
        "险"
      ],
      [
        "检",
        "测"
      ],
      [
        "一",
        "次"
      ],
      [
        "研",
        "发"
      ],
      [
        "任",
        "务"
      ],
      [
        "交",
        "流"
      ],
      [
        "化",
        "、"
      ],
      [
        "的",
        "重要"
      ],
      [
        "同",
        "时,"
      ],
      [
        "空",
        "间"
      ],
      [
        ",",
        "它"
      ],
      [
        "应",
        "当"
      ],
      [
        "降",
        "低"
      ],
      [
        "近",
        "平"
      ],
      [
        ")",
        "、"
      ],
      [
        "工作",
        ","
      ],
      [
        "先",
        "进"
      ],
      [
        "点",
        ","
      ],
      [
        "卫",
        "生"
      ],
      [
        "习",
        "近平"
      ],
      [
        "。\n",
        "“"
      ],
      [
        "9",
        "年"
      ],
      [
        "等",
        "。"
      ],
      [
        "决",
        "定"
      ],
      [
        "正",
        "常"
      ],
      [
        "显",
        "示"
      ],
      [
        "以",
        "下"
      ],
      [
        "农",
        "业"
      ],
      [
        "银",
        "行"
      ],
      [
        "具",
        "体"
      ],
      [
        ",",
        "每"
      ],
      [
        "。\n2",
        "、"
      ],
      [
        ",",
        "更"
      ],
      [
        "期",
        "间"
      ],
      [
        "高",
        "的"
      ],
      [
        "8",
        "年"
      ],
      [
        "2",
        "."
      ],
      [
        "宣",
        "传"
      ],
      [
        "一",
        "样"
      ],
      [
        "结",
        "果"
      ],
      [
        "疫",
        "情"
      ],
      [
        "的",
        "事"
      ],
      [
        "干",
        "部"
      ],
      [
        "自",
        "动"
      ],
      [
        "好",
        ","
      ],
      [
        "”",
        "、"
      ],
      [
        "深",
        "入"
      ],
      [
        "接",
        "受"
      ],
      [
        "污",
        "染"
      ],
      [
        "面",
        "积"
      ],
      [
        "未",
        "来"
      ],
      [
        "增",
        "强"
      ],
      [
        "一",
        "直"
      ],
      [
        "度",
        ","
      ],
      [
        "的",
        "高"
      ],
      [
        ",其",
        "中"
      ],
      [
        "不",
        "仅"
      ],
      [
        "收",
        "入"
      ],
      [
        "0",
        "."
      ],
      [
        "建",
        "议"
      ],
      [
        "1",
        "7"
      ],
      [
        "无",
        "法"
      ],
      [
        "方",
        "向"
      ],
      [
        "设",
        "施"
      ],
      [
        "他",
        "的"
      ],
      [
        ",",
        "因为"
      ],
      [
        "症",
        "状"
      ],
      [
        "物",
        "质"
      ],
      [
        "维",
        "护"
      ],
      [
        "意",
        "识"
      ],
      [
        "还",
        "有"
      ],
      [
        "工",
        "艺"
      ],
      [
        "发",
        "布"
      ],
      [
        "不",
        "可"
      ],
      [
        ",",
        "至"
      ],
      [
        "食",
        "物"
      ],
      [
        "意",
        "义"
      ],
      [
        "理",
        "念"
      ],
      [
        "、",
        "高"
      ],
      [
        "记",
        "者"
      ],
      [
        "不",
        "要"
      ],
      [
        "区",
        "域"
      ],
      [
        ";",
        "\n"
      ],
      [
        "00",
        "0"
      ],
      [
        ",",
        "与"
      ],
      [
        "。\n3",
        "、"
      ],
      [
        "有",
        "些"
      ],
      [
        "形",
        "式"
      ],
      [
        "明",
        "确"
      ],
      [
        "出",
        "了"
      ],
      [
        "只",
        "有"
      ],
      [
        "资",
        "金"
      ],
      [
        "实",
        "验"
      ],
      [
        "快",
        "速"
      ],
      [
        "5",
        "年"
      ],
      [
        "前",
        ","
      ],
      [
        "高",
        ","
      ],
      [
        "化",
        "的"
      ],
      [
        "是一",
        "种"
      ],
      [
        "心",
        "理"
      ],
      [
        "后",
        "的"
      ],
      [
        "现",
        "场"
      ],
      [
        "日",
        "本"
      ],
      [
        "作",
        "品"
      ],
      [
        "员",
        "工"
      ],
      [
        ",",
        "当"
      ],
      [
        "团",
        "队"
      ],
      [
        "看",
        "到"
      ],
      [
        "明",
        "显"
      ],
      [
        "环",
        "保"
      ],
      [
        "电",
        "影"
      ],
      [
        "完",
        "全"
      ],
      [
        "成",
        "果"
      ],
      [
        "规",
        "范"
      ],
      [
        "开",
        "放"
      ],
      [
        "创",
        "造"
      ],
      [
        "简",
        "单"
      ],
      [
        "生",
        "命"
      ],
      [
        "合",
        "理"
      ],
      [
        "机",
        "制"
      ],
      [
        ",",
        "加"
      ],
      [
        "确",
        "保"
      ],
      [
        "联",
        "合"
      ],
      [
        "。",
        "如果"
      ],
      [
        "计",
        "算"
      ],
      [
        "了",
        "。\n"
      ],
      [
        "自",
        "身"
      ],
      [
        "基",
        "地"
      ],
      [
        "的",
        "话"
      ],
      [
        "党",
        "员"
      ],
      [
        "分",
        "别"
      ],
      [
        "满",
        "足"
      ],
      [
        "的",
        "情况"
      ],
      [
        "十",
        "分"
      ],
      [
        "4",
        "0"
      ],
      [
        "20",
        "20"
      ],
      [
        "是",
        "一个"
      ],
      [
        ",",
        "同时"
      ],
      [
        "行",
        "动"
      ],
      [
        "温",
        "度"
      ],
      [
        "万",
        "元"
      ],
      [
        "调",
        "整"
      ],
      [
        "执",
        "行"
      ],
      [
        "网",
        "站"
      ],
      [
        "里",
        ","
      ],
      [
        "除",
        "了"
      ],
      [
        "良",
        "好的"
      ],
      [
        "大",
        "量"
      ],
      [
        "我",
        "的"
      ],
      [
        "人",
        "类"
      ],
      [
        "。",
        "“"
      ],
      [
        "安",
        "装"
      ],
      [
        "表",
        "面"
      ],
      [
        "打",
        "造"
      ],
      [
        "运",
        "行"
      ],
      [
        "表示",
        ","
      ],
      [
        "委员",
        "会"
      ],
      [
        "你",
        "的"
      ],
      [
        "主",
        "任"
      ],
      [
        "比",
        "如"
      ],
      [
        ",",
        "因此"
      ],
      [
        ",",
        "即"
      ],
      [
        "程",
        "度"
      ],
      [
        "公",
        "共"
      ],
      [
        "6",
        "0"
      ],
      [
        "的",
        "新"
      ],
      [
        "关",
        "注"
      ],
      [
        "。\n",
        "第"
      ],
      [
        ",",
        "无"
      ],
      [
        "3",
        "."
      ],
      [
        "状",
        "态"
      ],
      [
        ",从",
        "而"
      ],
      [
        "。\n",
        "5"
      ],
      [
        "交",
        "易"
      ],
      [
        "特",
        "点"
      ],
      [
        "出",
        "的"
      ],
      [
        "-",
        "-"
      ],
      [
        "3",
        "年"
      ],
      [
        ",",
        "用"
      ],
      [
        "起",
        "来"
      ],
      [
        "体",
        "的"
      ],
      [
        "空",
        "气"
      ],
      [
        "五",
        "行"
      ],
      [
        "亿",
        "元"
      ],
      [
        "压",
        "力"
      ],
      [
        "都",
        "有"
      ],
      [
        "化",
        "学"
      ],
      [
        "药",
        "物"
      ],
      [
        "带",
        "来"
      ],
      [
        "机",
        "关"
      ],
      [
        "做",
        "到"
      ],
      [
        "老",
        "师"
      ],
      [
        "科",
        "研"
      ],
      [
        "经",
        "常"
      ],
      [
        "生",
        "的"
      ],
      [
        "女",
        "性"
      ],
      [
        ")",
        "\n"
      ],
      [
        "我们",
        "的"
      ],
      [
        "统",
        "一"
      ],
      [
        "严",
        "格"
      ],
      [
        "来",
        "越"
      ],
      [
        "的",
        "问题"
      ],
      [
        "。",
        "他"
      ],
      [
        "。",
        "此"
      ],
      [
        "越",
        "来越"
      ],
      [
        ",以",
        "及"
      ],
      [
        "a",
        "n"
      ],
      [
        "”",
        "。\n"
      ],
      [
        "属",
        "于"
      ],
      [
        "数",
        "字"
      ],
      [
        "今",
        "天"
      ],
      [
        ",",
        "中国"
      ],
      [
        "互",
        "联网"
      ],
      [
        "感",
        "染"
      ],
      [
        "7",
        "年"
      ],
      [
        "、",
        "等"
      ],
      [
        "基",
        "金"
      ],
      [
        "组",
        "成"
      ],
      [
        "文",
        "明"
      ],
      [
        "制",
        "作"
      ],
      [
        "正",
        "在"
      ],
      [
        ",",
        "把"
      ],
      [
        ",",
        "那"
      ],
      [
        "普",
        "通"
      ],
      [
        "调",
        "查"
      ],
      [
        "金",
        "属"
      ],
      [
        "19",
        "9"
      ],
      [
        "下",
        "降"
      ],
      [
        "营",
        "养"
      ],
      [
        ",",
        "他们"
      ],
      [
        "保",
        "险"
      ],
      [
        ",",
        ","
      ],
      [
        "效",
        "率"
      ],
      [
        "首",
        "先"
      ],
      [
        "2",
        "5"
      ],
      [
        "性",
        "、"
      ],
      [
        "为",
        "主"
      ],
      [
        "。",
        "当"
      ],
      [
        "时",
        "期"
      ],
      [
        "_",
        "_"
      ],
      [
        "力",
        "的"
      ],
      [
        ",也",
        "是"
      ],
      [
        "来",
        "看"
      ],
      [
        "。",
        "因此"
      ],
      [
        "农",
        "村"
      ],
      [
        "原",
        "则"
      ],
      [
        "6",
        "年"
      ],
      [
        "运",
        "输"
      ],
      [
        ",",
        "人"
      ],
      [
        "认",
        "真"
      ],
      [
        "机",
        "会"
      ],
      [
        "新",
        "时代"
      ],
      [
        "。",
        "我"
      ],
      [
        "、",
        "大"
      ],
      [
        "就",
        "会"
      ],
      [
        "学",
        "科"
      ],
      [
        "多",
        "的"
      ],
      [
        ",",
        "都"
      ],
      [
        "办",
        "公"
      ],
      [
        "党",
        "委"
      ],
      [
        "改",
        "变"
      ],
      [
        "真",
        "正"
      ],
      [
        "意",
        "见"
      ],
      [
        "认",
        "识"
      ],
      [
        "不",
        "过"
      ],
      [
        "确",
        "定"
      ],
      [
        ",",
        "通过"
      ],
      [
        "青",
        "年"
      ],
      [
        "有",
        "一"
      ],
      [
        "的",
        "工作"
      ],
      [
        ")",
        "("
      ],
      [
        ",这",
        "样"
      ],
      [
        "整",
        "个"
      ],
      [
        "机",
        "、"
      ],
      [
        "发展",
        ","
      ],
      [
        "故",
        "事"
      ],
      [
        "之",
        "后"
      ],
      [
        "来",
        "说,"
      ],
      [
        "整",
        "体"
      ],
      [
        "二",
        "十"
      ],
      [
        "水",
        ","
      ],
      [
        "为",
        "“"
      ],
      [
        "之",
        "后,"
      ],
      [
        "资",
        "产"
      ],
      [
        "制",
        "定"
      ],
      [
        "8",
        "0"
      ],
      [
        ",并",
        "且"
      ],
      [
        "商",
        "业"
      ],
      [
        "课",
        "程"
      ],
      [
        "面",
        "对"
      ],
      [
        ",",
        "又"
      ],
      [
        "亿",
        "元,"
      ],
      [
        "改",
        "善"
      ],
      [
        "协",
        "会"
      ],
      [
        "治",
        "理"
      ],
      [
        "广",
        "大"
      ],
      [
        "共",
        "产"
      ],
      [
        "多",
        ","
      ],
      [
        "不",
        "得"
      ],
      [
        "依",
        "法"
      ],
      [
        "方",
        "便"
      ],
      [
        "消费",
        "者"
      ],
      [
        "物",
        "流"
      ],
      [
        "考",
        "试"
      ],
      [
        "6",
        "."
      ],
      [
        "”、",
        "“"
      ],
      [
        "电",
        "视"
      ],
      [
        "不同",
        "的"
      ],
      [
        "过程",
        "中"
      ],
      [
        "创",
        "业"
      ],
      [
        "二",
        "、"
      ],
      [
        "等",
        "。\n"
      ],
      [
        "全",
        "部"
      ],
      [
        "。",
        "要"
      ],
      [
        "子",
        ","
      ],
      [
        "也",
        "有"
      ],
      [
        "多",
        "种"
      ],
      [
        "适",
        "合"
      ],
      [
        "反",
        "应"
      ],
      [
        "过",
        "去"
      ],
      [
        "重",
        "视"
      ],
      [
        "根",
        "本"
      ],
      [
        "道",
        "路"
      ],
      [
        "强",
        "调"
      ],
      [
        "4",
        "."
      ],
      [
        "等",
        ","
      ],
      [
        "学",
        "、"
      ],
      [
        "运",
        "营"
      ],
      [
        "高",
        "度"
      ],
      [
        "就",
        "业"
      ],
      [
        "集",
        "中"
      ],
      [
        "来",
        "自"
      ],
      [
        "日",
        "常"
      ],
      [
        "始",
        "终"
      ],
      [
        "强",
        "的"
      ],
      [
        "费",
        "用"
      ],
      [
        "革",
        "命"
      ],
      [
        "正",
        "确"
      ],
      [
        "小",
        "时"
      ],
      [
        "速",
        "度"
      ],
      [
        "》",
        "、"
      ],
      [
        "感",
        "觉"
      ],
      [
        "办",
        "法"
      ],
      [
        "来",
        "说"
      ],
      [
        "技",
        "能"
      ],
      [
        "球",
        "队"
      ],
      [
        "也",
        "不"
      ],
      [
        "心",
        ","
      ],
      [
        "、",
        "水"
      ],
      [
        ",不",
        "断"
      ],
      [
        "工作",
        "的"
      ],
      [
        "强",
        "化"
      ],
      [
        ",",
        "多"
      ],
      [
        "理",
        "解"
      ],
      [
        "》",
        ","
      ],
      [
        "重要",
        "的"
      ],
      [
        "出",
        "口"
      ],
      [
        "、",
        "新"
      ],
      [
        "4",
        "年"
      ],
      [
        "准",
        "备"
      ],
      [
        "相",
        "对"
      ],
      [
        "道",
        ","
      ],
      [
        "通",
        "常"
      ],
      [
        "内",
        "的"
      ],
      [
        "东",
        "西"
      ],
      [
        "从",
        "事"
      ],
      [
        "的",
        "最"
      ],
      [
        "包",
        "装"
      ],
      [
        "采",
        "取"
      ],
      [
        "如",
        "此"
      ],
      [
        "山",
        "东"
      ],
      [
        "各",
        "类"
      ],
      [
        "高",
        "质量"
      ],
      [
        "大",
        "会"
      ],
      [
        "融",
        "合"
      ],
      [
        ",",
        "提高"
      ],
      [
        "相",
        "信"
      ],
      [
        "合",
        "同"
      ],
      [
        "一定",
        "的"
      ],
      [
        "企业",
        "的"
      ],
      [
        "人",
        "。"
      ],
      [
        "品",
        "质"
      ],
      [
        "2020",
        "年"
      ],
      [
        "并",
        "不"
      ],
      [
        "正",
        "式"
      ],
      [
        "预",
        "防"
      ],
      [
        "安",
        "排"
      ],
      [
        "现",
        "象"
      ],
      [
        "双",
        "方"
      ],
      [
        "联",
        "系"
      ],
      [
        ",",
        "能"
      ],
      [
        "自",
        "由"
      ],
      [
        "医",
        "生"
      ],
      [
        "觉",
        "得"
      ],
      [
        "优",
        "质"
      ],
      [
        "会",
        "有"
      ],
      [
        "供",
        "应"
      ],
      [
        "主",
        "题"
      ],
      [
        "动",
        "力"
      ],
      [
        "一",
        "、"
      ],
      [
        ",",
        "全"
      ],
      [
        "i",
        "n"
      ],
      [
        "手",
        "术"
      ],
      [
        "投",
        "入"
      ],
      [
        "同",
        "比"
      ],
      [
        "具",
        "备"
      ],
      [
        "7",
        "0"
      ],
      [
        "各",
        "项"
      ],
      [
        "同",
        "志"
      ],
      [
        "音",
        "乐"
      ],
      [
        "监",
        "管"
      ],
      [
        "、",
        "中"
      ],
      [
        "2",
        "4"
      ],
      [
        "。",
        "从"
      ],
      [
        "资",
        "本"
      ],
      [
        "。",
        "然"
      ],
      [
        "性",
        "和"
      ],
      [
        "平",
        "方"
      ],
      [
        "。\n4",
        "、"
      ],
      [
        "。",
        "我们"
      ],
      [
        "现代",
        "化"
      ],
      [
        ",这",
        "是"
      ],
      [
        "防",
        "止"
      ],
      [
        "资",
        "料"
      ],
      [
        "的",
        "小"
      ],
      [
        ",",
        "则"
      ],
      [
        "位",
        "于"
      ],
      [
        ",",
        "她"
      ],
      [
        ",",
        "到"
      ],
      [
        "一",
        "下"
      ],
      [
        "当",
        "地"
      ],
      [
        "商",
        "品"
      ],
      [
        "必",
        "要"
      ],
      [
        "分",
        "为"
      ],
      [
        "个",
        "月"
      ],
      [
        "生",
        "素"
      ],
      [
        "不",
        "足"
      ],
      [
        "人",
        "、"
      ],
      [
        "7",
        "."
      ],
      [
        ",",
        "中"
      ],
      [
        "曾",
        "经"
      ],
      [
        "广",
        "东"
      ],
      [
        "只",
        "是"
      ],
      [
        "高",
        "校"
      ],
      [
        "病",
        "毒"
      ],
      [
        "评",
        "价"
      ],
      [
        "下",
        "的"
      ],
      [
        "中国",
        "特色"
      ],
      [
        "再",
        "次"
      ],
      [
        "利",
        "益"
      ],
      [
        "人",
        "体"
      ],
      [
        "数",
        "量"
      ],
      [
        ",这",
        "些"
      ],
      [
        "。\n2",
        "."
      ],
      [
        "体",
        "现"
      ],
      [
        "说",
        ":“"
      ],
      [
        "说",
        "过"
      ],
      [
        "米",
        ","
      ],
      [
        ",然",
        "后"
      ],
      [
        "位",
        ","
      ],
      [
        "机",
        "的"
      ],
      [
        "总",
        "书记"
      ],
      [
        "位",
        "置"
      ],
      [
        "长",
        ","
      ],
      [
        "以",
        "来,"
      ],
      [
        ",对",
        "于"
      ],
      [
        "部",
        "、"
      ],
      [
        "%",
        "。"
      ],
      [
        "》、",
        "《"
      ],
      [
        "构",
        "建"
      ],
      [
        "不",
        "到"
      ],
      [
        "等",
        "方面"
      ],
      [
        "”",
        "\n"
      ],
      [
        "▁",
        "。\n"
      ],
      [
        "社",
        "区"
      ],
      [
        "202",
        "1年"
      ],
      [
        "医",
        "学"
      ],
      [
        "、",
        "不"
      ],
      [
        "主",
        "动"
      ],
      [
        "情",
        ","
      ],
      [
        "不",
        "少"
      ],
      [
        "赛",
        "季"
      ],
      [
        ",",
        "由"
      ],
      [
        "机",
        ","
      ],
      [
        "的",
        "主要"
      ],
      [
        "之",
        "前"
      ],
      [
        "职",
        "工"
      ],
      [
        ",",
        "那么"
      ],
      [
        "的",
        "作用"
      ],
      [
        "形",
        "象"
      ],
      [
        "突",
        "破"
      ],
      [
        "连",
        "续"
      ],
      [
        "另",
        "一"
      ],
      [
        "多",
        "个"
      ],
      [
        "厂",
        "家"
      ],
      [
        "想",
        "要"
      ],
      [
        "。",
        "一"
      ],
      [
        "的",
        "、"
      ],
      [
        "2",
        "、"
      ],
      [
        "自",
        "我"
      ],
      [
        "最",
        "后"
      ],
      [
        "过程",
        "中,"
      ],
      [
        "承",
        "担"
      ],
      [
        "适",
        "应"
      ],
      [
        "往",
        "往"
      ],
      [
        "动",
        "物"
      ],
      [
        "“",
        "”"
      ],
      [
        "里",
        "的"
      ],
      [
        "样",
        "的"
      ],
      [
        "。\n",
        "三"
      ],
      [
        "素",
        "质"
      ],
      [
        "5",
        "00"
      ],
      [
        "处",
        "于"
      ],
      [
        "同",
        "学"
      ],
      [
        "坚",
        "定"
      ],
      [
        "示",
        "范"
      ],
      [
        "体",
        "验"
      ],
      [
        "加",
        "快"
      ],
      [
        ",",
        "上"
      ],
      [
        "广",
        "州"
      ],
      [
        "进行",
        "了"
      ],
      [
        "201",
        "9年"
      ],
      [
        "产品",
        "的"
      ],
      [
        "世",
        "纪"
      ],
      [
        "节",
        "能"
      ],
      [
        "统",
        "计"
      ],
      [
        "近",
        "年"
      ],
      [
        "问题",
        ","
      ],
      [
        "例",
        "如"
      ],
      [
        "升",
        "级"
      ],
      [
        "的",
        "《"
      ],
      [
        "土",
        "地"
      ],
      [
        "资",
        "格"
      ],
      [
        "免",
        "疫"
      ],
      [
        "引",
        "导"
      ],
      [
        "医",
        "药"
      ],
      [
        "加",
        "入"
      ],
      [
        "8",
        "."
      ],
      [
        "说",
        "明"
      ],
      [
        "理",
        "想"
      ],
      [
        "化",
        ","
      ],
      [
        "的",
        "产品"
      ],
      [
        "有",
        "机"
      ],
      [
        "成",
        "员"
      ],
      [
        "的",
        "心"
      ],
      [
        "此",
        "次"
      ],
      [
        "化",
        "工"
      ],
      [
        "有",
        "所"
      ],
      [
        "的",
        "影响"
      ],
      [
        ",",
        "具有"
      ],
      [
        "居",
        "民"
      ],
      [
        "多",
        "数"
      ],
      [
        "用",
        "的"
      ],
      [
        "含",
        "量"
      ],
      [
        "最",
        "大的"
      ],
      [
        "是",
        ","
      ],
      [
        "多",
        "年"
      ],
      [
        "内",
        "部"
      ],
      [
        "子",
        "的"
      ],
      [
        "1",
        "日"
      ],
      [
        "富",
        "的"
      ],
      [
        "5",
        "."
      ],
      [
        ",而",
        "是"
      ],
      [
        "协",
        "调"
      ],
      [
        "也",
        "会"
      ],
      [
        ",",
        "力"
      ],
      [
        "财",
        "政"
      ],
      [
        "都",
        "会"
      ],
      [
        "是",
        "什么"
      ],
      [
        "相",
        "比"
      ],
      [
        "、",
        "电"
      ],
      [
        "展",
        "示"
      ],
      [
        "利",
        "于"
      ],
      [
        "常",
        "见"
      ],
      [
        "者",
        ","
      ],
      [
        "含",
        "有"
      ],
      [
        "证",
        "明"
      ],
      [
        "成",
        "了"
      ],
      [
        "特别",
        "是"
      ],
      [
        "上",
        "市"
      ],
      [
        "其",
        "实"
      ],
      [
        "天",
        ","
      ],
      [
        "公",
        "开"
      ],
      [
        "领",
        "先"
      ],
      [
        "机",
        "器"
      ],
      [
        "三",
        "个"
      ],
      [
        "区",
        "、"
      ],
      [
        "。",
        "所以"
      ],
      [
        "年",
        "轻"
      ],
      [
        "生",
        ","
      ],
      [
        "一",
        "体"
      ],
      [
        "人",
        "口"
      ],
      [
        "要求",
        ","
      ],
      [
        "文",
        "件"
      ],
      [
        "人",
        "在"
      ],
      [
        "。\n3",
        "."
      ],
      [
        "本",
        "次"
      ],
      [
        "成",
        "长"
      ],
      [
        "°",
        "C"
      ],
      [
        "201",
        "8年"
      ],
      [
        "以",
        "来"
      ],
      [
        "强",
        "度"
      ],
      [
        "。",
        "有"
      ],
      [
        "的",
        "水"
      ],
      [
        "中国特色",
        "社会主义"
      ],
      [
        ",",
        "再"
      ],
      [
        "出",
        "来"
      ],
      [
        ",不",
        "仅"
      ],
      [
        "股",
        "份"
      ],
      [
        "力",
        "、"
      ],
      [
        "可能",
        "会"
      ],
      [
        "9",
        "0"
      ],
      [
        "不",
        ","
      ],
      [
        "国",
        "务"
      ],
      [
        "进",
        "步"
      ],
      [
        "一定",
        "要"
      ],
      [
        "球",
        "员"
      ],
      [
        "2",
        "3"
      ],
      [
        "的",
        "治疗"
      ],
      [
        "现",
        "实"
      ],
      [
        ",",
        "包括"
      ],
      [
        ",",
        "主要"
      ],
      [
        "平",
        "均"
      ],
      [
        "思",
        "考"
      ],
      [
        "精神",
        ","
      ],
      [
        "自",
        "主"
      ],
      [
        "这",
        "里"
      ],
      [
        "共产",
        "党"
      ],
      [
        "事",
        "件"
      ],
      [
        "病",
        "情"
      ],
      [
        "美",
        "元"
      ],
      [
        "举",
        "办"
      ],
      [
        "类",
        "型"
      ],
      [
        ",",
        "就是"
      ],
      [
        "一",
        "切"
      ],
      [
        "的",
        "时间"
      ],
      [
        "。",
        "它"
      ],
      [
        "法",
        "院"
      ],
      [
        ",",
        "或"
      ],
      [
        "高",
        "速"
      ],
      [
        "经",
        "历"
      ],
      [
        "大",
        "型"
      ],
      [
        "总",
        "结"
      ],
      [
        ",",
        "实现"
      ],
      [
        "河",
        "南"
      ],
      [
        "维",
        "生素"
      ],
      [
        "举",
        "行"
      ],
      [
        "o",
        "n"
      ],
      [
        "202",
        "2年"
      ],
      [
        "经",
        "理"
      ],
      [
        "语",
        "言"
      ],
      [
        "的",
        "不"
      ],
      [
        "手",
        "机"
      ],
      [
        "推",
        "广"
      ],
      [
        "去",
        "年"
      ],
      [
        "试",
        "验"
      ],
      [
        "使",
        "命"
      ],
      [
        "深",
        "化"
      ],
      [
        "1",
        "个"
      ],
      [
        "及",
        "其"
      ],
      [
        "家",
        "长"
      ],
      [
        "学",
        "术"
      ],
      [
        "相",
        "应"
      ],
      [
        "优",
        "化"
      ],
      [
        "各",
        "地"
      ],
      [
        "法",
        "规"
      ],
      [
        "的",
        "基础"
      ],
      [
        "面",
        "临"
      ],
      [
        "1",
        "月"
      ],
      [
        "美",
        "的"
      ],
      [
        "是",
        "有"
      ],
      [
        "运",
        "用"
      ],
      [
        "独",
        "立"
      ],
      [
        "时",
        "的"
      ],
      [
        "这样",
        "的"
      ],
      [
        "事",
        "故"
      ],
      [
        "国务",
        "院"
      ],
      [
        "相",
        "当"
      ],
      [
        "建设",
        ","
      ],
      [
        "9",
        "月"
      ],
      [
        "方面",
        ","
      ],
      [
        "不",
        "的"
      ],
      [
        "人",
        "士"
      ],
      [
        "广",
        "告"
      ],
      [
        "先",
        "生"
      ],
      [
        "了",
        "“"
      ],
      [
        "设",
        "置"
      ],
      [
        "而",
        "言"
      ],
      [
        "太",
        "阳"
      ],
      [
        "指",
        "出,"
      ],
      [
        "吸",
        "引"
      ],
      [
        "实",
        "行"
      ],
      [
        "主",
        "体"
      ],
      [
        "角",
        "度"
      ],
      [
        "人",
        "工"
      ],
      [
        "12",
        "月"
      ],
      [
        ",",
        "会"
      ],
      [
        "每",
        "天"
      ],
      [
        "那",
        "些"
      ],
      [
        ",",
        "的"
      ],
      [
        "9",
        "."
      ],
      [
        "值",
        "得"
      ],
      [
        "吸",
        "收"
      ],
      [
        "出",
        "生"
      ],
      [
        "的",
        "地"
      ],
      [
        ")",
        "。"
      ],
      [
        "突",
        "出"
      ],
      [
        "状",
        "况"
      ],
      [
        "知",
        "名"
      ],
      [
        "营",
        "销"
      ],
      [
        "观",
        "众"
      ],
      [
        "先",
        "后"
      ],
      [
        "有",
        "了"
      ],
      [
        "》",
        "的"
      ],
      [
        ",我",
        "国"
      ],
      [
        "长",
        "、"
      ],
      [
        "保",
        "温"
      ],
      [
        "污",
        "水"
      ],
      [
        "“",
        "一"
      ],
      [
        "血",
        "管"
      ],
      [
        "19",
        "8"
      ],
      [
        "面",
        "的"
      ],
      [
        ",",
        "被"
      ],
      [
        "量",
        "的"
      ],
      [
        "排",
        "名"
      ],
      [
        "联",
        "赛"
      ],
      [
        "神",
        "经"
      ],
      [
        "罗",
        "斯"
      ],
      [
        ",一",
        "般"
      ],
      [
        "讲",
        "话"
      ],
      [
        "商",
        "标"
      ],
      [
        "多",
        "少"
      ],
      [
        "展",
        "开"
      ],
      [
        "配",
        "合"
      ],
      [
        "心",
        "的"
      ],
      [
        "事",
        "实"
      ],
      [
        "基",
        "层"
      ],
      [
        "2",
        "2"
      ],
      [
        "铁",
        "路"
      ],
      [
        "乡",
        "村"
      ],
      [
        "的",
        "发"
      ],
      [
        "全",
        "体"
      ],
      [
        "元",
        "素"
      ],
      [
        "成",
        "就"
      ],
      [
        "手",
        "段"
      ],
      [
        "。",
        "如"
      ],
      [
        "其",
        "中"
      ],
      [
        "分",
        "子"
      ],
      [
        "公司",
        "的"
      ],
      [
        "。",
        "对"
      ],
      [
        "食",
        "用"
      ],
      [
        "次",
        ","
      ],
      [
        "的",
        "生活"
      ],
      [
        "中",
        "小"
      ],
      [
        "好",
        "地"
      ],
      [
        "7",
        "月"
      ],
      [
        "物",
        "的"
      ],
      [
        "民",
        "主"
      ],
      [
        "准",
        "确"
      ],
      [
        "、、",
        "、"
      ],
      [
        "e",
        "r"
      ],
      [
        "%",
        "的"
      ],
      [
        "良",
        "好"
      ],
      [
        "本",
        "身"
      ],
      [
        "主",
        "持"
      ],
      [
        "生",
        "长"
      ],
      [
        "装",
        "备"
      ],
      [
        "6",
        "、"
      ],
      [
        "是",
        "不"
      ],
      [
        "下",
        "来"
      ],
      [
        "工",
        "具"
      ],
      [
        "通",
        "知"
      ],
      [
        "相",
        "互"
      ],
      [
        "。\n",
        "二、"
      ],
      [
        "商",
        "务"
      ],
      [
        "团",
        "结"
      ],
      [
        "协",
        "议"
      ],
      [
        "性",
        "。"
      ],
      [
        "博",
        "士"
      ],
      [
        "布",
        "局"
      ],
      [
        "公",
        "路"
      ],
      [
        "室",
        "内"
      ],
      [
        "者",
        "的"
      ],
      [
        "加",
        "大"
      ],
      [
        "3",
        "月"
      ],
      [
        "之间",
        "的"
      ],
      [
        "▁",
        "在"
      ],
      [
        "测",
        "试"
      ],
      [
        "十",
        "二"
      ],
      [
        "德",
        "国"
      ],
      [
        ",",
        "于"
      ],
      [
        "老",
        "年"
      ],
      [
        "家",
        "的"
      ],
      [
        "天",
        "然"
      ],
      [
        "习近平",
        "总书记"
      ],
      [
        ",不",
        "要"
      ],
      [
        "8",
        "月"
      ],
      [
        ",",
        "该"
      ],
      [
        "自",
        "治"
      ],
      [
        "英",
        "国"
      ],
      [
        "为",
        "什么"
      ],
      [
        "真",
        "的"
      ],
      [
        "e",
        "n"
      ],
      [
        "6",
        "月"
      ],
      [
        "每",
        "个"
      ],
      [
        "专",
        "利"
      ],
      [
        "色",
        "的"
      ],
      [
        "、",
        "中国"
      ],
      [
        "”",
        "“"
      ],
      [
        "i",
        ")"
      ],
      [
        "和",
        "的"
      ],
      [
        "事",
        "情"
      ],
      [
        "。",
        "据"
      ],
      [
        "家",
        ","
      ],
      [
        "指",
        "出"
      ],
      [
        "实验",
        "室"
      ],
      [
        "比",
        "例"
      ],
      [
        "他们",
        "的"
      ],
      [
        "10",
        "月"
      ],
      [
        "监",
        "测"
      ],
      [
        ",",
        "发"
      ],
      [
        "有",
        "着"
      ],
      [
        "转",
        "型"
      ],
      [
        "试",
        "管"
      ],
      [
        "州",
        "市"
      ],
      [
        "一",
        "年"
      ],
      [
        "本",
        "科"
      ],
      [
        "这个",
        "问题"
      ],
      [
        "学",
        "会"
      ],
      [
        "。",
        "目前"
      ],
      [
        "环",
        "节"
      ],
      [
        "实",
        "力"
      ],
      [
        "成",
        "的"
      ],
      [
        "展",
        "现"
      ],
      [
        "风",
        "格"
      ],
      [
        "注",
        "重"
      ],
      [
        "限",
        "制"
      ],
      [
        "著",
        "名"
      ],
      [
        "最",
        "终"
      ],
      [
        "▁",
        "("
      ],
      [
        "放",
        "在"
      ],
      [
        "重",
        "新"
      ],
      [
        "管理",
        "、"
      ],
      [
        "少",
        "年"
      ],
      [
        ",",
        "没有"
      ],
      [
        ",",
        "自"
      ],
      [
        "防",
        "控"
      ],
      [
        "上",
        "升"
      ],
      [
        "另",
        "外"
      ],
      [
        "四",
        "个"
      ],
      [
        "201",
        "7年"
      ],
      [
        ",",
        "后"
      ],
      [
        "变",
        "得"
      ],
      [
        "下",
        "面"
      ],
      [
        ",还",
        "有"
      ],
      [
        "身",
        "份"
      ],
      [
        "一",
        "名"
      ],
      [
        "主",
        "管"
      ],
      [
        "作",
        "出"
      ],
      [
        "消",
        "防"
      ],
      [
        "的",
        "关"
      ],
      [
        "改",
        "造"
      ],
      [
        "3",
        "5"
      ],
      [
        "连",
        "接"
      ],
      [
        ",",
        "目前"
      ],
      [
        "百",
        "年"
      ],
      [
        "负责",
        "人"
      ],
      [
        "成",
        "都"
      ],
      [
        ")",
        "的"
      ],
      [
        "新",
        "型"
      ],
      [
        "各",
        "级"
      ],
      [
        "消",
        "息"
      ],
      [
        "马",
        "克"
      ],
      [
        "足",
        "球"
      ],
      [
        ",这",
        "个"
      ],
      [
        "的",
        "方式"
      ],
      [
        "制",
        "品"
      ],
      [
        "工作",
        "。"
      ],
      [
        "小",
        ","
      ],
      [
        "切",
        "实"
      ],
      [
        "提供",
        "了"
      ],
      [
        ",这",
        "种"
      ],
      [
        "1",
        "-"
      ],
      [
        "更多",
        "的"
      ],
      [
        "引",
        "领"
      ],
      [
        "地",
        "产"
      ],
      [
        "大",
        "、"
      ],
      [
        "院",
        "校"
      ],
      [
        "和",
        "国"
      ],
      [
        "特",
        "的"
      ],
      [
        "的一",
        "种"
      ],
      [
        "地",
        ","
      ],
      [
        "委",
        "会"
      ],
      [
        "证",
        "书"
      ],
      [
        ",",
        "坚持"
      ],
      [
        "2",
        "个"
      ],
      [
        ",",
        "推动"
      ],
      [
        "11",
        "月"
      ],
      [
        "建",
        "成"
      ],
      [
        "护",
        "理"
      ],
      [
        "色",
        ","
      ],
      [
        "。\n",
        "据"
      ],
      [
        "20",
        "00"
      ],
      [
        "批",
        "准"
      ],
      [
        "认",
        "证"
      ],
      [
        "人",
        "生"
      ],
      [
        "原",
        "料"
      ],
      [
        "专业",
        "的"
      ],
      [
        "前",
        "的"
      ],
      [
        "一",
        "点"
      ],
      [
        "。",
        "("
      ],
      [
        "小",
        "的"
      ],
      [
        "道",
        "德"
      ],
      [
        "农",
        "民"
      ],
      [
        "起",
        ","
      ],
      [
        "最",
        "高"
      ],
      [
        "它",
        "的"
      ],
      [
        ",不",
        "能"
      ],
      [
        "表",
        "达"
      ],
      [
        "、",
        "市"
      ],
      [
        "决",
        "策"
      ],
      [
        "只",
        "要"
      ],
      [
        "中华",
        "民族"
      ],
      [
        "难",
        "以"
      ],
      [
        "的",
        "地方"
      ],
      [
        "很",
        "大"
      ],
      [
        "水",
        "、"
      ],
      [
        "真",
        "实"
      ],
      [
        "方面",
        "的"
      ],
      [
        "期",
        "的"
      ],
      [
        "二",
        "是"
      ],
      [
        "特",
        "征"
      ],
      [
        "人民",
        "政府"
      ],
      [
        "十",
        "年"
      ],
      [
        "之",
        ","
      ],
      [
        "固",
        "定"
      ],
      [
        "感",
        "到"
      ],
      [
        "依",
        "据"
      ],
      [
        "几",
        "个"
      ],
      [
        "都",
        "不"
      ],
      [
        "引",
        "发"
      ],
      [
        "5",
        "月"
      ],
      [
        "、",
        "有"
      ],
      [
        "这",
        "么"
      ],
      [
        "指",
        "标"
      ],
      [
        "公",
        "安"
      ],
      [
        "各",
        "个"
      ],
      [
        "意",
        "味"
      ],
      [
        "进",
        "口"
      ],
      [
        "一",
        ","
      ],
      [
        "效",
        "益"
      ],
      [
        "力",
        "。"
      ],
      [
        "1",
        ")"
      ],
      [
        "\n",
        "在"
      ],
      [
        "只",
        "能"
      ],
      [
        "八",
        "字"
      ],
      [
        ",",
        "给"
      ],
      [
        "品",
        "种"
      ],
      [
        "一",
        "家"
      ],
      [
        ",",
        "高"
      ],
      [
        "但",
        "是"
      ],
      [
        "总",
        "体"
      ],
      [
        "这",
        "是"
      ],
      [
        "不",
        "良"
      ],
      [
        "别",
        "人"
      ],
      [
        "装",
        "置"
      ],
      [
        "构",
        "成"
      ],
      [
        "度",
        "的"
      ],
      [
        ",",
        "确保"
      ],
      [
        "第",
        "四"
      ],
      [
        "办",
        "理"
      ],
      [
        "2",
        "8"
      ],
      [
        "同",
        "样"
      ],
      [
        "设",
        "立"
      ],
      [
        "认为",
        ","
      ],
      [
        "的",
        "合"
      ],
      [
        "活动",
        ","
      ],
      [
        "每",
        "年"
      ],
      [
        "心",
        "、"
      ],
      [
        "3",
        "、"
      ],
      [
        "表",
        "明"
      ],
      [
        "公",
        "布"
      ],
      [
        ",",
        "因"
      ],
      [
        "还",
        "要"
      ],
      [
        "创",
        "作"
      ],
      [
        "场",
        "所"
      ],
      [
        "3",
        "00"
      ],
      [
        "小",
        "组"
      ],
      [
        "的",
        "和"
      ],
      [
        ",",
        "成为"
      ],
      [
        "的",
        "热"
      ],
      [
        "百",
        "分"
      ],
      [
        "石",
        "油"
      ],
      [
        "省",
        "级"
      ],
      [
        "做",
        "出"
      ],
      [
        "在",
        "于"
      ],
      [
        "。\n",
        "此"
      ],
      [
        ",",
        "着"
      ],
      [
        ",",
        "且"
      ],
      [
        "大",
        "利"
      ],
      [
        "无",
        "论"
      ],
      [
        ",",
        "形成"
      ],
      [
        "显",
        "著"
      ],
      [
        "患者",
        "的"
      ],
      [
        "维",
        "修"
      ],
      [
        "江",
        "省"
      ],
      [
        "尽",
        "管"
      ],
      [
        "案",
        "件"
      ],
      [
        "多",
        "次"
      ],
      [
        "决",
        "赛"
      ],
      [
        "高",
        "等"
      ],
      [
        "2",
        "1"
      ],
      [
        "所",
        "在"
      ],
      [
        "就",
        "可以"
      ],
      [
        ",",
        "新"
      ],
      [
        "中国",
        "共产党"
      ],
      [
        "流",
        "程"
      ],
      [
        "电",
        "动"
      ],
      [
        "他",
        "人"
      ],
      [
        ",",
        "积极"
      ],
      [
        "。\n5",
        "、"
      ],
      [
        ",",
        "此"
      ],
      [
        "2",
        ")"
      ],
      [
        "2",
        "6"
      ],
      [
        "十",
        "四"
      ],
      [
        "伤",
        "害"
      ],
      [
        "测",
        "量"
      ],
      [
        "充",
        "满"
      ],
      [
        "标",
        "志"
      ],
      [
        "4",
        "月"
      ],
      [
        "很多",
        "人"
      ],
      [
        ",",
        "和"
      ],
      [
        "管",
        "道"
      ],
      [
        "适",
        "当"
      ],
      [
        "体",
        "制"
      ],
      [
        "代",
        "理"
      ],
      [
        "公",
        "园"
      ],
      [
        "爱",
        "情"
      ],
      [
        "尽",
        "量"
      ],
      [
        ",",
        "加强"
      ],
      [
        "首",
        "次"
      ],
      [
        "有",
        "人"
      ],
      [
        "十",
        "三"
      ],
      [
        "%",
        "。\n"
      ],
      [
        "到",
        "的"
      ],
      [
        "培",
        "育"
      ],
      [
        "红",
        "色"
      ],
      [
        "设计",
        "、"
      ],
      [
        "它",
        "们"
      ],
      [
        "完",
        "整"
      ],
      [
        "目",
        "的"
      ],
      [
        "相",
        "同"
      ],
      [
        "合",
        "格"
      ],
      [
        "校",
        "园"
      ],
      [
        "办公",
        "室"
      ],
      [
        ",",
        "促进"
      ],
      [
        "是",
        "“"
      ],
      [
        "的",
        "好"
      ],
      [
        "了",
        "一个"
      ],
      [
        "很",
        "难"
      ],
      [
        "财",
        "务"
      ],
      [
        ",",
        "需要"
      ],
      [
        "气",
        "体"
      ],
      [
        "马克",
        "思"
      ],
      [
        "器",
        "、"
      ],
      [
        "形",
        "势"
      ],
      [
        "调",
        "节"
      ],
      [
        "公",
        "里"
      ],
      [
        "成",
        "分"
      ],
      [
        "3",
        "个"
      ],
      [
        "的",
        "中"
      ],
      [
        "每",
        "一"
      ],
      [
        "。",
        "该"
      ],
      [
        "国",
        "有"
      ],
      [
        "显示",
        ","
      ],
      [
        "一",
        "流"
      ],
      [
        "的",
        "企业"
      ],
      [
        "内",
        ","
      ],
      [
        "坚",
        "决"
      ],
      [
        "职",
        "责"
      ],
      [
        "技术",
        "、"
      ],
      [
        "致",
        "力"
      ],
      [
        "起",
        "到"
      ],
      [
        "预",
        "计"
      ],
      [
        "201",
        "6年"
      ],
      [
        ",",
        "免"
      ],
      [
        "最",
        "大"
      ],
      [
        "的",
        "方法"
      ],
      [
        "的",
        "原因"
      ],
      [
        "排",
        "放"
      ],
      [
        "作",
        "业"
      ],
      [
        "是",
        "指"
      ],
      [
        "带",
        "着"
      ],
      [
        "期",
        ","
      ],
      [
        "地",
        "位"
      ],
      [
        "、",
        "南"
      ],
      [
        "信",
        "用"
      ],
      [
        "集",
        "体"
      ],
      [
        "\n",
        "1、"
      ],
      [
        "党",
        "中央"
      ],
      [
        "补",
        "充"
      ],
      [
        "计算",
        "机"
      ],
      [
        "的时候",
        ","
      ],
      [
        "了",
        "我"
      ],
      [
        "在",
        "一起"
      ],
      [
        "感",
        "受"
      ],
      [
        "人",
        "。\n"
      ],
      [
        "支",
        "部"
      ],
      [
        "要",
        "注意"
      ],
      [
        "。但",
        "是"
      ],
      [
        "g",
        ")"
      ],
      [
        "大",
        "大"
      ],
      [
        "。",
        "由于"
      ],
      [
        "发",
        "电"
      ],
      [
        ",",
        "比如"
      ],
      [
        "。",
        "同时,"
      ],
      [
        "功",
        "效"
      ],
      [
        "产",
        "权"
      ],
      [
        "生活",
        "中"
      ],
      [
        "对",
        "方"
      ],
      [
        "当",
        "时"
      ],
      [
        "快",
        "乐"
      ],
      [
        "。",
        "本"
      ],
      [
        "对",
        "外"
      ],
      [
        "2",
        "7"
      ],
      [
        "称",
        "为"
      ],
      [
        "河",
        "北"
      ],
      [
        "都",
        "在"
      ],
      [
        "等",
        "奖"
      ],
      [
        "人",
        "大"
      ],
      [
        "学生",
        "的"
      ],
      [
        "规",
        "律"
      ],
      [
        "水",
        "的"
      ],
      [
        "。\n三",
        "、"
      ],
      [
        "和",
        "“"
      ],
      [
        "药",
        "品"
      ],
      [
        "重",
        "的"
      ],
      [
        "两",
        "种"
      ],
      [
        ",",
        "总"
      ],
      [
        "银",
        "病"
      ],
      [
        "专",
        "门"
      ],
      [
        ",",
        "小"
      ],
      [
        "制造",
        "业"
      ],
      [
        "担",
        "任"
      ],
      [
        "报",
        "道"
      ],
      [
        "感",
        "情"
      ],
      [
        "和",
        "社会"
      ],
      [
        "的",
        "前"
      ],
      [
        "官",
        "方"
      ],
      [
        "正",
        "是"
      ],
      [
        "适",
        "用于"
      ],
      [
        "对",
        "象"
      ],
      [
        "。",
        "公司"
      ],
      [
        "、",
        "和"
      ],
      [
        "层",
        "次"
      ],
      [
        "。\n4",
        "."
      ],
      [
        "创",
        "建"
      ],
      [
        "宝",
        "宝"
      ],
      [
        "新",
        "技术"
      ],
      [
        "应",
        "对"
      ],
      [
        "物",
        "理"
      ],
      [
        "依",
        "然"
      ],
      [
        "更",
        "好的"
      ],
      [
        "满",
        "意"
      ],
      [
        ",",
        "本"
      ],
      [
        "合",
        "金"
      ],
      [
        "思",
        "维"
      ],
      [
        "发",
        "表"
      ],
      [
        "上",
        "下"
      ],
      [
        "十",
        "八"
      ],
      [
        "学",
        "历"
      ],
      [
        "很",
        "好的"
      ],
      [
        "血",
        "液"
      ],
      [
        "融",
        "资"
      ],
      [
        "的",
        "一个"
      ],
      [
        ",",
        "希望"
      ],
      [
        "检",
        "验"
      ],
      [
        "病",
        "人"
      ],
      [
        "天",
        "的"
      ],
      [
        "》",
        "《"
      ],
      [
        "自",
        "信"
      ],
      [
        ",只",
        "有"
      ],
      [
        "分",
        "布"
      ],
      [
        "事",
        "项"
      ],
      [
        "4",
        "5"
      ],
      [
        "手",
        ","
      ],
      [
        "专",
        "项"
      ],
      [
        "保",
        "健"
      ],
      [
        "节",
        "目"
      ],
      [
        "高",
        "效"
      ],
      [
        "一",
        ")"
      ],
      [
        "定",
        "期"
      ],
      [
        "高",
        "级"
      ],
      [
        "学",
        "位"
      ],
      [
        "201",
        "5年"
      ],
      [
        "100",
        "0"
      ],
      [
        "研究",
        "生"
      ],
      [
        "会",
        "计"
      ],
      [
        "外",
        "的"
      ],
      [
        "转",
        "化"
      ],
      [
        "青",
        "春"
      ],
      [
        "一",
        "致"
      ],
      [
        "四",
        "、"
      ],
      [
        "成",
        ","
      ],
      [
        "养",
        "老"
      ],
      [
        "%",
        ";"
      ],
      [
        "发展",
        "。"
      ],
      [
        "提",
        "到"
      ],
      [
        "二",
        ")"
      ],
      [
        ",",
        "水"
      ],
      [
        "事",
        ","
      ],
      [
        "防",
        "治"
      ],
      [
        "器",
        "的"
      ],
      [
        "应用",
        "于"
      ],
      [
        "原",
        "理"
      ],
      [
        "一个",
        "人"
      ],
      [
        "办",
        "学"
      ],
      [
        "地",
        "的"
      ],
      [
        "失",
        "去"
      ],
      [
        ",",
        "向"
      ],
      [
        ",",
        "出"
      ],
      [
        "很",
        "大的"
      ],
      [
        "离",
        "开"
      ],
      [
        "电",
        "话"
      ],
      [
        "的事",
        "情"
      ],
      [
        "年",
        "代"
      ],
      [
        "、",
        "西"
      ],
      [
        "健",
        "全"
      ],
      [
        "回",
        "应"
      ],
      [
        "中",
        "有"
      ],
      [
        "现",
        "有"
      ],
      [
        "7",
        "、"
      ],
      [
        "动",
        ","
      ],
      [
        "规",
        "则"
      ],
      [
        "权",
        "利"
      ],
      [
        "全",
        "省"
      ],
      [
        "意味",
        "着"
      ],
      [
        "住",
        "房"
      ],
      [
        "文",
        "学"
      ],
      [
        "充分",
        "发"
      ],
      [
        "的是",
        ","
      ],
      [
        "在",
        "线"
      ],
      [
        "传",
        "承"
      ],
      [
        "一",
        "路"
      ],
      [
        "分",
        "类"
      ],
      [
        "当",
        "然"
      ],
      [
        ":\n",
        "1、"
      ],
      [
        ",",
        "却"
      ],
      [
        ",",
        "才能"
      ],
      [
        "回",
        "收"
      ],
      [
        "工",
        "商"
      ],
      [
        "阳",
        "光"
      ],
      [
        "演",
        "员"
      ],
      [
        "美",
        "术"
      ],
      [
        "发",
        "作"
      ],
      [
        "。",
        "为"
      ],
      [
        "电",
        "力"
      ],
      [
        "人",
        "物"
      ],
      [
        "。",
        "《"
      ],
      [
        "意",
        "思"
      ],
      [
        "市场",
        "的"
      ],
      [
        "五",
        "”"
      ],
      [
        "转",
        "变"
      ],
      [
        "m",
        "m"
      ],
      [
        ",",
        "导致"
      ],
      [
        "机",
        "场"
      ],
      [
        "众",
        "多"
      ],
      [
        "带",
        "领"
      ],
      [
        "3",
        "6"
      ],
      [
        "行",
        "的"
      ],
      [
        "战",
        "争"
      ],
      [
        "区",
        ","
      ],
      [
        "场",
        "比赛"
      ],
      [
        "法",
        "国"
      ],
      [
        "”",
        "等"
      ],
      [
        "中国",
        "的"
      ],
      [
        "上",
        "了"
      ],
      [
        "也",
        "可以"
      ],
      [
        "点",
        "。"
      ],
      [
        ",",
        "得"
      ],
      [
        "论",
        "文"
      ],
      [
        "试管",
        "儿"
      ],
      [
        "引",
        "进"
      ],
      [
        "深",
        "度"
      ],
      [
        "一",
        "条"
      ],
      [
        "是",
        "最"
      ],
      [
        "一",
        "的"
      ],
      [
        "共",
        "和国"
      ],
      [
        "态",
        "度"
      ],
      [
        "万",
        "元,"
      ],
      [
        "全",
        "会"
      ],
      [
        "以",
        "为"
      ],
      [
        "考",
        "核"
      ],
      [
        "高",
        "、"
      ],
      [
        "激",
        "素"
      ],
      [
        "工",
        "厂"
      ],
      [
        "行业",
        "的"
      ],
      [
        "致力",
        "于"
      ],
      [
        "较",
        "为"
      ],
      [
        "三",
        "年"
      ],
      [
        ",",
        "或者"
      ],
      [
        "认",
        "可"
      ],
      [
        "。",
        "因为"
      ],
      [
        "系统",
        "的"
      ],
      [
        "长",
        "的"
      ],
      [
        "你",
        "们"
      ],
      [
        "设备",
        "的"
      ],
      [
        "官",
        "网"
      ],
      [
        "安全",
        "生产"
      ],
      [
        "立",
        "即"
      ],
      [
        "离",
        "子"
      ],
      [
        "定",
        "位"
      ],
      [
        "家",
        "具"
      ],
      [
        "当",
        "前"
      ],
      [
        "。\n",
        "我"
      ],
      [
        "作",
        "者"
      ],
      [
        "年",
        "度"
      ],
      [
        "建设",
        "、"
      ],
      [
        "突",
        "然"
      ],
      [
        ",只",
        "要"
      ],
      [
        "部",
        "位"
      ],
      [
        "“",
        "三"
      ],
      [
        ",其",
        "是"
      ],
      [
        "。因此",
        ","
      ],
      [
        "万",
        ","
      ],
      [
        "国家",
        "级"
      ],
      [
        "能",
        "量"
      ],
      [
        "担",
        "当"
      ],
      [
        "。这",
        "些"
      ],
      [
        "。\n",
        "《"
      ],
      [
        "是",
        "由"
      ],
      [
        "营",
        "业"
      ],
      [
        "部",
        "件"
      ],
      [
        "通",
        "信"
      ],
      [
        "面",
        ","
      ],
      [
        "男",
        "性"
      ],
      [
        "、",
        "无"
      ],
      [
        "大",
        "多数"
      ],
      [
        "将",
        "在"
      ],
      [
        "球",
        ","
      ],
      [
        "这",
        "话"
      ],
      [
        "优",
        "良"
      ],
      [
        "十",
        "大"
      ],
      [
        "周",
        "围"
      ],
      [
        "信",
        "号"
      ],
      [
        "复",
        "合"
      ],
      [
        "基",
        "于"
      ],
      [
        "一",
        "段"
      ],
      [
        "法",
        "》"
      ],
      [
        "采",
        "购"
      ],
      [
        "大",
        "。"
      ],
      [
        "工作",
        "人员"
      ],
      [
        "她",
        "的"
      ],
      [
        ",",
        "请"
      ],
      [
        "高",
        "温"
      ],
      [
        "配",
        "置"
      ],
      [
[...]
