{
  "version": "1.0",
  "truncation": null,
  "padding": null,
  "added_tokens": [
    {
      "id": 0,
      "content": "<unk>",
      "single_word": false,
      "lstrip": false,
      "rstrip": false,
      "normalized": false,
      "special": true
    },
    {
      "id": 1,
      "content": "<pad>",
      "single_word": false,
      "lstrip": false,
      "rstrip": false,
      "normalized": false,
      "special": true
    },
    {
      "id": 2,
      "content": "<mask>",
      "single_word": false,
      "lstrip": false,
      "rstrip": false,
      "normalized": false,
      "special": true
    },
    {
      "id": 3,
      "content": "<s>",
      "single_word": false,
      "lstrip": false,
      "rstrip": false,
      "normalized": false,
      "special": true
    },
    {
      "id": 4,
      "content": "</s>",
      "single_word": false,
      "lstrip": false,
      "rstrip": false,
      "normalized": false,
      "special": true
    }
  ],
  "normalizer": {
    "type": "NFKC"
  },
  "pre_tokenizer": {
    "type": "Metaspace",
    "replacement": "▁",
    "prepend_scheme": "always",
    "split": true
  },
  "post_processor": null,
  "decoder": {
    "type": "ByteLevel",
    "add_prefix_space": true,
    "trim_offsets": true,
    "use_regex": true
  },
  "model": {
    "type": "BPE",
    "dropout": null,
    "unk_token": "<unk>",
    "continuing_subword_prefix": null,
    "end_of_word_suffix": null,
    "fuse_unk": false,
    "byte_fallback": false,
    "ignore_merges": false,
    "vocab": {
      "<unk>": 0,
      "<pad>": 1,
      "<mask>": 2,
      "<s>": 3,
      "</s>": 4,
      "\t": 5,
      "\n": 6,
      "!": 7,
      "\"": 8,
      "#": 9,
      "$": 10,
      "%": 11,
      "&": 12,
      "'": 13,
      "(": 14,
      ")": 15,
      "*": 16,
      "+": 17,
      ",": 18,
      "-": 19,
      ".": 20,
      "/": 21,
      "0": 22,
      "1": 23,
      "2": 24,
      "3": 25,
      "4": 26,
      "5": 27,
      "6": 28,
      "7": 29,
      "8": 30,
      "9": 31,
      ":": 32,
      ";": 33,
      "<": 34,
      "=": 35,
      ">": 36,
      "?": 37,
      "@": 38,
      "A": 39,
      "B": 40,
      "C": 41,
      "D": 42,
      "E": 43,
      "F": 44,
      "G": 45,
      "H": 46,
      "I": 47,
      "J": 48,
      "K": 49,
      "L": 50,
      "M": 51,
      "N": 52,
      "O": 53,
      "P": 54,
      "Q": 55,
      "R": 56,
      "S": 57,
      "T": 58,
      "U": 59,
      "V": 60,
      "W": 61,
      "X": 62,
      "Y": 63,
      "Z": 64,
      "[": 65,
      "\\": 66,
      "]": 67,
      "^": 68,
      "_": 69,
      "`": 70,
      "a": 71,
      "b": 72,
      "c": 73,
      "d": 74,
      "e": 75,
      "f": 76,
      "g": 77,
      "h": 78,
      "i": 79,
      "j": 80,
      "k": 81,
      "l": 82,
      "m": 83,
      "n": 84,
      "o": 85,
      "p": 86,
      "q": 87,
      "r": 88,
      "s": 89,
      "t": 90,
      "u": 91,
      "v": 92,
      "w": 93,
      "x": 94,
      "y": 95,
      "z": 96,
      "{": 97,
      "|": 98,
      "}": 99,
      "~": 100,
      "¡": 101,
      "¢": 102,
      "£": 103,
      "¤": 104,
      "¥": 105,
      "¦": 106,
      "§": 107,
      "¨": 108,
      "©": 109,
      "ª": 110,
      "«": 111,
      "¬": 112,
      "®": 113,
      "¯": 114,
      "°": 115,
      "±": 116,
      "²": 117,
      "³": 118,
      "´": 119,
      "µ": 120,
      "¶": 121,
      "·": 122,
      "¸": 123,
      "¹": 124,
      "º": 125,
      "»": 126,
      "¼": 127,
      "½": 128,
      "¾": 129,
      "¿": 130,
      "À": 131,
      "Á": 132,
      "Â": 133,
      "Ã": 134,
      "Ä": 135,
      "Å": 136,
      "Æ": 137,
      "Ç": 138,
      "È": 139,
      "É": 140,
      "Ê": 141,
      "Ë": 142,
      "Ì": 143,
      "Í": 144,
      "Î": 145,
      "Ï": 146,
      "Ð": 147,
      "Ñ": 148,
      "Ò": 149,
      "Ó": 150,
      "Ô": 151,
      "Õ": 152,
      "Ö": 153,
      "×": 154,
      "Ø": 155,
      "Ù": 156,
      "Ú": 157,
      "Û": 158,
      "Ü": 159,
      "Ý": 160,
      "Þ": 161,
      "ß": 162,
      "à": 163,
      "á": 164,
      "â": 165,
      "ã": 166,
      "ä": 167,
      "å": 168,
      "æ": 169,
      "ç": 170,
      "è": 171,
      "é": 172,
      "ê": 173,
      "ë": 174,
      "ì": 175,
      "í": 176,
      "î": 177,
      "ï": 178,
      "ð": 179,
      "ñ": 180,
      "ò": 181,
      "ó": 182,
      "ô": 183,
      "õ": 184,
      "ö": 185,
      "÷": 186,
      "ø": 187,
      "ù": 188,
      "ú": 189,
      "û": 190,
      "ü": 191,
      "ý": 192,
      "þ": 193,
      "ÿ": 194,
      "Ā": 195,
      "ā": 196,
      "Ă": 197,
      "ă": 198,
      "Ą": 199,
      "ą": 200,
      "Ć": 201,
      "ć": 202,
      "Ĉ": 203,
      "ĉ": 204,
      "Ċ": 205,
      "ċ": 206,
      "Č": 207,
      "č": 208,
      "Ď": 209,
      "ď": 210,
      "Đ": 211,
      "đ": 212,
      "Ē": 213,
      "ē": 214,
      "Ĕ": 215,
      "ĕ": 216,
      "Ė": 217,
      "ė": 218,
      "Ę": 219,
      "ę": 220,
      "Ě": 221,
      "ě": 222,
      "Ĝ": 223,
      "ĝ": 224,
      "Ğ": 225,
      "ğ": 226,
      "Ġ": 227,
      "ġ": 228,
      "Ģ": 229,
      "ģ": 230,
      "Ĥ": 231,
      "ĥ": 232,
      "Ħ": 233,
      "ħ": 234,
      "Ĩ": 235,
      "ĩ": 236,
      "Ī": 237,
      "ī": 238,
      "Ĭ": 239,
      "ĭ": 240,
      "Į": 241,
      "į": 242,
      "İ": 243,
      "ı": 244,
      "Ĳ": 245,
      "ĳ": 246,
      "Ĵ": 247,
      "ĵ": 248,
      "Ķ": 249,
      "ķ": 250,
      "ĸ": 251,
      "Ĺ": 252,
      "ĺ": 253,
      "Ļ": 254,
      "ļ": 255,
      "Ľ": 256,
      "ľ": 257,
      "Ŀ": 258,
      "ŀ": 259,
      "Ł": 260,
      "ł": 261,
      "Ń": 262,
      "’": 263,
      "“": 264,
      "”": 265,
      "▁": 266,
      "、": 267,
      "。": 268,
      "《": 269,
      "》": 270,
      "一": 271,
      "万": 272,
      "三": 273,
      "上": 274,
      "下": 275,
      "不": 276,
      "与": 277,
      "专": 278,
      "且": 279,
      "世": 280,
      "业": 281,
      "两": 282,
      "个": 283,
      "中": 284,
      "丰": 285,
      "为": 286,
      "主": 287,
      "丽": 288,
      "么": 289,
      "义": 290,
      "之": 291,
      "乐": 292,
      "也": 293,
      "习": 294,
      "书": 295,
      "买": 296,
      "了": 297,
      "争": 298,
      "事": 299,
      "二": 300,
      "于": 301,
      "互": 302,
      "五": 303,
      "些": 304,
      "交": 305,
      "产": 306,
      "享": 307,
      "亲": 308,
      "人": 309,
      "什": 310,
      "仅": 311,
      "今": 312,
      "介": 313,
      "从": 314,
      "他": 315,
      "付": 316,
      "代": 317,
      "以": 318,
      "们": 319,
      "件": 320,
      "价": 321,
      "任": 322,
      "份": 323,
      "企": 324,
      "众": 325,
      "优": 326,
      "会": 327,
      "传": 328,
      "似": 329,
      "但": 330,
      "位": 331,
      "低": 332,
      "住": 333,
      "体": 334,
      "何": 335,
      "作": 336,
      "你": 337,
      "使": 338,
      "例": 339,
      "供": 340,
      "便": 341,
      "保": 342,
      "信": 343,
      "修": 344,
      "候": 345,
      "值": 346,
      "做": 347,
      "健": 348,
      "像": 349,
      "儿": 350,
      "元": 351,
      "充": 352,
      "先": 353,
      "光": 354,
      "克": 355,
      "免": 356,
      "入": 357,
      "全": 358,
      "公": 359,
      "共": 360,
      "关": 361,
      "兴": 362,
      "其": 363,
      "具": 364,
      "典": 365,
      "养": 366,
      "内": 367,
      "再": 368,
      "写": 369,
      "决": 370,
      "况": 371,
      "准": 372,
      "减": 373,
      "几": 374,
      "出": 375,
      "函": 376,
      "分": 377,
      "切": 378,
      "划": 379,
      "列": 380,
      "则": 381,
      "创": 382,
      "判": 383,
      "利": 384,
      "别": 385,
      "到": 386,
      "制": 387,
      "刻": 388,
      "前": 389,
      "力": 390,
      "功": 391,
      "加": 392,
      "务": 393,
      "动": 394,
      "助": 395,
      "励": 396,
      "势": 397,
      "包": 398,
      "化": 399,
      "区": 400,
      "医": 401,
      "升": 402,
      "华": 403,
      "协": 404,
      "单": 405,
      "南": 406,
      "卡": 407,
      "即": 408,
      "厅": 409,
      "历": 410,
      "压": 411,
      "原": 412,
      "去": 413,
      "参": 414,
      "及": 415,
      "友": 416,
      "反": 417,
      "发": 418,
      "取": 419,
      "受": 420,
      "变": 421,
      "口": 422,
      "古": 423,
      "句": 424,
      "另": 425,
      "只": 426,
      "可": 427,
      "台": 428,
      "史": 429,
      "号": 430,
      "司": 431,
      "各": 432,
      "合": 433,
      "同": 434,
      "名": 435,
      "后": 436,
      "向": 437,
      "吗": 438,
      "否": 439,
      "含": 440,
      "听": 441,
      "吸": 442,
      "告": 443,
      "员": 444,
      "周": 445,
      "味": 446,
      "命": 447,
      "和": 448,
      "咖": 449,
      "品": 450,
      "响": 451,
      "哪": 452,
      "售": 453,
      "商": 454,
      "啡": 455,
      "善": 456,
      "喜": 457,
      "器": 458,
      "四": 459,
      "回": 460,
      "因": 461,
      "团": 462,
      "园": 463,
      "围": 464,
      "国": 465,
      "图": 466,
      "土": 467,
      "在": 468,
      "地": 469,
      "场": 470,
      "均": 471,
      "块": 472,
      "型": 473,
      "城": 474,
      "域": 475,
      "培": 476,
      "基": 477,
      "境": 478,
      "增": 479,
      "士": 480,
      "声": 481,
      "处": 482,
      "备": 483,
      "复": 484,
      "外": 485,
      "多": 486,
      "够": 487,
      "大": 488,
      "天": 489,
      "太": 490,
      "失": 491,
      "头": 492,
      "女": 493,
      "奶": 494,
      "她": 495,
      "好": 496,
      "如": 497,
      "始": 498,
      "婚": 499,
      "子": 500,
      "字": 501,
      "存": 502,
      "季": 503,
      "学": 504,
      "孩": 505,
      "它": 506,
      "安": 507,
      "完": 508,
      "定": 509,
      "宝": 510,
      "实": 511,
      "宠": 512,
      "客": 513,
      "室": 514,
      "害": 515,
      "家": 516,
      "容": 517,
      "密": 518,
      "富": 519,
      "对": 520,
      "寻": 521,
      "导": 522,
      "将": 523,
      "尊": 524,
      "小": 525,
      "少": 526,
      "尔": 527,
      "尝": 528,
      "就": 529,
      "尽": 530,
      "层": 531,
      "居": 532,
      "展": 533,
      "属": 534,
      "山": 535,
      "工": 536,
      "巧": 537,
      "差": 538,
      "己": 539,
      "已": 540,
      "市": 541,
      "布": 542,
      "师": 543,
      "希": 544,
      "带": 545,
      "帮": 546,
      "常": 547,
      "干": 548,
      "平": 549,
      "年": 550,
      "并": 551,
      "广": 552,
      "序": 553,
      "应": 554,
      "店": 555,
      "度": 556,
      "庭": 557,
      "康": 558,
      "建": 559,
      "开": 560,
      "异": 561,
      "式": 562,
      "引": 563,
      "张": 564,
      "强": 565,
      "当": 566,
      "录": 567,
      "形": 568,
      "彩": 569,
      "影": 570,
      "往": 571,
      "征": 572,
      "待": 573,
      "很": 574,
      "律": 575,
      "得": 576,
      "微": 577,
      "德": 578,
      "心": 579,
      "必": 580,
      "快": 581,
      "念": 582,
      "态": 583,
      "思": 584,
      "性": 585,
      "总": 586,
      "息": 587,
      "您": 588,
      "情": 589,
      "想": 590,
      "意": 591,
      "感": 592,
      "戏": 593,
      "成": 594,
      "我": 595,
      "或": 596,
      "战": 597,
      "户": 598,
      "房": 599,
      "所": 600,
      "手": 601,
      "才": 602,
      "打": 603,
      "找": 604,
      "技": 605,
      "把": 606,
      "投": 607,
      "护": 608,
      "报": 609,
      "拉": 610,
      "拥": 611,
      "择": 612,
      "括": 613,
      "持": 614,
      "指": 615,
      "按": 616,
      "挑": 617,
      "换": 618,
      "据": 619,
      "排": 620,
      "探": 621,
      "接": 622,
      "控": 623,
      "推": 624,
      "描": 625,
      "提": 626,
      "搭": 627,
      "操": 628,
      "支": 629,
      "收": 630,
      "改": 631,
      "放": 632,
      "政": 633,
      "故": 634,
      "效": 635,
      "教": 636,
      "数": 637,
      "整": 638,
      "文": 639,
      "料": 640,
      "断": 641,
      "斯": 642,
      "新": 643,
      "方": 644,
      "施": 645,
      "旅": 646,
      "无": 647,
      "日": 648,
      "时": 649,
      "明": 650,
      "易": 651,
      "星": 652,
      "是": 653,
      "显": 654,
      "景": 655,
      "智": 656,
      "曲": 657,
      "更": 658,
      "最": 659,
      "月": 660,
      "有": 661,
      "服": 662,
      "望": 663,
      "期": 664,
      "木": 665,
      "未": 666,
      "本": 667,
      "术": 668,
      "机": 669,
      "杂": 670,
      "权": 671,
      "材": 672,
      "条": 673,
      "来": 674,
      "松": 675,
      "板": 676,
      "极": 677,
      "构": 678,
      "析": 679,
      "果": 680,
      "某": 681,
      "查": 682,
      "标": 683,
      "样": 684,
      "根": 685,
      "格": 686,
      "案": 687,
      "检": 688,
      "植": 689,
      "概": 690,
      "模": 691,
      "次": 692,
      "欢": 693,
      "款": 694,
      "歌": 695,
      "正": 696,
      "此": 697,
      "步": 698,
      "段": 699,
      "母": 700,
      "每": 701,
      "比": 702,
      "民": 703,
      "气": 704,
      "氧": 705,
      "水": 706,
      "求": 707,
      "汽": 708,
      "沟": 709,
      "没": 710,
      "油": 711,
      "治": 712,
      "法": 713,
      "注": 714,
      "洁": 715,
      "洗": 716,
      "洞": 717,
      "活": 718,
      "流": 719,
      "测": 720,
      "济": 721,
      "海": 722,
      "消": 723,
      "深": 724,
      "清": 725,
      "温": 726,
      "游": 727,
      "源": 728,
      "满": 729,
      "演": 730,
      "激": 731,
      "火": 732,
      "点": 733,
      "烤": 734,
      "热": 735,
      "然": 736,
      "照": 737,
      "爱": 738,
      "片": 739,
      "牌": 740,
      "牛": 741,
      "物": 742,
      "特": 743,
      "状": 744,
      "狗": 745,
      "独": 746,
      "猫": 747,
      "率": 748,
      "玩": 749,
      "环": 750,
      "现": 751,
      "球": 752,
      "理": 753,
      "生": 754,
      "用": 755,
      "由": 756,
      "电": 757,
      "画": 758,
      "界": 759,
      "略": 760,
      "疗": 761,
      "病": 762,
      "白": 763,
      "的": 764,
      "皮": 765,
      "益": 766,
      "盐": 767,
      "目": 768,
      "直": 769,
      "相": 770,
      "看": 771,
      "真": 772,
      "着": 773,
      "知": 774,
      "短": 775,
      "石": 776,
      "码": 777,
      "研": 778,
      "础": 779,
      "确": 780,
      "示": 781,
      "礼": 782,
      "社": 783,
      "神": 784,
      "福": 785,
      "离": 786,
      "种": 787,
      "科": 788,
      "积": 789,
      "称": 790,
      "程": 791,
      "稳": 792,
      "究": 793,
      "空": 794,
      "立": 795,
      "站": 796,
      "章": 797,
      "符": 798,
      "第": 799,
      "等": 800,
      "筑": 801,
      "答": 802,
      "策": 803,
      "简": 804,
      "算": 805,
      "管": 806,
      "篇": 807,
      "米": 808,
      "类": 809,
      "粉": 810,
      "精": 811,
      "糖": 812,
      "系": 813,
      "素": 814,
      "索": 815,
      "红": 816,
      "约": 817,
      "级": 818,
      "线": 819,
      "练": 820,
      "组": 821,
      "细": 822,
      "终": 823,
      "绍": 824,
      "经": 825,
      "结": 826,
      "给": 827,
      "络": 828,
      "统": 829,
      "续": 830,
      "维": 831,
      "绿": 832,
      "编": 833,
      "缺": 834,
      "网": 835,
      "置": 836,
      "美": 837,
      "翻": 838,
      "老": 839,
      "考": 840,
      "者": 841,
      "而": 842,
      "职": 843,
      "联": 844,
      "肉": 845,
      "育": 846,
      "背": 847,
      "能": 848,
      "自": 849,
      "至": 850,
      "致": 851,
      "舒": 852,
      "舞": 853,
      "良": 854,
      "色": 855,
      "艺": 856,
      "节": 857,
      "花": 858,
      "英": 859,
      "范": 860,
      "草": 861,
      "获": 862,
      "菜": 863,
      "营": 864,
      "落": 865,
      "虑": 866,
      "蛋": 867,
      "行": 868,
      "衡": 869,
      "表": 870,
      "被": 871,
      "装": 872,
      "西": 873,
      "要": 874,
      "见": 875,
      "观": 876,
      "规": 877,
      "视": 878,
      "觉": 879,
      "角": 880,
      "解": 881,
      "言": 882,
      "计": 883,
      "认": 884,
      "讨": 885,
      "让": 886,
      "训": 887,
      "议": 888,
      "记": 889,
      "讲": 890,
      "许": 891,
      "论": 892,
      "设": 893,
      "证": 894,
      "评": 895,
      "识": 896,
      "诉": 897,
      "词": 898,
      "试": 899,
      "话": 900,
      "该": 901,
      "详": 902,
      "语": 903,
      "误": 904,
      "说": 905,
      "请": 906,
      "读": 907,
      "调": 908,
      "谢": 909,
      "象": 910,
      "负": 911,
      "财": 912,
      "责": 913,
      "质": 914,
      "购": 915,
      "费": 916,
      "资": 917,
      "赛": 918,
      "起": 919,
      "超": 920,
      "越": 921,
      "趣": 922,
      "足": 923,
      "路": 924,
      "身": 925,
      "车": 926,
      "转": 927,
      "软": 928,
      "轻": 929,
      "较": 930,
      "输": 931,
      "边": 932,
      "达": 933,
      "过": 934,
      "运": 935,
      "近": 936,
      "还": 937,
      "这": 938,
      "进": 939,
      "远": 940,
      "述": 941,
      "追": 942,
      "适": 943,
      "选": 944,
      "通": 945,
      "速": 946,
      "造": 947,
      "道": 948,
      "避": 949,
      "那": 950,
      "部": 951,
      "都": 952,
      "配": 953,
      "酒": 954,
      "采": 955,
      "释": 956,
      "里": 957,
      "重": 958,
      "量": 959,
      "金": 960,
      "钟": 961,
      "销": 962,
      "错": 963,
      "键": 964,
      "长": 965,
      "门": 966,
      "问": 967,
      "间": 968,
      "队": 969,
      "防": 970,
      "阳": 971,
      "际": 972,
      "降": 973,
      "限": 974,
      "除": 975,
      "险": 976,
      "随": 977,
      "难": 978,
      "集": 979,
      "需": 980,
      "非": 981,
      "面": 982,
      "音": 983,
      "项": 984,
      "预": 985,
      "领": 986,
      "题": 987,
      "颜": 988,
      "额": 989,
      "风": 990,
      "食": 991,
      "餐": 992,
      "饮": 993,
      "饰": 994,
      "首": 995,
      "香": 996,
      "验": 997,
      "骤": 998,
      "高": 999,
      "鱼": 1000,
      "鲜": 1001,
      "鸡": 1002,
      "黄": 1003,
      "黑": 1004,
      "▁t": 1005,
      "▁a": 1006,
      "in": 1007,
      "he": 1008,
      "re": 1009,
      "on": 1010,
      "at": 1011,
      "▁s": 1012,
      "▁c": 1013,
      "nd": 1014,
      "er": 1015,
      "▁the": 1016,
      "es": 1017,
      "en": 1018,
      "or": 1019,
      "an": 1020,
      "▁and": 1021,
      "▁p": 1022,
      "ing": 1023,
      "it": 1024,
      "al": 1025,
      "▁o": 1026,
      "▁w": 1027,
      "▁to": 1028,
      "is": 1029,
      "ou": 1030,
      "▁m": 1031,
      "▁in": 1032,
      "▁f": 1033,
      "▁b": 1034,
      "ed": 1035,
      "ion": 1036,
      "ic": 1037,
      "▁d": 1038,
      "▁of": 1039,
      "le": 1040,
      "ar": 1041,
      "ro": 1042,
      "ent": 1043,
      "▁e": 1044,
      "ve": 1045,
      "us": 1046,
      "▁re": 1047,
      "▁h": 1048,
      "▁th": 1049,
      "as": 1050,
      "ct": 1051,
      "om": 1052,
      "im": 1053,
      "ation": 1054,
      "lo": 1055,
      "\n\n": 1056,
      "。\n": 1057,
      "▁be": 1058,
      "id": 1059,
      "▁can": 1060,
      "il": 1061,
      "▁A": 1062,
      "▁T": 1063,
      "▁that": 1064,
      "ch": 1065,
      "▁y": 1066,
      "ce": 1067,
      "ot": 1068,
      "ers": 1069,
      "▁n": 1070,
      "ra": 1071,
      "▁g": 1072,
      "▁you": 1073,
      "▁pro": 1074,
      "et": 1075,
      "ly": 1076,
      "▁is": 1077,
      "▁l": 1078,
      "ur": 1079,
      "▁for": 1080,
      ".\n\n": 1081,
      "st": 1082,
      "▁I": 1083,
      "ut": 1084,
      "▁he": 1085,
      "if": 1086,
      "ir": 1087,
      "ith": 1088,
      "▁are": 1089,
      "ig": 1090,
      "▁st": 1091,
      "el": 1092,
      "ol": 1093,
      "ul": 1094,
      "s,": 1095,
      "▁on": 1096,
      "▁us": 1097,
      "ay": 1098,
      "ow": 1099,
      "ment": 1100,
      "▁ex": 1101,
      "ess": 1102,
      "▁con": 1103,
      "se": 1104,
      "▁an": 1105,
      "▁with": 1106,
      "ate": 1107,
      "iv": 1108,
      "am": 1109,
      "▁as": 1110,
      "ure": 1111,
      "▁or": 1112,
      "▁al": 1113,
      "ies": 1114,
      "▁im": 1115,
      "ver": 1116,
      "ab": 1117,
      "▁su": 1118,
      "▁de": 1119,
      "ge": 1120,
      "th": 1121,
      "可以": 1122,
      "▁C": 1123,
      "▁AI": 1124,
      "▁en": 1125,
      "ak": 1126,
      "ive": 1127,
      "▁mo": 1128,
      "ity": 1129,
      "un": 1130,
      "▁it": 1131,
      "▁imp": 1132,
      "ect": 1133,
      "ort": 1134,
      "ad": 1135,
      "s.": 1136,
      "em": 1137,
      "▁S": 1138,
      "▁com": 1139,
      "▁The": 1140,
      "her": 1141,
      "ere": 1142,
      "ial": 1143,
      "pp": 1144,
      "qu": 1145,
      "▁wh": 1146,
      "ant": 1147,
      "▁le": 1148,
      "▁v": 1149,
      "ust": 1150,
      "ld": 1151,
      "ter": 1152,
      "▁ch": 1153,
      "ud": 1154,
      "▁|": 1155,
      "ac": 1156,
      "ain": 1157,
      "iz": 1158,
      "▁H": 1159,
      "▁ha": 1160,
      "--": 1161,
      "ome": 1162,
      "'s": 1163,
      "▁ne": 1164,
      "est": 1165,
      "um": 1166,
      "ist": 1167,
      "一个": 1168,
      "lp": 1169,
      "▁help": 1170,
      "▁their": 1171,
      ":\n": 1172,
      "▁Th": 1173,
      "我们": 1174,
      "nt": 1175,
      "pe": 1176,
      "ide": 1177,
      "▁M": 1178,
      "are": 1179,
      "ff": 1180,
      "od": 1181,
      "ical": 1182,
      "▁wor": 1183,
      "res": 1184,
      "▁your": 1185,
      "1.": 1186,
      "▁te": 1187,
      "du": 1188,
      "2.": 1189,
      "▁ad": 1190,
      "ill": 1191,
      "oc": 1192,
      "act": 1193,
      "需要": 1194,
      "▁r": 1195,
      "▁more": 1196,
      "igh": 1197,
      "▁B": 1198,
      "3.": 1199,
      "▁inc": 1200,
      "ple": 1201,
      "es,": 1202,
      "▁exp": 1203,
      "ould": 1204,
      "▁P": 1205,
      "pt": 1206,
      "all": 1207,
      "▁se": 1208,
      "out": 1209,
      "▁have": 1210,
      "▁This": 1211,
      "▁prov": 1212,
      "▁used": 1213,
      "ions": 1214,
      "cc": 1215,
      "▁sh": 1216,
      "▁ab": 1217,
      "▁W": 1218,
      "▁res": 1219,
      "age": 1220,
      "ri": 1221,
      "os": 1222,
      "able": 1223,
      "▁by": 1224,
      "▁lo": 1225,
      "and": 1226,
      "for": 1227,
      "rom": 1228,
      "reat": 1229,
      "▁pl": 1230,
      "ations": 1231,
      "4.": 1232,
      "▁we": 1233,
      "ake": 1234,
      "▁me": 1235,
      "ther": 1236,
      "ke": 1237,
      "▁E": 1238,
      "▁some": 1239,
      "ine": 1240,
      "our": 1241,
      "▁D": 1242,
      "rou": 1243,
      "ans": 1244,
      "▁int": 1245,
      "ance": 1246,
      "ag": 1247,
      "00": 1248,
      "ult": 1249,
      "yst": 1250,
      "▁F": 1251,
      "▁tr": 1252,
      "pl": 1253,
      "art": 1254,
      "ata": 1255,
      "form": 1256,
      "▁from": 1257,
      "ight": 1258,
      "lop": 1259,
      "▁R": 1260,
      "▁fe": 1261,
      "velop": 1262,
      "▁u": 1263,
      "ystem": 1264,
      "▁dis": 1265,
      "gy": 1266,
      "ence": 1267,
      "▁tra": 1268,
      "ign": 1269,
      "alth": 1270,
      "▁such": 1271,
      "ach": 1272,
      "arn": 1273,
      "▁data": 1274,
      "so": 1275,
      "▁develop": 1276,
      "▁acc": 1277,
      "▁work": 1278,
      "ast": 1279,
      "▁\"": 1280,
      "▁other": 1281,
      ",并": 1282,
      "▁eff": 1283,
      "ces": 1284,
      "▁man": 1285,
      "5.": 1286,
      "ific": 1287,
      "▁j": 1288,
      "▁ro": 1289,
      "▁has": 1290,
      "chn": 1291,
      "olo": 1292,
      "使用": 1293,
      "ual": 1294,
      "▁at": 1295,
      "▁em": 1296,
      "ell": 1297,
      "▁system": 1298,
      "▁health": 1299,
      "ities": 1300,
      "▁exam": 1301,
      "▁1": 1302,
      "ib": 1303,
      "▁about": 1304,
      "ition": 1305,
      "▁pre": 1306,
      "▁also": 1307,
      "▁ind": 1308,
      "ous": 1309,
      "ind": 1310,
      "▁techn": 1311,
      "ient": 1312,
      "问题": 1313,
      "▁use": 1314,
      "▁incl": 1315,
      "▁spe": 1316,
      "ich": 1317,
      "▁they": 1318,
      "ie": 1319,
      "▁how": 1320,
      "▁impro": 1321,
      "▁learn": 1322,
      "▁cont": 1323,
      "ip": 1324,
      "ard": 1325,
      "gh": 1326,
      "__": 1327,
      "▁not": 1328,
      "▁provide": 1329,
      "▁ens": 1330,
      "ress": 1331,
      "ential": 1332,
      ":\n\n": 1333,
      "ack": 1334,
      "ang": 1335,
      "ms": 1336,
      "▁G": 1337,
      "end": 1338,
      "▁po": 1339,
      "进行": 1340,
      "▁-": 1341,
      "ice": 1342,
      "▁way": 1343,
      "ime": 1344,
      "自己": 1345,
      "▁un": 1346,
      "bot": 1347,
      "▁includ": 1348,
      "ated": 1349,
      "▁L": 1350,
      "pport": 1351,
      "ood": 1352,
      "ike": 1353,
      "ru": 1354,
      "▁comm": 1355,
      "▁was": 1356,
      "low": 1357,
      "ore": 1358,
      "erv": 1359,
      "▁whe": 1360,
      "▁which": 1361,
      "▁comp": 1362,
      "▁=": 1363,
      "iff": 1364,
      "ert": 1365,
      "▁rec": 1366,
      "▁pat": 1367,
      "----": 1368,
      "▁app": 1369,
      "y,": 1370,
      "ace": 1371,
      "aly": 1372,
      "rit": 1373,
      "av": 1374,
      "▁N": 1375,
      "▁pers": 1376,
      "▁my": 1377,
      "eri": 1378,
      "ok": 1379,
      ",以": 1380,
      "▁diff": 1381,
      "▁this": 1382,
      "▁ensure": 1383,
      "▁(": 1384,
      "▁out": 1385,
      "▁cl": 1386,
      "▁k": 1387,
      "▁It": 1388,
      "es.": 1389,
      "ount": 1390,
      "▁technolo": 1391,
      "▁add": 1392,
      "▁these": 1393,
      "ful": 1394,
      "▁Y": 1395,
      "ction": 1396,
      "ep": 1397,
      "一些": 1398,
      "▁soc": 1399,
      "▁2": 1400,
      "▁ev": 1401,
      "▁redu": 1402,
      "▁them": 1403,
      "通过": 1404,
      "▁O": 1405,
      "▁co": 1406,
      "▁analy": 1407,
      "▁improve": 1408,
      "ing,": 1409,
      "中,": 1410,
      "▁qu": 1411,
      "▁hum": 1412,
      "ility": 1413,
      "ail": 1414,
      "这个": 1415,
      "提供": 1416,
      "ase": 1417,
      "▁pot": 1418,
      ":\n\n1.": 1419,
      "▁any": 1420,
      "▁cons": 1421,
      "s.\n\n": 1422,
      "▁ar": 1423,
      "▁do": 1424,
      "▁may": 1425,
      "ident": 1426,
      "选择": 1427,
      "ue": 1428,
      "▁like": 1429,
      "ong": 1430,
      "``": 1431,
      "ile": 1432,
      "▁new": 1433,
      "▁impact": 1434,
      "ap": 1435,
      "ef": 1436,
      "▁potential": 1437,
      "ns": 1438,
      "可能": 1439,
      "▁trans": 1440,
      "▁spec": 1441,
      "▁will": 1442,
      "好的": 1443,
      "ize": 1444,
      "▁stud": 1445,
      ")\n": 1446,
      "不同": 1447,
      "one": 1448,
      "如果": 1449,
      ".\n": 1450,
      "ange": 1451,
      "▁resp": 1452,
      "▁need": 1453,
      "ater": 1454,
      "▁person": 1455,
      "▁so": 1456,
      "▁make": 1457,
      "ire": 1458,
      "。\n2.": 1459,
      "▁inform": 1460,
      "ased": 1461,
      "ild": 1462,
      "▁off": 1463,
      "▁there": 1464,
      "cis": 1465,
      "▁In": 1466,
      "aking": 1467,
      "▁Can": 1468,
      "▁des": 1469,
      "iet": 1470,
      "▁pe": 1471,
      "▁who": 1472,
      "ify": 1473,
      "ark": 1474,
      "▁experi": 1475,
      "时,": 1476,
      "▁sc": 1477,
      "▁time": 1478,
      "非常": 1479,
      "。\n3.": 1480,
      "▁commun": 1481,
      "▁sp": 1482,
      "▁could": 1483,
      "ry": 1484,
      "lic": 1485,
      "▁its": 1486,
      "▁med": 1487,
      "▁col": 1488,
      "ass": 1489,
      "ular": 1490,
      "重要": 1491,
      ",这": 1492,
      "ract": 1493,
      "▁provid": 1494,
      "▁import": 1495,
      "ural": 1496,
      "ly,": 1497,
      "▁und": 1498,
      "int": 1499,
      "▁over": 1500,
      "他们": 1501,
      "gra": 1502,
      "cess": 1503,
      "ors": 1504,
      "now": 1505,
      "▁learning": 1506,
      "▁pr": 1507,
      "是一": 1508,
      "包括": 1509,
      "ck": 1510,
      ":\n1.": 1511,
      "▁ident": 1512,
      "uring": 1513,
      "自己的": 1514,
      "bots": 1515,
      "gor": 1516,
      "▁support": 1517,
      "ne": 1518,
      "▁differe": 1519,
      "ons": 1520,
      "▁ass": 1521,
      "▁go": 1522,
      "▁technology": 1523,
      "▁inter": 1524,
      "▁inv": 1525,
      "▁our": 1526,
      "▁systems": 1527,
      "数据": 1528,
      "ustom": 1529,
      "▁rel": 1530,
      "ife": 1531,
      "▁part": 1532,
      "。这": 1533,
      "以下": 1534,
      "中的": 1535,
      "▁up": 1536,
      "ative": 1537,
      "帮助": 1538,
      "▁Here": 1539,
      "ples": 1540,
      "▁but": 1541,
      "公司": 1542,
      "▁act": 1543,
      "▁am": 1544,
      "gorith": 1545,
      ",可以": 1546,
      "▁How": 1547,
      "\n-": 1548,
      "▁per": 1549,
      "▁effect": 1550,
      "▁produ": 1551,
      "▁should": 1552,
      ",我们": 1553,
      "ict": 1554,
      "▁algorith": 1555,
      "rough": 1556,
      "▁bet": 1557,
      "ating": 1558,
      "ia": 1559,
      "▁analyz": 1560,
      "根据": 1561,
      "ized": 1562,
      "The": 1563,
      "▁human": 1564,
      "▁custom": 1565,
      "iron": 1566,
      "▁reg": 1567,
      "▁personal": 1568,
      "能够": 1569,
      "ivid": 1570,
      "gan": 1571,
      "▁U": 1572,
      "▁all": 1573,
      "ame": 1574,
      "ks": 1575,
      "?\n": 1576,
      "cy": 1577,
      "elf": 1578,
      ",但": 1579,
      "thical": 1580,
      "viron": 1581,
      "vironment": 1582,
      "\n|": 1583,
      "ord": 1584,
      "▁sign": 1585,
      "ound": 1586,
      "ople": 1587,
      "▁information": 1588,
      "▁identify": 1589,
      "▁cre": 1590,
      "ible": 1591,
      "ub": 1592,
      "ents": 1593,
      "▁lead": 1594,
      "get": 1595,
      "▁example": 1596,
      "影响": 1597,
      "ish": 1598,
      "xt": 1599,
      "ob": 1600,
      "时间": 1601,
      "dition": 1602,
      "ividual": 1603,
      "ered": 1604,
      "ary": 1605,
      "▁environment": 1606,
      "ens": 1607,
      "▁people": 1608,
      "▁det": 1609,
      "▁if": 1610,
      "ite": 1611,
      "ose": 1612,
      "▁J": 1613,
      "cation": 1614,
      "方式": 1615,
      "ature": 1616,
      "ory": 1617,
      "▁into": 1618,
      ".\n\n2.": 1619,
      "提高": 1620,
      "ments": 1621,
      "环境": 1622,
      ".\n\n3.": 1623,
      "erst": 1624,
      "▁ethical": 1625,
      "ious": 1626,
      "6.": 1627,
      "▁different": 1628,
      "▁know": 1629,
      "▁individual": 1630,
      "round": 1631,
      "。\n4.": 1632,
      "▁examples": 1633,
      ",我": 1634,
      "omm": 1635,
      "▁many": 1636,
      "它们": 1637,
      "▁ment": 1638,
      "▁opt": 1639,
      "▁important": 1640,
      "▁|\n|": 1641,
      "ph": 1642,
      "▁patient": 1643,
      "ness": 1644,
      "设计": 1645,
      "▁social": 1646,
      "▁\n": 1647,
      "例如": 1648,
      ".\n\n4.": 1649,
      "▁aut": 1650,
      "▁serv": 1651,
      "gg": 1652,
      "产品": 1653,
      "its": 1654,
      "vel": 1655,
      "方法": 1656,
      "▁ben": 1657,
      "因此": 1658,
      "care": 1659,
      "very": 1660,
      "per": 1661,
      "建议": 1662,
      "▁pos": 1663,
      "we": 1664,
      "iqu": 1665,
      "▁real": 1666,
      "▁reduce": 1667,
      "af": 1668,
      "angu": 1669,
      "▁sk": 1670,
      "▁ed": 1671,
      "erstand": 1672,
      "mot": 1673,
      "应该": 1674,
      "▁through": 1675,
      "。在": 1676,
      "▁conc": 1677,
      "发展": 1678,
      "▁Wh": 1679,
      "▁adv": 1680,
      "技术": 1681,
      "▁benef": 1682,
      "▁development": 1683,
      "-p": 1684,
      "eng": 1685,
      "iety": 1686,
      "如何": 1687,
      "ional": 1688,
      "ivers": 1689,
      "▁ris": 1690,
      "row": 1691,
      "ergy": 1692,
      "计算": 1693,
      "信息": 1694,
      "▁algorithms": 1695,
      "▁process": 1696,
      "ices": 1697,
      "其他": 1698,
      "▁great": 1699,
      "ear": 1700,
      "ject": 1701,
      "all,": 1702,
      "lect": 1703,
      "生活": 1704,
      "▁understand": 1705,
      "▁progra": 1706,
      "anc": 1707,
      "▁writ": 1708,
      "▁including": 1709,
      "ric": 1710,
      "og": 1711,
      ";\n": 1712,
      "▁art": 1713,
      "▁ph": 1714,
      "▁incre": 1715,
      "方面": 1716,
      "▁pract": 1717,
      "▁using": 1718,
      "▁access": 1719,
      "▁langu": 1720,
      "▁chall": 1721,
      "ond": 1722,
      "____": 1723,
      "imate": 1724,
      "ll": 1725,
      "▁well": 1726,
      "▁pol": 1727,
      "▁ra": 1728,
      "ines": 1729,
      "▁var": 1730,
      "ber": 1731,
      "▁For": 1732,
      "▁gen": 1733,
      "hip": 1734,
      "▁gu": 1735,
      "te": 1736,
      "▁signific": 1737,
      "▁decis": 1738,
      "▁ag": 1739,
      "▁train": 1740,
      "arm": 1741,
      "▁creat": 1742,
      "▁one": 1743,
      "ings": 1744,
      "学习": 1745,
      "更加": 1746,
      "▁when": 1747,
      "▁bi": 1748,
      "工作": 1749,
      "port": 1750,
      "▁been": 1751,
      "▁life": 1752,
      "用户": 1753,
      "com": 1754,
      "ing.": 1755,
      "▁mod": 1756,
      "ources": 1757,
      "▁organ": 1758,
      "什么": 1759,
      "ink": 1760,
      "▁energy": 1761,
      "ertain": 1762,
      "mm": 1763,
      "s:": 1764,
      "verall,": 1765,
      "▁loc": 1766,
      "▁requ": 1767,
      "▁ess": 1768,
      "ving": 1769,
      "ustain": 1770,
      "▁disc": 1771,
      "ability": 1772,
      "▁edu": 1773,
      "ree": 1774,
      "▁create": 1775,
      "▁str": 1776,
      "健康": 1777,
      "▁design": 1778,
      "ation,": 1779,
      "▁V": 1780,
      "▁By": 1781,
      "iness": 1782,
      ",而": 1783,
      "▁where": 1784,
      "了解": 1785,
      ".\n\n5.": 1786,
      "'t": 1787,
      "是一个": 1788,
      "ion,": 1789,
      "▁being": 1790,
      "arch": 1791,
      "ditional": 1792,
      "les": 1793,
      "▁example,": 1794,
      "▁St": 1795,
      "▁while": 1796,
      "▁significant": 1797,
      "itive": 1798,
      "▁language": 1799,
      "▁analyze": 1800,
      "▁Ch": 1801,
      "个人": 1802,
      "20": 1803,
      "rib": 1804,
      "▁healthcare": 1805,
      "▁experience": 1806,
      "ook": 1807,
      "plo": 1808,
      "▁I'": 1809,
      "▁would": 1810,
      "ver,": 1811,
      "保持": 1812,
      "▁mental": 1813,
      "▁few": 1814,
      "ues": 1815,
      "过程": 1816,
      "安全": 1817,
      "▁sustain": 1818,
      "情况": 1819,
      "▁were": 1820,
      "red": 1821,
      "▁specific": 1822,
      "▁world": 1823,
      "▁3": 1824,
      "```": 1825,
      "▁take": 1826,
      "SS": 1827,
      "▁robots": 1828,
      "▁mus": 1829,
      "服务": 1830,
      "ten": 1831,
      "▁ec": 1832,
      "智能": 1833,
      "▁As": 1834,
      "vent": 1835,
      "▁prot": 1836,
      "10": 1837,
      "▁high": 1838,
      ",在": 1839,
      "▁bus": 1840,
      "▁indust": 1841,
      "人们": 1842,
      "ade": 1843,
      "▁had": 1844,
      "▁her": 1845,
      "▁just": 1846,
      "▁water": 1847,
      "▁food": 1848,
      "游戏": 1849,
      "aus": 1850,
      "▁challeng": 1851,
      "文化": 1852,
      ".\n\nO": 1853,
      "▁most": 1854,
      "onom": 1855,
      "▁sm": 1856,
      "▁activ": 1857,
      "▁bu": 1858,
      "ploy": 1859,
      "的,": 1860,
      "gies": 1861,
      "ers,": 1862,
      "系统": 1863,
      "分析": 1864,
      "olut": 1865,
      "owered": 1866,
      "ommend": 1867,
      "▁comple": 1868,
      "注意": 1869,
      "▁education": 1870,
      "ather": 1871,
      "▁find": 1872,
      "▁These": 1873,
      "atural": 1874,
      "▁his": 1875,
      "之间": 1876,
      "▁effective": 1877,
      "▁att": 1878,
      "▁rese": 1879,
      "能力": 1880,
      "ality": 1881,
      "▁product": 1882,
      "。\n5.": 1883,
      "▁allow": 1884,
      ",如": 1885,
      "▁av": 1886,
      "op": 1887,
      "▁promot": 1888,
      "iew": 1889,
      "come": 1890,
      "▁respons": 1891,
      "▁cult": 1892,
      "▁recommend": 1893,
      "OSS": 1894,
      "cing": 1895,
      "▁change": 1896,
      "▁what": 1897,
      "不同的": 1898,
      "ved": 1899,
      ",让": 1900,
      "In": 1901,
      "解决": 1902,
      "▁feel": 1903,
      "▁care": 1904,
      "-powered": 1905,
      "活动": 1906,
      "▁see": 1907,
      "▁sur": 1908,
      "这些": 1909,
      "▁play": 1910,
      "▁vis": 1911,
      "确保": 1912,
      "实现": 1913,
      ",包括": 1914,
      "应用": 1915,
      "▁compan": 1916,
      "▁invol": 1917,
      "▁customer": 1918,
      "因为": 1919,
      "▁ins": 1920,
      "wn": 1921,
      "way": 1922,
      "自然": 1923,
      "社会": 1924,
      "old": 1925,
      "你的": 1926,
      "▁address": 1927,
      "ting": 1928,
      "ren": 1929,
      "▁treat": 1930,
      "ever,": 1931,
      "对于": 1932,
      "▁AI-powered": 1933,
      "▁K": 1934,
      "ider": 1935,
      "▁ke": 1936,
      "▁skill": 1937,
      "▁pop": 1938,
      "ics": 1939,
      "pare": 1940,
      "▁eng": 1941,
      "▁MOSS": 1942,
      "ost": 1943,
      "▁pred": 1944,
      "ences": 1945,
      "▁emot": 1946,
      "▁ac": 1947,
      "▁mon": 1948,
      "▁Yes,": 1949,
      "fore": 1950,
      "▁val": 1951,
      "▁ways": 1952,
      "als": 1953,
      "▁iss": 1954,
      "bs": 1955,
      "ween": 1956,
      "▁include": 1957,
      "▁protect": 1958,
      "关系": 1959,
      "▁They": 1960,
      "▁sever": 1961,
      "▁effic": 1962,
      "ick": 1963,
      "▁than": 1964,
      "需求": 1965,
      "▁job": 1966,
      "-t": 1967,
      "▁between": 1968,
      "▁mach": 1969,
      "--------": 1970,
      "考虑": 1971,
      "质量": 1972,
      "wor": 1973,
      "我们的": 1974,
      "eg": 1975,
      "iss": 1976,
      "▁individuals": 1977,
      "ner": 1978,
      "ward": 1979,
      "apt": 1980,
      "没有": 1981,
      "▁appro": 1982,
      "家庭": 1983,
      "▁providing": 1984,
      "▁assist": 1985,
      "▁natural": 1986,
      "▁saf": 1987,
      "具有": 1988,
      "同时": 1989,
      "▁perform": 1990,
      "eth": 1991,
      "ower": 1992,
      "lement": 1993,
      "▁several": 1994,
      "▁business": 1995,
      "▁each": 1996,
      "▁ty": 1997,
      "▁pub": 1998,
      "ives": 1999,
      "ocus": 2000,
      "ft": 2001,
      "语言": 2002,
      "▁areas": 2003,
      "riend": 2004,
      "▁partic": 2005,
      "市场": 2006,
      "管理": 2007,
      "ants": 2008,
      "人类": 2009,
      "身体": 2010,
      "ique": 2011,
      "agement": 2012,
      "ian": 2013,
      "、、": 2014,
      "line": 2015,
      "后,": 2016,
      "▁patter": 2017,
      "000": 2018,
      "oy": 2019,
      "内容": 2020,
      "人的": 2021,
      "▁organiz": 2022,
      "ough": 2023,
      "▁ve": 2024,
      "孩子": 2025,
      "▁sec": 2026,
      "▁5": 2027,
      "ily": 2028,
      "ates": 2029,
      "▁aff": 2030,
      "▁num": 2031,
      "的。": 2032,
      "▁car": 2033,
      "abor": 2034,
      "是一种": 2035,
      "▁inst": 2036,
      "之一": 2037,
      "urn": 2038,
      "-b": 2039,
      "7.": 2040,
      "更多": 2041,
      "▁main": 2042,
      "程序": 2043,
      "itor": 2044,
      "音乐": 2045,
      "▁offer": 2046,
      "▁plan": 2047,
      "▁Ad": 2048,
      "外,": 2049,
      "▁during": 2050,
      "代码": 2051,
      "▁guid": 2052,
      "主要": 2053,
      "▁fam": 2054,
      "▁benefits": 2055,
      "通常": 2056,
      "处理": 2057,
      "ss": 2058,
      "ware": 2059,
      "▁tool": 2060,
      "文本": 2061,
      ".\n\nOverall,": 2062,
      "ced": 2063,
      "的人": 2064,
      "目标": 2065,
      "▁every": 2066,
      "城市": 2067,
      "ries": 2068,
      "。\n总": 2069,
      "适合": 2070,
      "oth": 2071,
      "一种": 2072,
      "▁made": 2073,
      "▁rem": 2074,
      "ise": 2075,
      "等。": 2076,
      "▁gener": 2077,
      "air": 2078,
      "▁expl": 2079,
      "材料": 2080,
      "▁predict": 2081,
      "情感": 2082,
      "▁set": 2083,
      "▁climate": 2084,
      "▁focus": 2085,
      "▁grow": 2086,
      "ing:": 2087,
      "客户": 2088,
      "不断": 2089,
      "ruct": 2090,
      "▁En": 2091,
      "▁students": 2092,
      "是否": 2093,
      "ation.": 2094,
      ",也": 2095,
      "uture": 2096,
      "yth": 2097,
      "▁own": 2098,
      "▁[": 2099,
      "ggest": 2100,
      "▁tas": 2101,
      "hes": 2102,
      "▁model": 2103,
      "▁making": 2104,
      "▁research": 2105,
      "▁it's": 2106,
      "大的": 2107,
      "put": 2108,
      "erest": 2109,
      "iel": 2110,
      "own": 2111,
      "▁You": 2112,
      "成为": 2113,
      "▁communic": 2114,
      "▁che": 2115,
      "▁rest": 2116,
      "back": 2117,
      "▁local": 2118,
      "▁get": 2119,
      ",它": 2120,
      "ency": 2121,
      "▁He": 2122,
      "▁fin": 2123,
      "ys": 2124,
      "ves": 2125,
      "制作": 2126,
      "▁suggest": 2127,
      "增加": 2128,
      "▁media": 2129,
      "ribut": 2130,
      "▁resources": 2131,
      "加入": 2132,
      "▁cle": 2133,
      "▁think": 2134,
      "▁risk": 2135,
      ",\n": 2136,
      "pportun": 2137,
      "ational": 2138,
      "▁even": 2139,
      "ccess": 2140,
      "ax": 2141,
      "▁future": 2142,
      "▁contin": 2143,
      "▁prof": 2144,
      "▁concer": 2145,
      "或者": 2146,
      "存在": 2147,
      "▁ref": 2148,
      "ci": 2149,
      "▁self": 2150,
      "ym": 2151,
      "运动": 2152,
      "ble": 2153,
      "▁inf": 2154,
      "▁sustainable": 2155,
      "▁text": 2156,
      "ield": 2157,
      "▁gra": 2158,
      "品牌": 2159,
      "led": 2160,
      "▁opportun": 2161,
      "▁+": 2162,
      "pr": 2163,
      "▁However,": 2164,
      "避免": 2165,
      "新的": 2166,
      "▁ret": 2167,
      "▁interest": 2168,
      "结果": 2169,
      ",例如": 2170,
      "首先": 2171,
      "▁20": 2172,
      "▁bre": 2173,
      "▁'": 2174,
      "更好": 2175,
      "开始": 2176,
      "描述": 2177,
      "resent": 2178,
      "▁build": 2179,
      "▁beh": 2180,
      "▁good": 2181,
      "理解": 2182,
      "功能": 2183,
      "labor": 2184,
      "▁effort": 2185,
      "hed": 2186,
      "▁What": 2187,
      "支持": 2188,
      "ec": 2189,
      "▁read": 2190,
      "▁better": 2191,
      "▁day": 2192,
      "导致": 2193,
      "▁implement": 2194,
      "y.": 2195,
      "▁rev": 2196,
      "```\n": 2197,
      "ense": 2198,
      ",从": 2199,
      "▁long": 2200,
      "ure,": 2201,
      "arket": 2202,
      "other": 2203,
      "pect": 2204,
      "一份": 2205,
      "ures": 2206,
      "ython": 2207,
      "您的": 2208,
      "减少": 2209,
      "ited": 2210,
      "roup": 2211,
      "各种": 2212,
      "▁music": 2213,
      "▁public": 2214,
      "▁lar": 2215,
      "aut": 2216,
      "领域": 2217,
      "ollow": 2218,
      "定的": 2219,
      "▁chang": 2220,
      "▁best": 2221,
      "保护": 2222,
      "▁chat": 2223,
      "。如果": 2224,
      "▁power": 2225,
      "计划": 2226,
      "变化": 2227,
      "ases": 2228,
      "ilities": 2229,
      "▁consider": 2230,
      "ers.": 2231,
      "那么": 2232,
      "植物": 2233,
      "▁ide": 2234,
      "▁based": 2235,
      "每个": 2236,
      "ity,": 2237,
      "▁range": 2238,
      "所有": 2239,
      "▁result": 2240,
      "▁mem": 2241,
      "▁level": 2242,
      "▁br": 2243,
      "建立": 2244,
      "▁unique": 2245,
      "许多": 2246,
      "行为": 2247,
      "研究": 2248,
      "▁hist": 2249,
      "▁around": 2250,
      "▁enc": 2251,
      "步骤": 2252,
      "▁sim": 2253,
      "nect": 2254,
      "▁back": 2255,
      "回答": 2256,
      "ation:": 2257,
      "到了": 2258,
      "方案": 2259,
      "世界": 2260,
      "更好地": 2261,
      "▁employ": 2262,
      "两个": 2263,
      "▁decision": 2264,
      "▁those": 2265,
      "vers": 2266,
      "▁fact": 2267,
      "oura": 2268,
      "er,": 2269,
      "▁word": 2270,
      "▁在": 2271,
      "文章": 2272,
      "▁prevent": 2273,
      "▁It's": 2274,
      "▁no": 2275,
      "▁del": 2276,
      "▁optim": 2277,
      "▁4": 2278,
      "ly.": 2279,
      "▁account": 2280,
      "▁I'm": 2281,
      "ath": 2282,
      "▁divers": 2283,
      "vern": 2284,
      "e,": 2285,
      "企业": 2286,
      "地球": 2287,
      "▁try": 2288,
      "▁form": 2289,
      "▁group": 2290,
      "▁personalized": 2291,
      ",同时": 2292,
      "重要的": 2293,
      "▁dr": 2294,
      "表达": 2295,
      "▁follow": 2296,
      "产生": 2297,
      "▁ear": 2298,
      "▁di": 2299,
      "king": 2300,
      "ism": 2301,
      "acy": 2302,
      "▁book": 2303,
      "▁success": 2304,
      "▁treatment": 2305,
      ",其": 2306,
      "▁require": 2307,
      "ogn": 2308,
      "▁environmental": 2309,
      ",不": 2310,
      "ed,": 2311,
      "▁interact": 2312,
      "团队": 2313,
      "▁rep": 2314,
      "▁Pro": 2315,
      "用于": 2316,
      "▁dist": 2317,
      "认为": 2318,
      "▁sent": 2319,
      "函数": 2320,
      "▁reducing": 2321,
      "▁monitor": 2322,
      "▁caus": 2323,
      "▁society": 2324,
      "▁often": 2325,
      "之间的": 2326,
      "可能会": 2327,
      "员工": 2328,
      "▁hand": 2329,
      "a,": 2330,
      ",需要": 2331,
      "▁activities": 2332,
      "喜欢": 2333,
      "▁pur": 2334,
      "动物": 2335,
      "self": 2336,
      "控制": 2337,
      "▁priv": 2338,
      "az": 2339,
      "▁machine": 2340,
      "上的": 2341,
      "价格": 2342,
      "价值": 2343,
      "一下": 2344,
      "ationship": 2345,
      "▁want": 2346,
      "▁team": 2347,
      "▁market": 2348,
      "▁feed": 2349,
      "▁love": 2350,
      "ption": 2351,
      "关于": 2352,
      "输入": 2353,
      "▁transport": 2354,
      "▁complex": 2355,
      "▁year": 2356,
      "销售": 2357,
      "ience": 2358,
      "ights": 2359,
      "▁feature": 2360,
      "▁\n\n": 2361,
      "▁mind": 2362,
      "▁fun": 2363,
      "▁char": 2364,
      "简单": 2365,
      "▁start": 2366,
      "中国": 2367,
      "▁conf": 2368,
      "avi": 2369,
      "元素": 2370,
      "▁positive": 2371,
      "▁cur": 2372,
      "▁count": 2373,
      ",你": 2374,
      "▁relationship": 2375,
      "▁cost": 2376,
      "akes": 2377,
      "▁equ": 2378,
      "同时,": 2379,
      "▁polic": 2380,
      "iven": 2381,
      "place": 2382,
      "▁0": 2383,
      "chie": 2384,
      "aging": 2385,
      "▁patterns": 2386,
      "▁fl": 2387,
      "cial": 2388,
      "因素": 2389,
      "颜色": 2390,
      "▁medical": 2391,
      "▁autom": 2392,
      "lease": 2393,
      "cl": 2394,
      "▁We": 2395,
      "▁There": 2396,
      "hen": 2397,
      "▁detect": 2398,
      "▁show": 2399,
      "风格": 2400,
      "▁anim": 2401,
      "ave": 2402,
      "XX": 2403,
      "▁min": 2404,
      "未来": 2405,
      "具体": 2406,
      "uch": 2407,
      "艺术": 2408,
      "数字": 2409,
      "icult": 2410,
      "ly!": 2411,
      "iving": 2412,
      "▁challenges": 2413,
      "▁offers": 2414,
      "urity": 2415,
      "▁recogn": 2416,
      "rop": 2417,
      "太阳": 2418,
      "ages": 2419,
      "▁1.": 2420,
      "▁An": 2421,
      "▁Do": 2422,
      "▁ent": 2423,
      "▁before": 2424,
      "已经": 2425,
      "▁become": 2426,
      "表现": 2427,
      "▁explo": 2428,
      "任务": 2429,
      "▁achie": 2430,
      "然后": 2431,
      "▁found": 2432,
      "▁look": 2433,
      "pend": 2434,
      "▁essay": 2435,
      "sis": 2436,
      "-s": 2437,
      "ov": 2438,
      "up": 2439,
      "-m": 2440,
      "erm": 2441,
      "▁difficult": 2442,
      "-f": 2443,
      "▁class": 2444,
      "ations,": 2445,
      "▁quest": 2446,
      "▁transpare": 2447,
      "▁project": 2448,
      "aw": 2449,
      "int(": 2450,
      "分类": 2451,
      "▁cho": 2452,
      "性和": 2453,
      "oid": 2454,
      "▁eas": 2455,
      "▁developed": 2456,
      "▁affect": 2457,
      "▁regul": 2458,
      "agn": 2459,
      "作为": 2460,
      "▁$": 2461,
      "▁writing": 2462,
      "▁friend": 2463,
      "▁detail": 2464,
      "▁traditional": 2465,
      "购买": 2466,
      "确定": 2467,
      "ion.": 2468,
      "体验": 2469,
      "▁connect": 2470,
      "▁both": 2471,
      "ning": 2472,
      "▁sit": 2473,
      "▁designed": 2474,
      "沟通": 2475,
      "joy": 2476,
      "▁addition": 2477,
      "作用": 2478,
      "介绍": 2479,
      "ions,": 2480,
      "▁management": 2481,
      "现在": 2482,
      "▁she": 2483,
      "▁promote": 2484,
      "▁various": 2485,
      "▁op": 2486,
      ".\n\nThe": 2487,
      "▁sens": 2488,
      "abl": 2489,
      "por": 2490,
      "▁essential": 2491,
      ".\n\nIn": 2492,
      "gether": 2493,
      "irst": 2494,
      "irt": 2495,
      "投资": 2496,
      "▁species": 2497,
      "cho": 2498,
      "▁Certain": 2499,
      "▁behavi": 2500,
      "▁ext": 2501,
      "▁quality": 2502,
      "完成": 2503,
      "▁small": 2504,
      "部分": 2505,
      "▁typ": 2506,
      "▁strate": 2507,
      "他们的": 2508,
      "on't": 2509,
      "hor": 2510,
      "▁here": 2511,
      "▁neg": 2512,
      "建筑": 2513,
      "ways": 2514,
      "▁able": 2515,
      "▁sub": 2516,
      "相关": 2517,
      "技巧": 2518,
      "▁service": 2519,
      "reen": 2520,
      "▁step": 2521,
      "带来": 2522,
      "▁child": 2523,
      "解释": 2524,
      "▁particular": 2525,
      "积极": 2526,
      "因此,": 2527,
      "▁Am": 2528,
      "▁profess": 2529,
      "▁ob": 2530,
      "此外,": 2531,
      "▁opportunities": 2532,
      "▁def": 2533,
      "历史": 2534,
      "▁gr": 2535,
      "aur": 2536,
      "▁popular": 2537,
      "▁decisions": 2538,
      ",有": 2539,
      "ips": 2540,
      "▁poem": 2541,
      "8.": 2542,
      "ed.": 2543,
      ",从而": 2544,
      "▁sound": 2545,
      "以上": 2546,
      "-d": 2547,
      "▁community": 2548,
      "'re": 2549,
      "▁skills": 2550,
      "▁role": 2551,
      "科学": 2552,
      "▁field": 2553,
      "▁feedback": 2554,
      "▁cor": 2555,
      "e.": 2556,
      "发现": 2557,
      "▁technologies": 2558,
      "交通": 2559,
      "▁adapt": 2560,
      "▁communities": 2561,
      "现代": 2562,
      "得到": 2563,
      "▁robot": 2564,
      "▁fac": 2565,
      "▁training": 2566,
      "电影": 2567,
      "一起": 2568,
      "▁avail": 2569,
      "eren": 2570,
      "ont": 2571,
      "▁student": 2572,
      "以及": 2573,
      "更多的": 2574,
      "▁poss": 2575,
      "来说": 2576,
      "▁weather": 2577,
      ",并且": 2578,
      "教育": 2579,
      "▁collabor": 2580,
      "oh": 2581,
      "▁请": 2582,
      "成功": 2583,
      "获得": 2584,
      "▁top": 2585,
      "▁Re": 2586,
      "▁tre": 2587,
      "▁industry": 2588,
      "rior": 2589,
      "▁De": 2590,
      "知识": 2591,
      "一篇": 2592,
      "▁end": 2593,
      "▁large": 2594,
      "比较": 2595,
      "的问题": 2596,
      "▁If": 2597,
      "▁tour": 2598,
      "特点": 2599,
      "人工": 2600,
      "▁together": 2601,
      "之,": 2602,
      "ance,": 2603,
      "▁bel": 2604,
      "▁stay": 2605,
      "利用": 2606,
      "有效": 2607,
      "量的": 2608,
      "▁econom": 2609,
      "▁invest": 2610,
      "ee": 2611,
      "出现": 2612,
      "aterial": 2613,
      "▁outcom": 2614,
      "结构": 2615,
      "tern": 2616,
      "ellig": 2617,
      "▁sure": 2618,
      "▁share": 2619,
      "▁beaut": 2620,
      "au": 2621,
      "生成": 2622,
      "read": 2623,
      "▁pass": 2624,
      "▁businesses": 2625,
      "的影响": 2626,
      "正确": 2627,
      "▁dem": 2628,
      "ces,": 2629,
      "▁deep": 2630,
      "类型": 2631,
      "▁give": 2632,
      "关注": 2633,
      "生命": 2634,
      "cept": 2635,
      "传统": 2636,
      ",因为": 2637,
      "ivity": 2638,
      "关键": 2639,
      "▁place": 2640,
      "主题": 2641,
      ".\"": 2642,
      "很多": 2643,
      "▁professional": 2644,
      "yle": 2645,
      "▁experiences": 2646,
      "编写": 2647,
      "▁好的": 2648,
      "ditionally,": 2649,
      "19": 2650,
      "对话": 2651,
      "▁phys": 2652,
      "▁behavior": 2653,
      "▁contro": 2654,
      "▁amount": 2655,
      "受到": 2656,
      "ier": 2657,
      "▁enjoy": 2658,
      "比如": 2659,
      "ital": 2660,
      "________": 2661,
      "wards": 2662,
      "可以通过": 2663,
      "▁responsible": 2664,
      "tain": 2665,
      "▁study": 2666,
      "▁only": 2667,
      "▁material": 2668,
      "▁online": 2669,
      "▁safet": 2670,
      "▁tw": 2671,
      "rim": 2672,
      ",使": 2673,
      "ations.": 2674,
      "以下是": 2675,
      "ically": 2676,
      "ists": 2677,
      "urate": 2678,
      ",因此": 2679,
      "erg": 2680,
      "▁concerns": 2681,
      "ery": 2682,
      "。例如": 2683,
      "▁always": 2684,
      "的是": 2685,
      "work": 2686,
      "▁emotional": 2687,
      "操作": 2688,
      "▁let": 2689,
      "▁sense": 2690,
      "物质": 2691,
      "ura": 2692,
      "ies,": 2693,
      "irtual": 2694,
      "▁analyzing": 2695,
      "▁recommendations": 2696,
      "▁cour": 2697,
      "▁effici": 2698,
      "▁proble": 2699,
      "。\n6.": 2700,
      "设备": 2701,
      "atch": 2702,
      "aste": 2703,
      "land": 2704,
      "▁user": 2705,
      "空间": 2706,
      "ibility": 2707,
      "▁clear": 2708,
      "机器": 2709,
      "故事": 2710,
      "▁lim": 2711,
      "制定": 2712,
      "▁low": 2713,
      "▁dec": 2714,
      "▁issues": 2715,
      "心理": 2716,
      "▁applic": 2717,
      "无法": 2718,
      "inal": 2719,
      "▁meas": 2720,
      "▁crit": 2721,
      ",但是": 2722,
      "希望": 2723,
      "▁aud": 2724,
      "50": 2725,
      "技能": 2726,
      "▁negative": 2727,
      "项目": 2728,
      "。我们": 2729,
      "公司的": 2730,
      "und": 2731,
      "找到": 2732,
      "▁contribut": 2733,
      ",将": 2734,
      "▁visit": 2735,
      "▁organizations": 2736,
      "▁improving": 2737,
      "▁mult": 2738,
      "▁list": 2739,
      "▁clo": 2740,
      "io": 2741,
      "▁prior": 2742,
      "人工智能": 2743,
      "模型": 2744,
      "▁6": 2745,
      "▁taking": 2746,
      "▁{": 2747,
      "aster": 2748,
      "▁fore": 2749,
      "要求": 2750,
      "资源": 2751,
      "社交": 2752,
      "▁variety": 2753,
      "▁tips": 2754,
      "ts": 2755,
      "可以帮助": 2756,
      "ination": 2757,
      "▁oper": 2758,
      "izing": 2759,
      "▁govern": 2760,
      ":在": 2761,
      "挑战": 2762,
      "▁restaur": 2763,
      "▁without": 2764,
      "),": 2765,
      "▁program": 2766,
      "▁certain": 2767,
      "olution": 2768,
      "ank": 2769,
      "。这些": 2770,
      "任何": 2771,
      "▁cam": 2772,
      "的重要": 2773,
      "训练": 2774,
      "▁approach": 2775,
      "▁accurate": 2776,
      "▁som": 2777,
      "▁patients": 2778,
      "..": 2779,
      "▁humans": 2780,
      "不仅": 2781,
      "▁el": 2782,
      "基本": 2783,
      "▁dise": 2784,
      "▁encoura": 2785,
      "ires": 2786,
      "’s": 2787,
      "ervation": 2788,
      "ering": 2789,
      "工具": 2790,
      "ird": 2791,
      "适的": 2792,
      "感到": 2793,
      ",以及": 2794,
      "1,": 2795,
      "他的": 2796,
      "▁still": 2797,
      "生物": 2798,
      "▁Al": 2799,
      "chool": 2800,
      "▁practices": 2801,
      ",为": 2802,
      "咖啡": 2803,
      "准备": 2804,
      "▁must": 2805,
      ":\n-": 2806,
      "▁light": 2807,
      "形成": 2808,
      "dit": 2809,
      "▁guidel": 2810,
      "▁keep": 2811,
      "fter": 2812,
      "▁companies": 2813,
      "作品": 2814,
      "反应": 2815,
      "创造": 2816,
      "表示": 2817,
      "▁known": 2818,
      "▁test": 2819,
      "力和": 2820,
      "lus": 2821,
      "ancial": 2822,
      "ffic": 2823,
      "▁Be": 2824,
      "ope": 2825,
      "▁needs": 2826,
      "new": 2827,
      ",那么": 2828,
      "ew": 2829,
      "AI": 2830,
      "尝试": 2831,
      "▁home": 2832,
      "。同时,": 2833,
      "▁event": 2834,
      "asing": 2835,
      "▁increase": 2836,
      "▁tim": 2837,
      "▁Certainly!": 2838,
      "输出": 2839,
      "rain": 2840,
      "▁happ": 2841,
      "性的": 2842,
      "风险": 2843,
      "消费": 2844,
      "▁leading": 2845,
      "我的": 2846,
      "▁stand": 2847,
      "▁hab": 2848,
      "持续": 2849,
      "▁i": 2850,
      "食物": 2851,
      "效果": 2852,
      "▁belie": 2853,
      "▁Un": 2854,
      "▁summ": 2855,
      "me": 2856,
      "▁2.": 2857,
      "rent": 2858,
      "▁Use": 2859,
      "rap": 2860,
      "上,": 2861,
      "▁analysis": 2862,
      "ouse": 2863,
      "▁tools": 2864,
      "▁#": 2865,
      "▁charact": 2866,
      "。它": 2867,
      "▁security": 2868,
      "▁strategies": 2869,
      "。\n总之,": 2870,
      "▁might": 2871,
      "▁developing": 2872,
      "▁first": 2873,
      "ied": 2874,
      "▁bod": 2875,
      "▁diagn": 2876,
      "▁includes": 2877,
      "▁growth": 2878,
      "专业": 2879,
      "发生": 2880,
      "详细": 2881,
      "▁plant": 2882,
      ",请": 2883,
      "▁10": 2884,
      "▁break": 2885,
      "▁down": 2886,
      "str": 2887,
      "▁understanding": 2888,
      "life": 2889,
      "才能": 2890,
      "▁does": 2891,
      "▁changes": 2892,
      "ember": 2893,
      "▁Additionally,": 2894,
      "▁view": 2895,
      "网络": 2896,
      "▁plat": 2897,
      "lection": 2898,
      "ove": 2899,
      "ructure": 2900,
      "\",": 2901,
      "▁/": 2902,
      "▁optimize": 2903,
      "▁tem": 2904,
      "基础": 2905,
      "▁mar": 2906,
      "ercis": 2907,
      ",然后": 2908,
      "▁goal": 2909,
      "▁Ex": 2910,
      "egr": 2911,
      "句子": 2912,
      "全球": 2913,
      "经济": 2914,
      "▁self-": 2915,
      "起来": 2916,
      "▁3.": 2917,
      "▁cultural": 2918,
      "▁mean": 2919,
      ",还": 2920,
      "不是": 2921,
      "速度": 2922,
      "bers": 2923,
      "学生": 2924,
      "▁less": 2925,
      "ator": 2926,
      "▁8": 2927,
      "▁ensuring": 2928,
      "▁data,": 2929,
      "由于": 2930,
      "▁action": 2931,
      "ven": 2932,
      "less": 2933,
      "▁much": 2934,
      "▁options": 2935,
      "经验": 2936,
      "▁city": 2937,
      "uss": 2938,
      "br": 2939,
      "拥有": 2940,
      "a.": 2941,
      "。我": 2942,
      "合作": 2943,
      "。\n-": 2944,
      "▁financial": 2945,
      "lu": 2946,
      "▁techniqu": 2947,
      "fact": 2948,
      "ions.": 2949,
      "▁key": 2950,
      "▁est": 2951,
      "▁transportation": 2952,
      "▁programs": 2953,
      "▁available": 2954,
      "▁working": 2955,
      "▁lit": 2956,
      "▁efficient": 2957,
      "▁land": 2958,
      "▁intellig": 2959,
      "▁pref": 2960,
      "()": 2961,
      "igate": 2962,
      "▁sources": 2963,
      "▁control": 2964,
      "采用": 2965,
      "吗?": 2966,
      "ricult": 2967,
      "▁programm": 2968,
      "▁cap": 2969,
      "▁though": 2970,
      "。但": 2971,
      ",如果": 2972,
      "知道": 2973,
      "▁wild": 2974,
      "▁towards": 2975,
      "▁return": 2976,
      "onse": 2977,
      "ars": 2978,
      "ets": 2979,
      "▁safety": 2980,
      "▁stor": 2981,
      "▁explore": 2982,
      "良好的": 2983,
      "▁ful": 2984,
      "环保": 2985,
      "加强": 2986,
      ".\n\nA": 2987,
      "▁avoid": 2988,
      "▁really": 2989,
      "的地": 2990,
      "▁platform": 2991,
      "▁situ": 2992,
      "位置": 2993,
      "bon": 2994,
      "▁dev": 2995,
      "▁family": 2996,
      "nov": 2997,
      "ash": 2998,
      "▁fra": 2999,
      "▁don't": 3000,
      "▁Some": 3001,
      "的和": 3002,
      "▁explain": 3003,
      "。此外,": 3004,
      "▁two": 3005,
      "列表": 3006,
      "▁cy": 3007,
      "▁当": 3008,
      "▁farm": 3009,
      "▁aware": 3010,
      "ah": 3011,
      "效率": 3012,
      "▁conclus": 3013,
      "duct": 3014,
      "hers": 3015,
      "开发": 3016,
      "▁air": 3017,
      "▁task": 3018,
      "▁将": 3019,
      "生态": 3020,
      "都是": 3021,
      "▁met": 3022,
      "丰富": 3023,
      "▁physical": 3024,
      "▁er": 3025,
      "alk": 3026,
      "所以": 3027,
      "30": 3028,
      "温度": 3029,
      "▁Ar": 3030,
      "hold": 3031,
      "▁likely": 3032,
      "▁bal": 3033,
      "▁chatbots": 3034,
      "▁guidelines": 3035,
      "ted": 3036,
      "▁ability": 3037,
      "意义": 3038,
      "9.": 3039,
      "▁sentence": 3040,
      "▁rout": 3041,
      "▁again": 3042,
      "电子": 3043,
      "▁creating": 3044,
      "宠物": 3045,
      ",提高": 3046,
      "-time": 3047,
      "▁right": 3048,
      "▁diverse": 3049,
      "调整": 3050,
      "Python": 3051,
      "anced": 3052,
      "er.": 3053,
      "▁features": 3054,
      "▁maintain": 3055,
      "实际": 3056,
      "▁travel": 3057,
      "▁sat": 3058,
      "▁provides": 3059,
      "▁regular": 3060,
      ",这些": 3061,
      "▁benefit": 3062,
      "▁efficiency": 3063,
      ",是": 3064,
      "随着": 3065,
      "独特": 3066,
      "▁consum": 3067,
      "ex": 3068,
      "-c": 3069,
      "]\n": 3070,
      "fort": 3071,
      "here": 3072,
      "▁desc": 3073,
      "▁involves": 3074,
      "字符": 3075,
      "▁exercis": 3076,
      "▁tasks": 3077,
      "ledge": 3078,
      "高的": 3079,
      "科技": 3080,
      "▁respond": 3081,
      "▁track": 3082,
      "▁Res": 3083,
      "▁stre": 3084,
      "gical": 3085,
      "oci": 3086,
      "bal": 3087,
      "▁habit": 3088,
      "为了": 3089,
      "▁virtual": 3090,
      "ource": 3091,
      "▁achieve": 3092,
      "表格": 3093,
      "ross": 3094,
      "▁Go": 3095,
      "▁privacy": 3096,
      "num": 3097,
      "▁services": 3098,
      "orpor": 3099,
      "检查": 3100,
      "erson": 3101,
      "▁tell": 3102,
      "▁works": 3103,
      "ohn": 3104,
      "条件": 3105,
      "▁check": 3106,
      "容易": 3107,
      "▁company": 3108,
      "▁risks": 3109,
      "▁bec": 3110,
      ",最": 3111,
      "▁move": 3112,
      "▁bias": 3113,
      "ethod": 3114,
      "▁priorit": 3115,
      "▁importance": 3116,
      "▁industries": 3117,
      "▁possible": 3118,
      "的一": 3119,
      "abilities": 3120,
      "▁integr": 3121,
      "代表": 3122,
      "12": 3123,
      "▁please": 3124,
      "机会": 3125,
      "分钟": 3126,
      "▁我": 3127,
      "▁7": 3128,
      "▁Com": 3129,
      "交流": 3130,
      "▁net": 3131,
      "▁While": 3132,
      "▁bo": 3133,
      "urther": 3134,
      "▁wide": 3135,
      "rand": 3136,
      "▁express": 3137,
      "▁performance": 3138,
      "▁cent": 3139,
      "day": 3140,
      "策略": 3141,
      ",我们可以": 3142,
      "汽车": 3143,
      "ology": 3144,
      "nce": 3145,
      "▁then": 3146,
      "这种": 3147,
      "▁blo": 3148,
      "满足": 3149,
      "算法": 3150,
      "ai": 3151,
      "ins": 3152,
      "自我": 3153,
      "▁Man": 3154,
      "▁histor": 3155,
      "▁decision-m": 3156,
      "aring": 3157,
      "▁content": 3158,
      ",000": 3159,
      "pan": 3160,
      "整个": 3161,
      "小说": 3162,
      "▁sol": 3163,
      "比赛": 3164,
      "▁users": 3165,
      "▁popul": 3166,
      "pos": 3167,
      "▁es": 3168,
      "食品": 3169,
      ".\n\n6.": 3170,
      "▁harm": 3171,
      "。\n在": 3172,
      "osp": 3173,
      "▁requires": 3174,
      "ances": 3175,
      "▁Sure,": 3176,
      "实验": 3177,
      "▁communication": 3178,
      "▁fair": 3179,
      "按照": 3180,
      "ling": 3181,
      "▁park": 3182,
      "角色": 3183,
      "▁open": 3184,
      "lev": 3185,
      "复杂": 3186,
      "面的": 3187,
      "▁overall": 3188,
      "▁depend": 3189,
      "包含": 3190,
      "▁strong": 3191,
      "tle": 3192,
      "▁jour": 3193,
      "▁<": 3194,
      "可以在": 3195,
      "▁response": 3196,
      "单词": 3197,
      "▁One": 3198,
      "化学": 3199,
      "▁someth": 3200,
      "ees": 3201,
      "▁quick": 3202,
      "▁4.": 3203,
      "▁accura": 3204,
      "寻找": 3205,
      "▁hope": 3206,
      "▁innov": 3207,
      "}\n": 3208,
      "▁did": 3209,
      "▁bl": 3210,
      "它们的": 3211,
      "istic": 3212,
      "空气": 3213,
      "▁common": 3214,
      "▁culture": 3215,
      "▁sym": 3216,
      "▁algorithm": 3217,
      "数量": 3218,
      "app": 3219,
      "▁enh": 3220,
      "的发展": 3221,
      "▁imm": 3222,
      "▁agricult": 3223,
      "▁school": 3224,
      "▁method": 3225,
      "▁collect": 3226,
      "▁valu": 3227,
      "商品": 3228,
      "▁present": 3229,
      "osystem": 3230,
      "▁helps": 3231,
      "-based": 3232,
      "生产": 3233,
      "家具": 3234,
      "▁call": 3235,
      "▁free": 3236,
      "▁conservation": 3237,
      "测试": 3238,
      "):": 3239,
      "▁webs": 3240,
      "▁children": 3241,
      "▁particularly": 3242,
      "thing": 3243,
      "特征": 3244,
      "▁efforts": 3245,
      "▁following": 3246,
      "▁Te": 3247,
      "思考": 3248,
      "ix": 3249,
      "变得": 3250,
      "▁To": 3251,
      "ron": 3252,
      "状态": 3253,
      "共同": 3254,
      "▁heart": 3255,
      "avor": 3256,
      "▁waste": 3257,
      "▁mot": 3258,
      "eric": 3259,
      "▁current": 3260,
      "成本": 3261,
      "▁pres": 3262,
      "▁story": 3263,
      "ty": 3264,
      "▁too": 3265,
      "玩家": 3266,
      "▁ecosystem": 3267,
      "▁economic": 3268,
      "一步": 3269,
      "常见": 3270,
      "):\n": 3271,
      "告诉": 3272,
      "▁multi": 3273,
      "▁mit": 3274,
      "口感": 3275,
      "▁dep": 3276,
      "▁types": 3277,
      "tic": 3278,
      "▁something": 3279,
      "增强": 3280,
      ",比如": 3281,
      "给出": 3282,
      "▁you're": 3283,
      "▁effects": 3284,
      "15": 3285,
      "来说,": 3286,
      "定期": 3287,
      "吸引": 3288,
      "▁\"The": 3289,
      "▁diagnos": 3290,
      "联系": 3291,
      "▁helped": 3292,
      "▁conclusion,": 3293,
      "成长": 3294,
      "练习": 3295,
      "说明": 3296,
      "也是": 3297,
      "▁point": 3298,
      "▁elect": 3299,
      "探索": 3300,
      "ason": 3301,
      "几个": 3302,
      "▁early": 3303,
      "▁problem": 3304,
      "▁special": 3305,
      "▁*": 3306,
      "气候": 3307,
      "ilar": 3308,
      "▁carbon": 3309,
      "▁Ro": 3310,
      "助于": 3311,
      "oring": 3312,
      "▁const": 3313,
      "▁meet": 3314,
      "自由": 3315,
      "就是": 3316,
      "▁uses": 3317,
      "规划": 3318,
      "营养": 3319,
      "创新": 3320,
      "▁{\n": 3321,
      "iment": 3322,
      "▁critical": 3323,
      "▁associ": 3324,
      "行星": 3325,
      "搭配": 3326,
      "n't": 3327,
      "▁Sh": 3328,
      "▁review": 3329,
      "▁crop": 3330,
      "▁real-time": 3331,
      "▁par": 3332,
      "▁practic": 3333,
      "▁knowledge": 3334,
      "▁customers": 3335,
      "更好的": 3336,
      "形式": 3337,
      "▁outcomes": 3338,
      "ale": 3339,
      "▁nature": 3340,
      "iting": 3341,
      "▁after": 3342,
      ",他": 3343,
      "erve": 3344,
      "ause": 3345,
      "▁rece": 3346,
      "多种": 3347,
      "▁insp": 3348,
      "▁continue": 3349,
      "▁ord": 3350,
      "---": 3351,
      "ik": 3352,
      "ment,": 3353,
      "饮食": 3354,
      "▁vol": 3355,
      "Th": 3356,
      "等方面": 3357,
      "▁condition": 3358,
      "▁decision-making": 3359,
      "合理": 3360,
      "\n2.": 3361,
      "小明": 3362,
      "▁Le": 3363,
      "▁necess": 3364,
      "▁Ind": 3365,
      "▁soft": 3366,
      "▁live": 3367,
      "度和": 3368,
      "▁soil": 3369,
      "▁others": 3370,
      "emic": 3371,
      "ually": 3372,
      "▁tri": 3373,
      "▁mom": 3374,
      "▁accuracy": 3375,
      "了一": 3376,
      "下,": 3377,
      "enc": 3378,
      "财务": 3379,
      "lut": 3380,
      "▁allowing": 3381,
      "▁这": 3382,
      "▁impacts": 3383,
      "▁author": 3384,
      "▁bring": 3385,
      "手机": 3386,
      "▁expert": 3387,
      "▁supp": 3388,
      "▁init": 3389,
      "arget": 3390,
      "▁expect": 3391,
      "arc": 3392,
      "化的": 3393,
      "just": 3394,
      "不能": 3395,
      "▁Cl": 3396,
      "▁practice": 3397,
      "最后,": 3398,
      "o,": 3399,
      "清洁": 3400,
      "100": 3401,
      "了一个": 3402,
      "▁x": 3403,
      "简单的": 3404,
      "▁represent": 3405,
      "▁19": 3406,
      "▁things": 3407,
      "▁stru": 3408,
      "是指": 3409,
      "▁discuss": 3410,
      "ording": 3411,
      ",以便": 3412,
      "s.\n\n3.": 3413,
      "▁increased": 3414,
      "者的": 3415,
      "▁如果": 3416,
      "▁fish": 3417,
      "▁techniques": 3418,
      "▁state": 3419,
      "舒适": 3420,
      "▁renew": 3421,
      "light": 3422,
      "生长": 3423,
      "▁increasing": 3424,
      "over": 3425,
      "▁history": 3426,
      "平衡": 3427,
      "▁successful": 3428,
      "组成": 3429,
      "sequ": 3430,
      "▁exist": 3431,
      "稳定": 3432,
      "▁exc": 3433,
      "s.\n\n2.": 3434,
      "▁Im": 3435,
      "适应": 3436,
      "▁9": 3437,
      "▁stat": 3438,
      "▁comb": 3439,
      "▁past": 3440,
      ",您": 3441,
      "▁examples:\n\n1.": 3442,
      "▁additional": 3443,
      "▁scen": 3444,
      "▁Writ": 3445,
      "编程": 3446,
      "色的": 3447,
      "适量": 3448,
      "▁discrim": 3449,
      "▁emiss": 3450,
      "▁space": 3451,
      "注重": 3452,
      "适当": 3453,
      "▁ideas": 3454,
      "采取": 3455,
      "cle": 3456,
      "。你": 3457,
      "▁yourself": 3458,
      "ditions": 3459,
      "',": 3460,
      "充满": 3461,
      "▁imag": 3462,
      "场景": 3463,
      "感受": 3464,
      "都有": 3465,
      "rodu": 3466,
      "▁experien": 3467,
      "即可": 3468,
      "▁cru": 3469,
      "▁number": 3470,
      "时候": 3471,
      "▁type": 3472,
      "▁workers": 3473,
      "itud": 3474,
      "rast": 3475,
      "定义": 3476,
      "准确": 3477,
      "保证": 3478,
      "▁come": 3479,
      "兴趣": 3480,
      "alu": 3481,
      "▁scient": 3482,
      "18": 3483,
      "▁production": 3484,
      "▁products": 3485,
      "ock": 3486,
      "。因此,": 3487,
      "▁intelligence": 3488,
      "▁`": 3489,
      "pre": 3490,
      "▁allows": 3491,
      "▁mat": 3492,
      "lobal": 3493,
      "▁green": 3494,
      "ides": 3495,
      "▁style": 3496,
      "原因": 3497,
      "▁strugg": 3498,
      "iful": 3499,
      "▁sal": 3500,
      "▁influ": 3501,
      "▁trained": 3502,
      ",其中": 3503,
      "基于": 3504,
      "▁That": 3505,
      "▁transparen": 3506,
      "还有": 3507,
      "ised": 3508,
      "▁game": 3509,
      "▁mess": 3510,
      "水平": 3511,
      "▁Americ": 3512,
      "治疗": 3513,
      "▁stress": 3514,
      "▁incorpor": 3515,
      "▁hot": 3516,
      "▁involve": 3517,
      "▁flow": 3518,
      "▁habitat": 3519,
      "压力": 3520,
      "By": 3521,
      "▁emerg": 3522,
      "▁solut": 3523,
      "s.\n\n4.": 3524,
      "报告": 3525,
      "▁preferen": 3526,
      "职业": 3527,
      "▁report": 3528,
      "▁pap": 3529,
      "ies.": 3530,
      "▁therap": 3531,
      "oot": 3532,
      "等,": 3533,
      "ger": 3534,
      "参与": 3535,
      "\n3.": 3536,
      "文学": 3537,
      "▁根据": 3538,
      "。然": 3539,
      "最后": 3540,
      "▁building": 3541,
      "平台": 3542,
      "▁function": 3543,
      "akehold": 3544,
      "▁promoting": 3545,
      "▁restaurant": 3546,
      "ival": 3547,
      "cean": 3548,
      "▁prog": 3549,
      "法律": 3550,
      "是在": 3551,
      "足够": 3552,
      "ment.": 3553,
      "hic": 3554,
      "▁dra": 3555,
      "一次": 3556,
      "▁comfort": 3557,
      "等。\n": 3558,
      "餐厅": 3559,
      "▁manage": 3560,
      "快速": 3561,
      "oice": 3562,
      "▁Col": 3563,
      "优化": 3564,
      "word": 3565,
      "黑洞": 3566,
      "▁steps": 3567,
      "▁helpful": 3568,
      "做出": 3569,
      "▁course": 3570,
      "▁ter": 3571,
      "▁under": 3572,
      "▁leg": 3573,
      "▁words": 3574,
      "▁animal": 3575,
      "的方法": 3576,
      "resh": 3577,
      "医疗": 3578,
      "▁face": 3579,
      "idence": 3580,
      "▁Eng": 3581,
      "▁associated": 3582,
      "▁everyone": 3583,
      "天气": 3584,
      "及时": 3585,
      "一定": 3586,
      "▁为": 3587,
      "▁manner": 3588,
      "aces": 3589,
      "▁consequ": 3590,
      "lex": 3591,
      "▁perspect": 3592,
      "riate": 3593,
      "改变": 3594,
      "尊重": 3595,
      ">\n": 3596,
      "▁target": 3597,
      "记录": 3598,
      "▁amounts": 3599,
      "▁She": 3600,
      "▁renewable": 3601,
      "ern": 3602,
      "▁inclus": 3603,
      "▁questions": 3604,
      "能源": 3605,
      "▁emotions": 3606,
      "▁input": 3607,
      "ush": 3608,
      "▁meaning": 3609,
      "ape": 3610,
      "感觉": 3611,
      "▁“": 3612,
      "▁Con": 3613,
      "性。": 3614,
      "意识": 3615,
      "▁adjust": 3616,
      "ustr": 3617,
      "reci": 3618,
      "▁dire": 3619,
      "最近": 3620,
      "提出": 3621,
      "▁beautiful": 3622,
      "▁due": 3623,
      "▁employees": 3624,
      "fect": 3625,
      "▁events": 3626,
      "背景": 3627,
      "问题。": 3628,
      "好,": 3629,
      "▁speak": 3630,
      "▁dam": 3631,
      "aily": 3632,
      "相对": 3633,
      "int(\"": 3634,
      "▁short": 3635,
      "名称": 3636,
      "▁object": 3637,
      "合适的": 3638,
      "造成": 3639,
      "营销": 3640,
      "perature": 3641,
      "ener": 3642,
      "对方": 3643,
      "必要": 3644,
      "和的": 3645,
      "▁camp": 3646,
      "sc": 3647,
      "▁countries": 3648,
      "中心": 3649,
      "ech": 3650,
      "责任": 3651,
      "▁stakehold": 3652,
      "收入": 3653,
      "▁necessary": 3654,
      "▁assess": 3655,
      "▁comput": 3656,
      "▁area": 3657,
      "大小": 3658,
      "▁When": 3659,
      "成员": 3660,
      "ished": 3661,
      "ead": 3662,
      "维护": 3663,
      "▁prioritize": 3664,
      "etic": 3665,
      "▁means": 3666,
      "▁Z": 3667,
      "▁minim": 3668,
      "它的": 3669,
      "▁Tr": 3670,
      "哪些": 3671,
      "▁appreci": 3672,
      "reng": 3673,
      "equ": 3674,
      "错误": 3675,
      "标准": 3676,
      "▁cr": 3677,
      "购物": 3678,
      "▁emp": 3679,
      ",则": 3680,
      "▁life.": 3681,
      "▁him": 3682,
      "atory": 3683,
      ",我们需要": 3684,
      "▁fil": 3685,
      "表面": 3686,
      "▁hard": 3687,
      "物理": 3688,
      "▁trend": 3689,
      "人员": 3690,
      "可以使用": 3691,
      "ization": 3692,
      "体的": 3693,
      "第二": 3694,
      "▁idea": 3695,
      "▁vehic": 3696,
      "用的": 3697,
      "▁:": 3698,
      "▁artic": 3699,
      ").": 3700,
      "。例如,": 3701,
      "样的": 3702,
      "▁pain": 3703,
      "▁transparent": 3704,
      "iver": 3705,
      "自动": 3706,
      "▁establ": 3707,
      "ript": 3708,
      "。\n7.": 3709,
      "细节": 3710,
      "。其": 3711,
      "be": 3712,
      "美食": 3713,
      "▁daily": 3714,
      "▁veget": 3715,
      "ogra": 3716,
      "软件": 3717,
      "▁traffic": 3718,
      "▁another": 3719,
      "多少": 3720,
      "▁healthy": 3721,
      "ext": 3722,
      "▁5.": 3723,
      "计算机": 3724,
      "ess,": 3725,
      "▁against": 3726,
      "经历": 3727,
      "rug": 3728,
      "相互": 3729,
      "▁same": 3730,
      "。以下是": 3731,
      "\\_": 3732,
      "▁temperature": 3733,
      "ode": 3734,
      "▁occ": 3735,
      "▁sustainability": 3736,
      "oun": 3737,
      "▁dig": 3738,
      "▁crucial": 3739,
      "NA": 3740,
      "。但是": 3741,
      "▁intern": 3742,
      "ors,": 3743,
      "应的": 3744,
      "LP": 3745,
      "▁non": 3746,
      "来越": 3747,
      ",每": 3748,
      "▁body": 3749,
      "下面": 3750,
      "提升": 3751,
      "pro": 3752,
      "(\"": 3753,
      "hood": 3754,
      "onomous": 3755,
      "▁Is": 3756,
      "▁safe": 3757,
      "三个": 3758,
      "性能": 3759,
      "。他": 3760,
      "force": 3761,
      "▁approp": 3762,
      "放入": 3763,
      "ry,": 3764,
      "越来越": 3765,
      "▁details": 3766,
      "降低": 3767,
      "预算": 3768,
      "▁Pl": 3769,
      ",即": 3770,
      "当地": 3771,
      "▁biases": 3772,
      "。通过": 3773,
      "▁providers": 3774,
      "▁particip": 3775,
      "▁throughout": 3776,
      "▁within": 3777,
      "els": 3778,
      "▁phot": 3779,
      "▁Develop": 3780,
      "▁trust": 3781,
      "的过程": 3782,
      "▁post": 3783,
      "leep": 3784,
      "▁defin": 3785,
      "▁wind": 3786,
      "▁==": 3787,
      "范围": 3788,
      "ity.": 3789,
      "-be": 3790,
      "追求": 3791,
      ",对": 3792,
      "▁bird": 3793,
      "。这种": 3794,
      "一段": 3795,
      "▁appropriate": 3796,
      "感谢": 3797,
      "▁teac": 3798,
      "指导": 3799,
      "行业": 3800,
      "ince": 3801,
      "ground": 3802,
      "▁determ": 3803,
      "----------------": 3804,
      "▁streng": 3805,
      "▁reflect": 3806,
      "ork": 3807,
      "想法": 3808,
      "只有": 3809,
      "▁anx": 3810,
      "不要": 3811,
      "分享": 3812,
      "明确": 3813,
      "。当": 3814,
      "▁global": 3815,
      "展示": 3816,
      "▁policies": 3817,
      "aj": 3818,
      "go": 3819,
      "▁liv": 3820,
      ",同时也": 3821,
      "▁pollut": 3822,
      "▁hig": 3823,
      "▁encourage": 3824,
      "pecial": 3825,
      "▁effectively": 3826,
      "orm": 3827,
      "事件": 3828,
      "吗?\n": 3829,
      "▁cal": 3830,
      "▁loss": 3831,
      "▁factors": 3832,
      "▁New": 3833,
      "▁miss": 3834,
      "之前": 3835,
      "▁issue": 3836,
      "旅行": 3837,
      "达到": 3838,
      ",避免": 3839,
      "决策": 3840,
      "一直": 3841,
      "ership": 3842,
      "多个": 3843,
      "物品": 3844,
      "ray": 3845,
      "特别": 3846,
      "▁across": 3847,
      "旅游": 3848,
      "▁kind": 3849,
      "谢谢": 3850,
      "装饰": 3851,
      "▁along": 3852,
      "解决方案": 3853,
      "方向": 3854,
      "let": 3855,
      "use": 3856,
      "▁respect": 3857,
      "▁never": 3858,
      "▁among": 3859,
      "▁accountability": 3860,
      "改进": 3861,
      "▁animals": 3862,
      "如下": 3863,
      "▁conditions": 3864,
      "by": 3865,
      "▁surround": 3866,
      "▁insights": 3867,
      "排序": 3868,
      "▁powerful": 3869,
      "网站": 3870,
      "▁law": 3871,
      ",确保": 3872,
      "▁creative": 3873,
      "▁located": 3874,
      "下来": 3875,
      "▁And": 3876,
      "面积": 3877,
      "▁near": 3878,
      "▁initi": 3879,
      "决定": 3880,
      "side": 3881,
      "美丽": 3882,
      "地区": 3883,
      "ote": 3884,
      "ion:": 3885,
      "ments,": 3886,
      "ally": 3887,
      "ining": 3888,
      "答案": 3889,
      "不可": 3890,
      "▁Could": 3891,
      "▁chatbot": 3892,
      "▁run": 3893,
      "▁feeling": 3894,
      "icious": 3895,
      "▁consequences": 3896,
      ".\n\nF": 3897,
      "s?": 3898,
      "有趣": 3899,
      "▁because": 3900,
      "不会": 3901,
      "▁vide": 3902,
      "想要": 3903,
      "▁summar": 3904,
      "▁nut": 3905,
      "**": 3906,
      "\t\t": 3907,
      "li": 3908,
      "有助于": 3909,
      "elt": 3910,
      "▁arg": 3911,
      "ney": 3912,
      "▁relev": 3913,
      "▁it.": 3914,
      "▁perfect": 3915,
      ",能够": 3916,
      "ired": 3917,
      "▁solutions": 3918,
      "可持续": 3919,
      "是什么": 3920,
      "状况": 3921,
      "▁helping": 3922,
      "总结": 3923,
      ");\n": 3924,
      "astic": 3925,
      "ards": 3926,
      "模式": 3927,
      "▁wildlife": 3928,
      "深入": 3929,
      "▁related": 3930,
      "室内": 3931,
      "gin": 3932,
      "享受": 3933,
      "商业": 3934,
      "▁sun": 3935,
      "▁recognition": 3936,
      "▁now": 3937,
      "平均": 3938,
      "▁With": 3939,
      "▁motiv": 3940,
      "▁software": 3941,
      "改善": 3942,
      "▁remot": 3943,
      "首先,": 3944,
      "▁编写": 3945,
      "度的": 3946,
      "▁threat": 3947,
      "▁dest": 3948,
      "数学": 3949,
      "爱情": 3950,
      "应对": 3951,
      "21": 3952,
      "A:": 3953,
      "看到": 3954,
      "▁acad": 3955,
      "oor": 3956,
      "▁amaz": 3957,
      "ificial": 3958,
      "房间": 3959,
      "ention": 3960,
      "▁concern": 3961,
      "区域": 3962,
      "▁accessible": 3963,
      "▁remote": 3964,
      "▁advanced": 3965,
      "cast": 3966,
      "▁very": 3967,
      "▁hy": 3968,
      "提供了": 3969,
      "ift": 3970,
      "atives": 3971,
      "▁flo": 3972,
      "▁gl": 3973,
      "▁enhance": 3974,
      "、和": 3975,
      "行动": 3976,
      "品质": 3977,
      "观点": 3978,
      "ug": 3979,
      "▁pattern": 3980,
      "arr": 3981,
      "lish": 3982,
      "ources,": 3983,
      "放松": 3984,
      "社区": 3985,
      ",以确保": 3986,
      "enge": 3987,
      "放在": 3988,
      "▁further": 3989,
      "▁Ens": 3990,
      "▁clean": 3991,
      "▁character": 3992,
      "▁fre": 3993,
      "▁Cons": 3994,
      "▁applications": 3995,
      "▁ado": 3996,
      "▁someone": 3997,
      "▁capt": 3998,
      "s.\n": 3999,
      "pecially": 4000,
      "▁cell": 4001,
      "▁ocean": 4002,
      "not": 4003,
      "augh": 4004,
      "一位": 4005,
      "公共": 4006,
      "gest": 4007,
      "符合": 4008,
      "▁cause": 4009,
      "2,": 4010,
      "unte": 4011,
      "aken": 4012,
      "内部": 4013,
      "▁ask": 4014,
      "\")\n": 4015,
      "▁especially": 4016,
      "创作": 4017,
      "▁looking": 4018,
      "▁engaging": 4019,
      "▁night": 4020,
      "▁multiple": 4021,
      "独特的": 4022,
      "▁mil": 4023,
      "力的": 4024,
      "能量": 4025,
      "rect": 4026,
      "▁informed": 4027,
      "\"\n": 4028,
      "▁structure": 4029,
      "▁bar": 4030,
      "▁well-be": 4031,
      "▁friends": 4032,
      "▁evalu": 4033,
      "▁liter": 4034,
      "ograph": 4035,
      "▁progress": 4036,
      "▁search": 4037,
      "25": 4038,
      "消费者": 4039,
      "力量": 4040,
      "▁them.": 4041,
      "s.\n\n5.": 4042,
      "▁satis": 4043,
      "▁website": 4044,
      "▁famil": 4045,
      "coming": 4046,
      "健身": 4047,
      "精神": 4048,
      "▁dat": 4049,
      "10.": 4050,
      "▁regulations": 4051,
      "现象": 4052,
      "判断": 4053,
      "▁easy": 4054,
      "▁awareness": 4055,
      "▁say": 4056,
      "ems": 4057,
      "▁convers": 4058,
      "▁levels": 4059,
      "▁bas": 4060,
      "设置": 4061,
      "▁going": 4062,
      "▁mindful": 4063,
      "事情": 4064,
      "预测": 4065,
      "▁topic": 4066,
      "流程": 4067,
      "电视": 4068,
      "规则": 4069,
      "▁generate": 4070,
      "ains": 4071,
      "▁好的,": 4072,
      "参加": 4073,
      "▁Q": 4074,
      "ruction": 4075,
      "▁relevant": 4076,
      "▁implementing": 4077,
      "创建": 4078,
      "医生": 4079,
      "▁prepare": 4080,
      "▁relationships": 4081,
      ":我": 4082,
      "▁transform": 4083,
      "pping": 4084,
      "▁time,": 4085,
      "▁voice": 4086,
      "最终": 4087,
      "▁else": 4088,
      "▁measures": 4089,
      "ele": 4090,
      "足够的": 4091,
      "费用": 4092,
      "的情况": 4093,
      "正在": 4094,
      "edic": 4095,
      "▁Write": 4096,
      "orn": 4097,
      "▁warm": 4098,
      "ging": 4099,
      "▁name": 4100,
      "▁drug": 4101,
      "▁visual": 4102,
      "!\n": 4103,
      "▁world.": 4104,
      "aid": 4105,
      "▁Int": 4106,
      "asc": 4107,
      "▁done": 4108,
      "▁balance": 4109,
      ",他们": 4110,
      "▁values": 4111,
      "▁But": 4112,
      "强调": 4113,
      "▁demand": 4114,
      ",通过": 4115,
      "▁upd": 4116,
      "ones": 4117,
      "▁你": 4118,
      "的生活": 4119,
      "▁similar": 4120,
      "tt": 4121,
      "▁valuable": 4122,
      "▁trip": 4123,
      "itation": 4124,
      "▁disaster": 4125,
      "▁Reg": 4126,
      "写一篇": 4127,
      "▁prev": 4128,
      "▁moment": 4129,
      "ological": 4130,
      ",所以": 4131,
      "▁assistants": 4132,
      "▁groups": 4133,
      "500": 4134,
      "▁prom": 4135,
      "▁programmed": 4136,
      "安装": 4137,
      "ng": 4138,
      "思想": 4139,
      "ument": 4140,
      "▁lack": 4141,
      "-friend": 4142,
      ".\n\nThese": 4143,
      "应用程序": 4144,
      "▁compet": 4145,
      "分别": 4146,
      "▁Park": 4147,
      "▁Ear": 4148,
      "▁lives": 4149,
      "给我": 4150,
      "▁recognize": 4151,
      "的方式": 4152,
      "▁color": 4153,
      "▁mitigate": 4154,
      "讨论": 4155,
      "▁exce": 4156,
      "互动": 4157,
      "日常": 4158,
      "真正": 4159,
      "中最": 4160,
      "名的": 4161,
      "eries": 4162,
      "▁involved": 4163,
      "▁advance": 4164,
      "▁cu": 4165,
      "ators": 4166,
      "▁fit": 4167,
      "bo": 4168,
      "▁transl": 4169,
      "▁X": 4170,
      "ream": 4171,
      "▁identifying": 4172,
      "▁order": 4173,
      "a:": 4174,
      "支付": 4175,
      "。这个": 4176,
      "ton": 4177,
      "常见的": 4178,
      "有关": 4179,
      "▁led": 4180,
      "▁location": 4181,
      "▁hour": 4182,
      "itude": 4183,
      "▁contribute": 4184,
      "进一步": 4185,
      "装修": 4186,
      "▁store": 4187,
      "▁nav": 4188,
      "▁whole": 4189,
      "ersonal": 4190,
      "概念": 4191,
      "▁conduct": 4192,
      "ames": 4193,
      "▁sleep": 4194,
      "▁breat": 4195,
      "还是": 4196,
      "▁Em": 4197,
      ",而且": 4198,
      "ane": 4199,
      "行的": 4200,
      "联网": 4201,
      "▁当然": 4202,
      "2)": 4203,
      "、等": 4204,
      "充分": 4205,
      "sw": 4206,
      "yn": 4207,
      "▁evol": 4208,
      "▁sn": 4209,
      "play": 4210,
      "urb": 4211,
      "▁limit": 4212,
      "mosp": 4213,
      "▁choose": 4214,
      "▁arr": 4215,
      "view": 4216,
      "▁fresh": 4217,
      "▁turn": 4218,
      "优点": 4219,
      "多样": 4220,
      "需要注意": 4221,
      "之一。": 4222,
      "▁context": 4223,
      "B:": 4224,
      "\n在": 4225,
      ",它们": 4226,
      "子的": 4227,
      "▁models": 4228,
      "▁actions": 4229,
      "▁Health": 4230,
      "▁ways.": 4231,
      "后的": 4232,
      "▁prop": 4233,
      "▁err": 4234,
      "食材": 4235,
      "▁Su": 4236,
      "正确的": 4237,
      "美国": 4238,
      "▁Your": 4239,
      "缺点": 4240,
      "▁Name": 4241,
      "直接": 4242,
      "▁direct": 4243,
      "▁time.": 4244,
      "itable": 4245,
      "可以让": 4246,
      ":\n```": 4247,
      "▁preferences": 4248,
      "aching": 4249,
      "▁complete": 4250,
      "▁hold": 4251,
      "今天": 4252,
      "▁agriculture": 4253,
      "▁thought": 4254,
      "▁commit": 4255,
      "▁distribut": 4256,
      "▁automation": 4257,
      "▁atmosp": 4258,
      "▁sw": 4259,
      "▁gain": 4260,
      "无论": 4261,
      "omen": 4262,
      "▁makes": 4263,
      "▁challenge": 4264,
      "▁times": 4265,
      "理论": 4266,
      "将其": 4267,
      "经典": 4268,
      "emember": 4269,
      "日期": 4270,
      "方便": 4271,
      "▁value": 4272,
      "-1": 4273,
      "▁fund": 4274,
      "调查": 4275,
      "izes": 4276,
      "▁communicate": 4277,
      "▁Edu": 4278,
      "▁disease": 4279,
      "▁researc": 4280,
      "▁continu": 4281,
      "时间和": 4282,
      "▁rather": 4283,
      "▁machines": 4284,
      "▁Aut": 4285,
      "▁write": 4286,
      "▁higher": 4287,
      "\n4.": 4288,
      "▁Des": 4289,
      "redict": 4290,
      "▁needed": 4291,
      "▁quickly": 4292,
      "▁reli": 4293,
      "▁digital": 4294,
      "overy": 4295,
      "水果": 4296,
      "▁marine": 4297,
      "▁Or": 4298,
      "为“": 4299,
      "inci": 4300,
      "ended": 4301,
      "政策": 4302,
      "▁difference": 4303,
      "▁univers": 4304,
      "▁academic": 4305,
      "▁Chat": 4306,
      "anks": 4307,
      "▁aspect": 4308,
      "▁challenging": 4309,
      "▁indic": 4310,
      "ring": 4311,
      "告诉我": 4312,
      "itut": 4313,
      "▁deploy": 4314,
      "▁provided": 4315,
      "fra": 4316,
      "▁recent": 4317,
      "60": 4318,
      "\\_\\_": 4319,
      "▁network": 4320,
      "▁existing": 4321,
      "ython\n": 4322,
      "▁background": 4323,
      "arden": 4324,
      "▁given": 4325,
      "par": 4326,
      "▁z": 4327,
      "面对": 4328,
      ".\n\nBy": 4329,
      "200": 4330,
      ":\n```\n": 4331,
      "▁afford": 4332,
      "的信息": 4333,
      "▁Sc": 4334,
      "▁Se": 4335,
      "▁systems,": 4336,
      "-to": 4337,
      ".\n\nI": 4338,
      "▁National": 4339,
      "阳光": 4340,
      "人生": 4341,
      "▁sect": 4342,
      "增长": 4343,
      "▁的": 4344,
      "▁poet": 4345,
      "oud": 4346,
      "▁ill": 4347,
      "▁emissions": 4348,
      "lying": 4349,
      "▁implemented": 4350,
      "-friendly": 4351,
      "高效": 4352,
      "。而": 4353,
      "推广": 4354,
      "▁wa": 4355,
      "▁head": 4356,
      "arent": 4357,
      "▁medic": 4358,
      "信任": 4359,
      "],": 4360,
      "产品的": 4361,
      "机器人": 4362,
      "term": 4363,
      "phas": 4364,
      "家居": 4365,
      "'ll": 4366,
      "▁plans": 4367,
      "▁activity": 4368,
      "Overall,": 4369,
      "▁members": 4370,
      "▁overs": 4371,
      "▁gas": 4372,
      "形象": 4373,
      "▁amazing": 4374,
      "ising": 4375,
      "agra": 4376,
      "pet": 4377,
      "iveness": 4378,
      "▁Sure": 4379,
      "ats": 4380,
      "▁regard": 4381,
      "▁Trans": 4382,
      "▁colle": 4383,
      "▁strength": 4384,
      "St": 4385,
      "atic": 4386,
      "▁subject": 4387,
      "▁mov": 4388,
      "les,": 4389,
      "▁answ": 4390,
      "培训": 4391,
      "▁spot": 4392,
      "次,": 4393,
      "▁audience": 4394,
      "oint": 4395,
      "问题的": 4396,
      "适当的": 4397,
      "▁greater": 4398,
      "▁trail": 4399,
      "ronic": 4400,
      "▁vers": 4401,
      "▁memor": 4402,
      "▁collaboration": 4403,
      "▁diversity": 4404,
      "pose": 4405,
      "▁speech": 4406,
      "▁suggestions": 4407,
      "设施": 4408,
      "优势": 4409,
      "▁listen": 4410,
      "ensive": 4411,
      "ified": 4412,
      "满意": 4413,
      "ann": 4414,
      "pped": 4415,
      "接受": 4416,
      "▁bro": 4417,
      "▁&": 4418,
      "illed": 4419,
      "等等": 4420,
      "works": 4421,
      "▁relax": 4422,
      "ufact": 4423,
      "▁surv": 4424,
      "口味": 4425,
      "▁definite": 4426,
      "过程中": 4427,
      "of": 4428,
      "美味": 4429,
      "英语": 4430,
      "▁describ": 4431,
      "▁breath": 4432,
      "非常重要": 4433,
      "elves": 4434,
      "▁measure": 4435,
      "▁takes": 4436,
      "长度": 4437,
      "孩子的": 4438,
      "▁transparency": 4439,
      "▁damage": 4440,
      "▁Tra": 4441,
      "▁case": 4442,
      "▁concept": 4443,
      "python\n": 4444,
      "▁taken": 4445,
      "▁\"I": 4446,
      "-in": 4447,
      "de": 4448,
      "这段": 4449,
      "▁foot": 4450,
      "力,": 4451,
      "▁wee": 4452,
      "公式": 4453,
      "美的": 4454,
      "elebr": 4455,
      "经常": 4456,
      "▁living": 4457,
      "物体": 4458,
      ",这样": 4459,
      "▁outd": 4460,
      "▁government": 4461,
      "▁inequ": 4462,
      "▁intervent": 4463,
      "相应的": 4464,
      "▁data.": 4465,
      "多的": 4466,
      "▁lif": 4467,
      "每个人": 4468,
      "思维": 4469,
      "▁plants": 4470,
      "合同": 4471,
      "99": 4472,
      "▁press": 4473,
      "是由": 4474,
      "▁engagement": 4475,
      "-term": 4476,
      "er's": 4477,
      "▁fr": 4478,
      "业务": 4479,
      "▁big": 4480,
      "▁replace": 4481,
      "▁societ": 4482,
      "▁princi": 4483,
      "周围": 4484,
      "鸡蛋": 4485,
      "▁rain": 4486,
      "▁establish": 4487,
      "▁interested": 4488,
      "▁high-": 4489,
      "nal": 4490,
      "获取": 4491,
      "▁last": 4492,
      "大家": 4493,
      "▁polit": 4494,
      "▁Inc": 4495,
      "▁cook": 4496,
      "相信": 4497,
      "ment:": 4498,
      "▁Thank": 4499,
      "变量": 4500,
      "▁lay": 4501,
      "▁goals": 4502,
      "▁phr": 4503,
      "▁Inst": 4504,
      "▁sounds": 4505,
      "某些": 4506,
      "完全": 4507,
      "深刻": 4508,
      "John": 4509,
      "引起": 4510,
      "bi": 4511,
      "ow,": 4512,
      "转换": 4513,
      "”的": 4514,
      "▁Soc": 4515,
      "也会": 4516,
      "erous": 4517,
      "▁forest": 4518,
      "uck": 4519,
      "hens": 4520,
      "able,": 4521,
      "▁biased": 4522,
      "力。": 4523,
      "▁having": 4524,
      "▁definitely": 4525,
      "人物": 4526,
      "▁win": 4527,
      "▁disast": 4528,
      ",帮助": 4529,
      "forest": 4530,
      "大利": 4531,
      "▁emphas": 4532,
      "▁生成": 4533,
      "进入": 4534,
      "高度": 4535,
      "味道": 4536,
      "成分": 4537,
      "一定的": 4538,
      "▁volunte": 4539,
      "蛋白": 4540,
      "长期": 4541,
      "也可以": 4542,
      "▁routine": 4543,
      "▁对": 4544,
      "▁processing": 4545,
      "▁American": 4546,
      "▁improved": 4547,
      "▁ey": 4548,
      "指南": 4549,
      "▁I'll": 4550,
      "▁cuis": 4551,
      "广告": 4552,
      "▁away": 4553,
      "问题,": 4554,
      "个性": 4555,
      "istics": 4556,
      "house": 4557,
      "ness,": 4558,
      "歌曲": 4559,
      "▁materials": 4560,
      "▁Personal": 4561,
      "▁farmers": 4562,
      "We": 4563,
      "系列": 4564,
      "年的": 4565,
      "▁occur": 4566,
      ",并在": 4567,
      "有些": 4568,
      "有着": 4569,
      "步骤:\n1.": 4570,
      "气候变化": 4571,
      "▁monitoring": 4572,
      "领导": 4573,
      "▁Pr": 4574,
      "现实": 4575,
      "▁images": 4576,
      "道德": 4577,
      "▁pay": 4578,
      "▁purch": 4579,
      "▁video": 4580,
      "所述": 4581,
      "▁remind": 4582,
      "▁next": 4583,
      "▁line": 4584,
      "To": 4585,
      "ibr": 4586,
      "▁years": 4587,
      "▁maj": 4588,
      "▁overcome": 4589,
      "▁0.": 4590,
      "▁conflic": 4591,
      "学会": 4592,
      "▁planet": 4593,
      "和其他": 4594,
      "牛奶": 4595,
      "def": 4596,
      "olute": 4597,
      "print": 4598,
      "room": 4599,
      "▁是": 4600,
      "绿色": 4601,
      "ulner": 4602,
      "社交体": 4603,
      "对话内容": 4604,
      "▁atmosphere": 4605,
      "▁Many": 4606,
      "生态系统": 4607,
      ",一": 4608,
      "▁affected": 4609,
      "40": 4610,
      "bol": 4611,
      "寻求": 4612,
      "den": 4613,
      "isc": 4614,
      "为您": 4615,
      "▁implic": 4616,
      "直到": 4617,
      "▁brand": 4618,
      "▁ele": 4619,
      "▁believe": 4620,
      "aves": 4621,
      "▁opportunity": 4622,
      "▁issu": 4623,
      "的需求": 4624,
      "hel": 4625,
      "▁mention": 4626,
      "▁cannot": 4627,
      "▁manufact": 4628,
      "▁environment.": 4629,
      "▁描述": 4630,
      "▁pie": 4631,
      "所需": 4632,
      "▁sea": 4633,
      "▁NLP": 4634,
      "▁according": 4635,
      "自信": 4636,
      "▁infrast": 4637,
      "vey": 4638,
      "最大": 4639,
      "。因此": 4640,
      "程度": 4641,
      "▁addressing": 4642,
      "▁thems": 4643,
      "氧化": 4644,
      "16": 4645,
      "培养": 4646,
      "to": 4647,
      "识别": 4648,
      "安排": 4649,
      "▁100": 4650,
      "▁article": 4651,
      "的关键": 4652,
      "▁processes": 4653,
      "▁align": 4654,
      "动作": 4655,
      "制造": 4656,
      "年轻": 4657,
      "字母": 4658,
      "色彩": 4659,
      "▁swe": 4660,
      "的建议": 4661,
      "等等。": 4662,
      "▁why": 4663,
      "问题:": 4664,
      "text": 4665,
      "▁Prov": 4666,
      "iversity": 4667,
      "ral": 4668,
      "▁\\": 4669,
      "▁walk": 4670,
      "▁autonomous": 4671,
      "大量的": 4672,
      "▁Data": 4673,
      "互联网": 4674,
      "▁begin": 4675,
      "分为": 4676,
      "▁full": 4677,
      "▁today": 4678,
      "重新": 4679,
      "古代": 4680,
      "过程中,": 4681,
      "▁engage": 4682,
      "set": 4683,
      "的心": 4684,
      "ined": 4685,
      "ices,": 4686,
      "▁beauty": 4687,
      "▁Red": 4688,
      "上所述": 4689,
      "▁clin": 4690,
      "▁obs": 4691,
      "▁artificial": 4692,
      "▁correct": 4693,
      "▁excell": 4694,
      "分子": 4695,
      "▁attention": 4696,
      "▁produce": 4697,
      "▁devices": 4698,
      "合物": 4699,
      "-re": 4700,
      "°C": 4701,
      "▁comes": 4702,
      "▁draw": 4703,
      "cul": 4704,
      "icial": 4705,
      "inally,": 4706,
      "▁advice": 4707,
      "▁letter": 4708,
      "▁paper": 4709,
      "的工作": 4710,
      "▁happy": 4711,
      "▁highly": 4712,
      "▁delicious": 4713,
      "▁hom": 4714,
      "形状": 4715,
      "▁fail": 4716,
      "▁Sp": 4717,
      "的主要": 4718,
      "▁disabilities": 4719,
      "▁favor": 4720,
      "意见": 4721,
      "的。\n": 4722,
      "性,": 4723,
      "▁attract": 4724,
      "▁experience.": 4725,
      "的地方": 4726,
      "▁sho": 4727,
      ":将": 4728,
      "▁season": 4729,
      "▁introdu": 4730,
      "上面": 4731,
      "▁caused": 4732,
      "vert": 4733,
      "achine": 4734,
      "▁vulner": 4735,
      "种类": 4736,
      "强的": 4737,
      "▁oversight": 4738,
      "▁proper": 4739,
      "11": 4740,
      "▁dishes": 4741,
      "▁email": 4742,
      "▁guidance": 4743,
      "需要考虑": 4744,
      "i,": 4745,
      ".\n\nS": 4746,
      "差异": 4747,
      "▁message": 4748,
      "▁cra": 4749,
      "▁surrounding": 4750,
      "▁smart": 4751,
      "这里": 4752,
      "onstr": 4753,
      "▁Sm": 4754,
      "ables": 4755,
      "0.": 4756,
      "▁Sure!": 4757,
      "ountain": 4758,
      "▁exh": 4759,
      "人际": 4760,
      "on,": 4761,
      "▁sing": 4762,
      "▁collection": 4763,
      "▁old": 4764,
      "▁record": 4765,
      "认识": 4766,
      "gn": 4767,
      "规定": 4768,
      "▁consist": 4769,
      "▁famous": 4770,
      "支出": 4771,
      "▁satisfact": 4772,
      "▁English": 4773,
      "觉得": 4774,
      "▁you.": 4775,
      "▁places": 4776,
      "ients": 4777,
      "▁discrimin": 4778,
      "收集": 4779,
      "▁educational": 4780,
      "▁source": 4781,
      "▁handle": 4782,
      "每天": 4783,
      "▁street": 4784,
      "▁pack": 4785,
      "▁modern": 4786,
      "▁cuisine": 4787,
      "▁felt": 4788,
      "经过": 4789,
      "▁wond": 4790,
      "丰富的": 4791,
      "▁compre": 4792,
      "▁organization": 4793,
      "相似": 4794,
      "▁resil": 4795,
      "ava": 4796,
      "▁12": 4797,
      "有一个": 4798,
      "\n5.": 4799,
      "有所": 4800,
      "▁called": 4801,
      "▁empath": 4802,
      "▁matter": 4803,
      "outh": 4804,
      "结合": 4805,
      "时期": 4806,
      "▁Take": 4807,
      "iate": 4808,
      "▁professionals": 4809,
      "▁lot": 4810,
      "▁---": 4811,
      "▁legal": 4812,
      "\n1.": 4813,
      "▁platforms": 4814,
      "▁innovative": 4815,
      "abel": 4816,
      "▁以下": 4817,
      "▁Compan": 4818,
      "切成": 4819,
      "量子": 4820,
      "她的": 4821,
      "成为了": 4822,
      "情节": 4823,
      "ites": 4824,
      "▁John": 4825,
      "▁careful": 4826,
      "▁systems.": 4827,
      "▁assistance": 4828,
      "▁doc": 4829,
      "pite": 4830,
      "▁put": 4831,
      "可以根据": 4832,
      "▁setting": 4833,
      "▁remember": 4834,
      "oss": 4835,
      "▁fest": 4836,
      "ification": 4837,
      "相同": 4838,
      "▁cover": 4839,
      "建设": 4840,
      "▁active": 4841,
      "▁productivity": 4842,
      "▁Are": 4843,
      "原理": 4844,
      "▁exploring": 4845,
      "80": 4846,
      "▁trial": 4847,
      "例子": 4848,
      "现出": 4849,
      "酒店": 4850,
      "▁displace": 4851,
      "▁perpet": 4852,
      "y:": 4853,
      "大气": 4854,
      "观众": 4855,
      "▁celebr": 4856,
      "▁heav": 4857,
      "▁coff": 4858,
      "nother": 4859,
      "▁whether": 4860,
      "▁room": 4861,
      "▁demonstr": 4862,
      "▁}\n": 4863,
      "▁ing": 4864,
      "限制": 4865,
      "▁science": 4866,
      "目前": 4867,
      "▁diet": 4868,
      "▁ever": 4869,
      "\n1": 4870,
      "▁image": 4871,
      "▁country": 4872,
      "▁outdoor": 4873,
      "可以选择": 4874,
      "eriod": 4875,
      "意大利": 4876,
      "▁emb": 4877,
      "意味": 4878,
      "▁Acc": 4879,
      "▁symbol": 4880,
      "))\n": 4881,
      "不错": 4882,
      "了。": 4883,
      "con": 4884,
      "探讨": 4885,
      "▁equip": 4886,
      "第一": 4887,
      ",\"": 4888,
      "ium": 4889,
      "▁Hum": 4890,
      "▁three": 4891,
      "读者": 4892,
      "▁la": 4893,
      "▁surf": 4894,
      "他人": 4895,
      "▁true": 4896,
      "▁interpre": 4897,
      "▁major": 4898,
      "。\n其": 4899,
      "▁diagnosis": 4900,
      "中,我们": 4901,
      "▁Enc": 4902,
      "▁My": 4903,
      "ox": 4904,
      "▁anxiety": 4905,
      "▁life,": 4906,
      "chan": 4907,
      "有效的": 4908,
      "▁United": 4909,
      "▁researchers": 4910,
      "arning": 4911,
      "▁genetic": 4912,
      "▁garden": 4913,
      "具体的": 4914,
      "isms": 4915,
      "head": 4916,
      "真实": 4917,
      "▁compare": 4918,
      "▁significantly": 4919,
      "▁revolution": 4920,
      "▁Comm": 4921,
      ":“": 4922,
      "▁choice": 4923,
      "aving": 4924,
      "▁trying": 4925,
      "一款": 4926,
      "▁spend": 4927,
      "▁Govern": 4928,
      "▁lower": 4929,
      "▁men": 4930,
      "太阳系": 4931,
      "▁receive": 4932,
      ".\n-": 4933,
      "▁close": 4934,
      "价值观": 4935,
      "▁perpetu": 4936,
      ",用": 4937,
      "\n*": 4938,
      "▁future.": 4939,
      "▁enough": 4940,
      "▁On": 4941,
      "▁Thanks": 4942,
      "▁jobs": 4943,
      "s.\n\nOverall,": 4944,
      "运行": 4945,
      "意味着": 4946,
      "▁continues": 4947,
      "负面": 4948,
      "cer": 4949,
      "度,": 4950,
      "▁simple": 4951,
      "▁journey": 4952,
      "小时": 4953,
      "▁comprehens": 4954,
      "▁workplace": 4955,
      "证据": 4956,
      "▁mechan": 4957,
      "在一起": 4958,
      "有什么": 4959,
      "▁path": 4960,
      "\nC": 4961,
      "感受到": 4962,
      "arian": 4963,
      "Wh": 4964,
      "▁Wor": 4965,
      "</": 4966,
      "推动": 4967,
      "种植": 4968,
      "第三": 4969,
      "▁solar": 4970,
      "3,": 4971,
      "▁long-term": 4972,
      "▁limited": 4973,
      "▁appreciate": 4974,
      "快乐": 4975,
      "uro": 4976,
      "▁period": 4977,
      "▁can't": 4978,
      "▁interesting": 4979,
      "tenance": 4980,
      "list": 4981,
      "▁sensors": 4982,
      "▁detailed": 4983,
      "婚礼": 4984,
      "▁seen": 4985,
      "尽可能": 4986,
      "运算": 4987,
      "▁spread": 4988,
      "独立": 4989,
      "▁rock": 4990,
      "句话": 4991,
      "sing": 4992,
      "aged": 4993,
      "▁restaurants": 4994,
      "▁purpose": 4995,
      "▁stun": 4996,
      "▁terms": 4997,
      "illing": 4998,
      "▁excellent": 4999,
      "的数据": 5000,
      "的环境": 5001,
      "▁Predict": 5002,
      "的应用": 5003,
      ",以下": 5004,
      ",至": 5005,
      "erse": 5006,
      "▁reach": 5007,
      "ges": 5008,
      "▁implications": 5009,
      "▁Ensuring": 5010,
      "。\n1.": 5011,
      "▁vehicles": 5012,
      "评价": 5013,
      "▁ult": 5014,
      "使得": 5015,
      "▁shared": 5016,
      "▁fall": 5017,
      "▁30": 5018,
      "oney": 5019,
      "alities": 5020,
      "iring": 5021,
      "。他们": 5022,
      "▁assistant": 5023,
      "▁altern": 5024,
      "ruit": 5025,
      "▁society.": 5026,
      "▁changing": 5027,
      "▁\n-": 5028,
      "▁road": 5029,
      "事项": 5030,
      "ynt": 5031,
      "▁young": 5032,
      "==": 5033,
      "取得": 5034,
      ":\n```python\n": 5035,
      "▁Earth": 5036,
      "▁使用": 5037,
      "示例": 5038,
      "▁mor": 5039,
      "the": 5040,
      "当前": 5041,
      "接下来": 5042,
      "▁adopt": 5043,
      "▁port": 5044,
      "▁Mar": 5045,
      "小的": 5046,
      "还可以": 5047,
      "并不": 5048,
      "销售额": 5049,
      "val": 5050,
      "▁learned": 5051,
      "imes": 5052,
      "aign": 5053,
      "▁doing": 5054,
      "▁Chatbots": 5055,
      "美元": 5056,
      "▁mis": 5057,
      "^2": 5058,
      "ese": 5059,
      "属于": 5060,
      "生存": 5061,
      "▁scientific": 5062,
      "rist": 5063,
      "▁spir": 5064,
      "ancing": 5065,
      "资产": 5066,
      "▁considerations": 5067,
      ",就": 5068,
      "。您": 5069,
      "▁exercise": 5070,
      "的文章": 5071,
      "宝宝": 5072,
      "▁aim": 5073,
      "ression": 5074,
      "________________": 5075,
      "▁bud": 5076,
      "▁grat": 5077,
      "方程": 5078,
      "And": 5079,
      "earch": 5080,
      "▁engine": 5081,
      "出的": 5082,
      "优的": 5083,
      "▁datas": 5084,
      "▁stakeholders": 5085,
      "。\n上所述": 5086,
      "▁consumption": 5087,
      "▁Education": 5088,
      "ises": 5089,
      "▁myself": 5090,
      "▁usage": 5091,
      "▁Robots": 5092,
      "▁shown": 5093,
      "轻松": 5094,
      "elling": 5095,
      "出来": 5096,
      "1)": 5097,
      "ding": 5098,
      "iking": 5099,
      "▁orig": 5100,
      "▁affordable": 5101,
      "显示": 5102,
      "▁parent": 5103,
      "学习和": 5104,
      "ump": 5105,
      "部门": 5106,
      ",更": 5107,
      "▁studies": 5108,
      "▁That's": 5109,
      "。”": 5110,
      "▁typically": 5111,
      "▁Mon": 5112,
      "▁forecast": 5113,
      "▁views": 5114,
      "ians": 5115,
      "▁chain": 5116,
      "▁easier": 5117,
      "新鲜": 5118,
      "▁attack": 5119,
      "▁getting": 5120,
      "inating": 5121,
      "▁frame": 5122,
      "▁evidence": 5123,
      "面试": 5124,
      "▁partn": 5125,
      "。然而": 5126,
      "ptom": 5127,
      "巧克": 5128,
      "Your": 5129,
      "▁created": 5130,
      "ymak": 5131,
      "▁note": 5132,
      "▁summary,": 5133,
      "参考": 5134,
      "▁cou": 5135,
      "▁Ph": 5136,
      "▁flex": 5137,
      "▁emergency": 5138,
      "▁给": 5139,
      "▁news": 5140,
      "aling": 5141,
      "、水": 5142,
      "提取": 5143,
      "▁therapy": 5144,
      "▁initiatives": 5145,
      "ervised": 5146,
      ",加入": 5147,
      "。\n8.": 5148,
      "来源": 5149,
      "选项": 5150,
      "▁Ass": 5151,
      "▁ground": 5152,
      "gen": 5153,
      "红色": 5154,
      "▁Techn": 5155,
      "饮料": 5156,
      "▁Social": 5157,
      "aff": 5158,
      "book": 5159,
      "▁song": 5160,
      "过度": 5161,
      "▁alread": 5162,
      "▁since": 5163,
      "▁dog": 5164,
      "数组": 5165,
      "yond": 5166,
      "工程": 5167,
      "和文化": 5168,
      "的情感": 5169,
      "交易": 5170,
      "▁methods": 5171,
      "▁worth": 5172,
      "光线": 5173,
      "ses": 5174,
      "\":": 5175,
      "心和": 5176,
      "ibly": 5177,
      "amm": 5178,
      "一名": 5179,
      "▁thing": 5180,
      "。\n总的": 5181,
      "17": 5182,
      "uly": 5183,
      "▁Machine": 5184,
      "声音": 5185,
      "▁mindfulness": 5186,
      "进步": 5187,
      "值得": 5188,
      "了,": 5189,
      "//": 5190,
      "aches": 5191,
      "▁mob": 5192,
      "▁finding": 5193,
      "alking": 5194,
      "▁propert": 5195,
      "▁outside": 5196,
      "主义": 5197,
      "5,": 5198,
      "为什么": 5199,
      "▁creativity": 5200,
      "自身": 5201,
      "▁Wow,": 5202,
      "▁skin": 5203,
      "▁navigate": 5204,
      "▁sty": 5205,
      "▁abilities": 5206,
      "going": 5207,
      "必要的": 5208,
      "▁tone": 5209,
      "蛋白质": 5210,
      "▁already": 5211,
      "ived": 5212,
      ".\n\nH": 5213,
      "ourage": 5214,
      "会议": 5215,
      "▁ingred": 5216,
      "▁campaign": 5217,
      "▁consid": 5218,
      "▁plastic": 5219,
      "参数": 5220,
      "▁discover": 5221,
      "保险": 5222,
      "water": 5223,
      "▁Bi": 5224,
      "▁Art": 5225,
      "随时": 5226,
      "ged": 5227,
      "▁muse": 5228,
      "ogle": 5229,
      "请输入": 5230,
      "▁Abs": 5231,
      "▁focused": 5232,
      "igr": 5233,
      "apan": 5234,
      "▁highlight": 5235,
      "usion": 5236,
      "▁exper": 5237,
      "▁stunning": 5238,
      "bor": 5239,
      "imately": 5240,
      "平方": 5241,
      "整数": 5242,
      "表明": 5243,
      "▁accountable": 5244,
      "▁symptom": 5245,
      "sy": 5246,
      "公园": 5247,
      "类型的": 5248,
      "▁Cont": 5249,
      "其中": 5250,
      "的基础": 5251,
      "▁previous": 5252,
      "▁robotics": 5253,
      "▁trends": 5254,
      "▁pollution": 5255,
      "ocol": 5256,
      ")\n```\n": 5257,
      "▁Make": 5258,
      "▁change.": 5259,
      "itle": 5260,
      ")\n-": 5261,
      "菜品": 5262,
      "▁incred": 5263,
      "▁peace": 5264,
      "。请": 5265,
      "ar,": 5266,
      "▁remain": 5267,
      "▁museum": 5268,
      "▁attend": 5269,
      "▁rad": 5270,
      "▁comprehensive": 5271,
      "▁Fr": 5272,
      "ia,": 5273,
      "角度": 5274,
      "▁Predictive": 5275,
      "aris": 5276,
      "▁factor": 5277,
      "▁bat": 5278,
      "▁determine": 5279,
      "▁technology,": 5280,
      "▁print(\"": 5281,
      "上最": 5282,
      "▁compl": 5283,
      "▁greenhouse": 5284,
      "有很多": 5285,
      "ung": 5286,
      "▁doct": 5287,
      "机构": 5288,
      "▁Af": 5289,
      "icro": 5290,
      ",使得": 5291,
      "组合": 5292,
      "▁Med": 5293,
      ",这个": 5294,
      "▁Absolute": 5295,
      "▁side": 5296,
      "▁historical": 5297,
      "给定的": 5298,
      "▁month": 5299,
      "-st": 5300,
      "▁ver": 5301,
      "▁AI,": 5302,
      "▁comfortable": 5303,
      "是因为": 5304,
      "鸡肉": 5305,
      "机制": 5306,
      "▁responses": 5307,
      "▁themes": 5308,
      "▁left": 5309,
      "受欢": 5310,
      "感和": 5311,
      "的时间": 5312,
      "uel": 5313,
      "ore,": 5314,
      "▁written": 5315,
      "▁Ag": 5316,
      "▁et": 5317,
      "▁red": 5318,
      "另外,": 5319,
      "列出": 5320,
      "ming": 5321,
      "▁age": 5322,
      ":\n\n-": 5323,
      "▁regularly": 5324,
      "▁prim": 5325,
      "重复": 5326,
      "▁themselves": 5327,
      "正常": 5328,
      "调味": 5329,
      "input": 5330,
      ".\n\nM": 5331,
      "oration": 5332,
      "▁belief": 5333,
      "iol": 5334,
      "vest": 5335,
      "充足": 5336,
      "以下几个": 5337,
      "▁principles": 5338,
      "ices.": 5339,
      "=\"": 5340,
      "在线": 5341,
      "▁secure": 5342,
      "三角": 5343,
      "▁educ": 5344,
      "-l": 5345,
      "▁ones": 5346,
      "的安全": 5347,
      "▁Collabor": 5348,
      "的设计": 5349,
      "▁required": 5350,
      "eep": 5351,
      "作者": 5352,
      "▁watch": 5353,
      "结论": 5354,
      "cy,": 5355,
      "▁max": 5356,
      "▁guide": 5357,
      "位于": 5358,
      "流行": 5359,
      "▁advent": 5360,
      "高,": 5361,
      "将会": 5362,
      "▁oil": 5363,
      ".,": 5364,
      "▁diseases": 5365,
      "▁ge": 5366,
      "▁sche": 5367,
      "er:": 5368,
      "除了": 5369,
      "▁Of": 5370,
      ",我会": 5371,
      "▁electric": 5372,
      ",或者": 5373,
      "▁capabilities": 5374,
      "▁practical": 5375,
      "ott": 5376,
      "证明": 5377,
      "▁depending": 5378,
      "气体": 5379,
      "ivil": 5380,
      "人类的": 5381,
      "▁save": 5382,
      "▁behind": 5383,
      "▁problems": 5384,
      "oster": 5385,
      "amp": 5386,
      "ines,": 5387,
      "print(": 5388,
      "▁situations": 5389,
      "▁offering": 5390,
      "▁mist": 5391,
      "▁interactions": 5392,
      "▁hear": 5393,
      "语音": 5394,
      "特色": 5395,
      "▁cat": 5396,
      "写作": 5397,
      "▁Overall,": 5398,
      "的基本": 5399,
      "一个人": 5400,
      "14": 5401,
      "This": 5402,
      "▁cities": 5403,
      "▁dark": 5404,
      "▁sweet": 5405,
      "分配": 5406,
      "▁maintenance": 5407,
      "▁Co": 5408,
      "▁started": 5409,
      "▁coffee": 5410,
      "▁pest": 5411,
      "▁house": 5412,
      "▁supporting": 5413,
      "认知": 5414,
      "▁reduced": 5415,
      "-g": 5416,
      "▁和": 5417,
      "这一": 5418,
      "mat": 5419,
      "▁thr": 5420,
      "清单": 5421,
      "▁beyond": 5422,
      "推理": 5423,
      "题目": 5424,
      "▁reading": 5425,
      ",不要": 5426,
      "▁testing": 5427,
      "▁unt": 5428,
      "▁little": 5429,
      "含有": 5430,
      "▁abs": 5431,
      "的内容": 5432,
      ",减少": 5433,
      "都会": 5434,
      "语法": 5435,
      "▁200": 5436,
      "▁wait": 5437,
      "的水": 5438,
      "详细的": 5439,
      "▁faced": 5440,
      "心的": 5441,
      "epend": 5442,
      "▁international": 5443,
      "▁sport": 5444,
      "22": 5445,
      "▁lat": 5446,
      "▁compos": 5447,
      "▁recy": 5448,
      "喜欢的": 5449,
      "未来的": 5450,
      "ently": 5451,
      "▁frequ": 5452,
      "▁Stud": 5453,
      "▁cir": 5454,
      "hes,": 5455,
      ".\n\nR": 5456,
      "-e": 5457,
      "▁purs": 5458,
      "▁opin": 5459,
      "▁general": 5460,
      "类别": 5461,
      "▁forward": 5462,
      "互相": 5463,
      "▁ap": 5464,
      "▁question": 5465,
      "▁mill": 5466,
      "▁chem": 5467,
      "。\n最后,": 5468,
      "ury": 5469,
      "▁arch": 5470,
      "-dr": 5471,
      "▁books": 5472,
      "ids": 5473,
      "▁patterns,": 5474,
      "▁prote": 5475,
      "▁women": 5476,
      "▁Great": 5477,
      "(x": 5478,
      "▁div": 5479,
      "▁considered": 5480,
      "reme": 5481,
      "dule": 5482,
      "▁stories": 5483,
      "▁political": 5484,
      "▁clinical": 5485,
      "具备": 5486,
      "▁6.": 5487,
      "▁18": 5488,
      "▁camer": 5489,
      "XXX": 5490,
      "减轻": 5491,
      "比例": 5492,
      "ription": 5493,
      "过去": 5494,
      "态度": 5495,
      "▁Afric": 5496,
      "▁jo": 5497,
      "为:": 5498,
      ",使用": 5499,
      "▁learning,": 5500,
      "▁spirit": 5501,
      "用来": 5502,
      "▁favorite": 5503,
      "▁dang": 5504,
      "▁supply": 5505,
      "▁interpret": 5506,
      "c{": 5507,
      "▁cogn": 5508,
      "▁Japan": 5509,
      "▁health.": 5510,
      "排放": 5511,
      "之一,": 5512,
      "izz": 5513,
      "的问题。": 5514,
      "▁policymak": 5515,
      "那些": 5516,
      "▁feelings": 5517,
      "▁budget": 5518,
      "▁vast": 5519,
      "xx": 5520,
      "▁作为": 5521,
      "▁effectiveness": 5522,
      "ive,": 5523,
      "▁infrastructure": 5524,
      "▁slow": 5525,
      "3)": 5526,
      "▁Analy": 5527,
      "美好": 5528,
      "视觉": 5529,
      "ww": 5530,
      "print(\"": 5531,
      "出了": 5532,
      "外观": 5533,
      "▁truly": 5534,
      "引力": 5535,
      "▁fraud": 5536,
      "你们": 5537,
      "▁fasc": 5538,
      "fit": 5539,
      "的产品": 5540,
      "景点": 5541,
      "来自": 5542,
      "Tom": 5543,
      "ilt": 5544,
      "大量": 5545,
      "▁beach": 5546,
      "▁standard": 5547,
      "预防": 5548,
      "ases,": 5549,
      "▁everything": 5550,
      "▁Cre": 5551,
      "▁assign": 5552,
      "▁ongoing": 5553,
      "nown": 5554,
      "}{": 5555,
      "▁advant": 5556,
      "▁mentioned": 5557,
      "▁Car": 5558,
      "▁minut": 5559,
      "▁Add": 5560,
      ",导致": 5561,
      "方面,": 5562,
      "内的": 5563,
      "▁responsibility": 5564,
      "▁sensitive": 5565,
      "▁hiking": 5566,
      "▁sou": 5567,
      "和服务": 5568,
      "name": 5569,
      "▁rich": 5570,
      "和发展": 5571,
      "ler": 5572,
      "等于": 5573,
      "方面的": 5574,
      "ecurity": 5575,
      "▁At": 5576,
      "形的": 5577,
      "职场": 5578,
      "对象": 5579,
      "相关的": 5580,
      "修改": 5581,
      "▁rate": 5582,
      "Ch": 5583,
      "另一个": 5584,
      "ivity,": 5585,
      "第一个": 5586,
      "▁disord": 5587,
      "创意": 5588,
      "▁protecting": 5589,
      "和水": 5590,
      "▁Bl": 5591,
      "▁integrated": 5592,
      ",可": 5593,
      "是最": 5594,
      "agraph": 5595,
      "基因": 5596,
      "▁instead": 5597,
      "▁deliv": 5598,
      "密码": 5599,
      "面包": 5600,
      "天的": 5601,
      "▁fash": 5602,
      "▁useful": 5603,
      "语句": 5604,
      "理解和": 5605,
      "表演": 5606,
      "▁dedic": 5607,
      "分布": 5608,
      ",人们": 5609,
      "让我们": 5610,
      "能力和": 5611,
      "▁discrimination": 5612,
      "aught": 5613,
      "▁poetry": 5614,
      "'ve": 5615,
      ",通常": 5616,
      "的小": 5617,
      "▁nutri": 5618,
      "生素": 5619,
      "自行": 5620,
      "▁forms": 5621,
      "▁don": 5622,
      "技术的": 5623,
      "▁request": 5624,
      "▁exhib": 5625,
      "▁World": 5626,
      "▁ut": 5627,
      "这个问题": 5628,
      "机器学习": 5629,
      "▁gratitude": 5630,
      ":这": 5631,
      "▁50": 5632,
      "健康的": 5633,
      "要注意": 5634,
      "▁shop": 5635,
      "lt": 5636,
      "各个": 5637,
      "物的": 5638,
      "▁flavor": 5639,
      ",与": 5640,
      "▁cool": 5641,
      "can": 5642,
      "▁cognitive": 5643,
      "家长": 5644,
      "更换": 5645,
      "神经": 5646,
      "和社会": 5647,
      "▁cyber": 5648,
      "▁allowed": 5649,
      "|\n|": 5650,
      "了一些": 5651,
      "▁Vis": 5652,
      "。\n以上": 5653,
      "▁App": 5654,
      "forcement": 5655,
      "我们可以": 5656,
      "巧克力": 5657,
      "地方": 5658,
      "的时候": 5659,
      "▁ant": 5660,
      "▁said": 5661,
      "▁drink": 5662,
      "▁dream": 5663,
      "▁提供": 5664,
      "unch": 5665,
      "frac{": 5666,
      "在于": 5667,
      "▁anything": 5668,
      "测量": 5669,
      "▁experienced": 5670,
      "▁impacted": 5671,
      "▁employee": 5672,
      "▁world,": 5673,
      "mit": 5674,
      "简洁": 5675,
      "▁Bus": 5676,
      "▁entire": 5677,
      "类似": 5678,
      "讲述": 5679,
      "数据集": 5680,
      "▁computer": 5681,
      "协作": 5682,
      ",直到": 5683,
      "性、": 5684,
      "▁God": 5685,
      "▁|\n": 5686,
      "居民": 5687,
      "▁novel": 5688,
      "尽量": 5689,
      "▁meal": 5690,
      "食用": 5691,
      "ief": 5692,
      "▁marketing": 5693,
      "▁easily": 5694,
      "▁investment": 5695,
      "ulate": 5696,
      "▁capture": 5697,
      ",再": 5698,
      "cious": 5699,
      "▁sharing": 5700,
      "案件": 5701,
      "▁lever": 5702,
      ",这种": 5703,
      "尽管": 5704,
      "中文": 5705,
      "olog": 5706,
      "ER": 5707,
      "▁bur": 5708,
      "明的": 5709,
      "▁maintaining": 5710,
      "▁expos": 5711,
      "▁tasks,": 5712,
      "有趣的": 5713,
      "。如果你": 5714,
      "▁treatments": 5715,
      "▁brain": 5716,
      "▁rent": 5717,
      "▁resources,": 5718,
      "物理学": 5719,
      "▁thinking": 5720,
      "。如果您": 5721,
      "▁costs": 5722,
      "▁hand,": 5723,
      "\nB": 5724,
      "afood": 5725,
      "▁real-": 5726,
      "▁insight": 5727,
      ",进": 5728,
      "整体": 5729,
      "家的": 5730,
      "请你": 5731,
      "▁teachers": 5732,
      "到的": 5733,
      "家人": 5734,
      "总是": 5735,
      "人际关系": 5736,
      "两种": 5737,
      "▁repl": 5738,
      "▁《": 5739,
      "女性": 5740,
      "更新": 5741,
      "▁mal": 5742,
      ",她": 5743,
      "里的": 5744,
      "金属": 5745,
      "ounter": 5746,
      ".\n\nOne": 5747,
      "时代": 5748,
      "随机": 5749,
      "▁output": 5750,
      "▁characters": 5751,
      "▁Personalized": 5752,
      "’t": 5753,
      "man": 5754,
      "看起来": 5755,
      "writ": 5756,
      "erious": 5757,
      "[i": 5758,
      "爱好": 5759,
      "▁yield": 5760,
      "a's": 5761,
      "▁15": 5762,
      "▁Christ": 5763,
      "▁Po": 5764,
      "道路": 5765,
      "azon": 5766,
      "▁happen": 5767,
      "▁history,": 5768,
      "quality": 5769,
      "reased": 5770,
      "co": 5771,
      "▁far": 5772,
      "▁second": 5773,
      "▁work,": 5774,
      "▁populations": 5775,
      ",以下是": 5776,
      "sych": 5777,
      "▁income": 5778,
      "rupt": 5779,
      "\n#": 5780,
      "A.": 5781,
      "时的": 5782,
      "▁vegan": 5783,
      "▁advoc": 5784,
      "▁cand": 5785,
      ".\n\nAnother": 5786,
      "▁reality": 5787,
      "论文": 5788,
      "中。": 5789,
      "▁automate": 5790,
      "comes": 5791,
      "深度": 5792,
      "白色": 5793,
      "▁governments": 5794,
      "▁that's": 5795,
      "资金": 5796,
      "▁practices,": 5797,
      "uild": 5798,
      "黄色": 5799,
      "调节": 5800,
      "的选择": 5801,
      "▁Bar": 5802,
      "▁gramm": 5803,
      "▁accom": 5804,
      "itect": 5805,
      "▁technical": 5806,
      "▁policy": 5807,
      "▁uns": 5808,
      ",保持": 5809,
      "▁option": 5810,
      "负责": 5811,
      "超过": 5812,
      "▁well-being": 5813,
      "▁resilience": 5814,
      "至少": 5815,
      "实施": 5816,
      "英文": 5817,
      "ics,": 5818,
      "▁Human": 5819,
      "hop": 5820,
      "rought": 5821,
      "▁earth": 5822,
      "”,": 5823,
      "▁vac": 5824,
      "大,": 5825,
      "ntic": 5826,
      "enty": 5827,
      "AP": 5828,
      "的使用": 5829,
      "▁self.": 5830,
      "▁developers": 5831,
      "▁host": 5832,
      "▁until": 5833,
      "▁career": 5834,
      "urban": 5835,
      "▁I've": 5836,
      "选择适合": 5837,
      "▁Here's": 5838,
      "▁black": 5839,
      "▁card": 5840,
      "变得更加": 5841,
      "。\n总的来说,": 5842,
      "▁ice": 5843,
      "▁above": 5844,
      "舒适的": 5845,
      "▁projects": 5846,
      ":00": 5847,
      ",实现": 5848,
      "▁way.": 5849,
      "▁Consider": 5850,
      "abling": 5851,
      "▁dial": 5852,
      "收益": 5853,
      "质量和": 5854,
      "电器": 5855,
      "环境的": 5856,
      "▁shap": 5857,
      "▁film": 5858,
      "▁institut": 5859,
      "周期": 5860,
      "▁Che": 5861,
      "成就": 5862,
      "▁Remember": 5863,
      "规律": 5864,
      "▁agree": 5865,
      "▁neigh": 5866,
      "iction": 5867,
      ":你": 5868,
      "性质": 5869,
      ",当": 5870,
      "发布": 5871,
      "▁support,": 5872,
      "▁expertise": 5873,
      "▁increasingly": 5874,
      "▁buy": 5875,
      "适量的": 5876,
      "▁inclusive": 5877,
      "▁Ethical": 5878,
      "▁rely": 5879,
      "▁rights": 5880,
      "▁extreme": 5881,
      "▁landsc": 5882,
      ",提供": 5883,
      "和。": 5884,
      "编程语言": 5885,
      "▁incorporating": 5886,
      "维生素": 5887,
      "▁contain": 5888,
      "▁revolutionize": 5889,
      "▁combination": 5890,
      "▁experiment": 5891,
      "协调": 5892,
      "▁loved": 5893,
      "什么是": 5894,
      "▁不": 5895,
      "下的": 5896,
      "美好的": 5897,
      "▁Commun": 5898,
      "▁inse": 5899,
      "ules": 5900,
      "▁viol": 5901,
      "数据分析": 5902,
      "一只": 5903,
      "▁wast": 5904,
      "▁me.": 5905,
      "▁growing": 5906,
      "▁System": 5907,
      "▁poems": 5908,
      "▁week": 5909,
      "实用": 5910,
      "▁aspects": 5911,
      "▁Governments": 5912,
      "▁enabling": 5913,
      "/2": 5914,
      "▁contact": 5915,
      "▁thoughts": 5916,
      "复杂的": 5917,
      "有的": 5918,
      "▁education,": 5919,
      ".\n\n7.": 5920,
      "▁enable": 5921,
      "aries": 5922,
      "▁heat": 5923,
      "▁Have": 5924,
      "age,": 5925,
      "▁eth": 5926,
      "重量": 5927,
      "提示": 5928,
      "ID": 5929,
      "季节": 5930,
      "▁predictions": 5931,
      "alent": 5932,
      "生活中": 5933,
      "▁Another": 5934,
      "une": 5935,
      "▁tax": 5936,
      "。\n这": 5937,
      "▁movement": 5938,
      "stac": 5939,
      "▁Good": 5940,
      "▁fitness": 5941,
      "及其": 5942,
      "▁All": 5943,
      "性格": 5944,
      "hentic": 5945,
      "\n```\n": 5946,
      "active": 5947,
      "biased": 5948,
      "开放": 5949,
      "▁设计": 5950,
      "▁accessibility": 5951,
      "▁planning": 5952,
      "ublic": 5953,
      "生命的": 5954,
      ",最终": 5955,
      "▁conditions.": 5956,
      "▁accept": 5957,
      "常常": 5958,
      "▁touch": 5959,
      "文化和": 5960,
      "等方式": 5961,
      "地球的": 5962,
      "▁movie": 5963,
      "难以": 5964,
      "▁unbiased": 5965,
      "▁非常": 5966,
      "的子": 5967,
      "ency,": 5968,
      "清洗": 5969,
      "往往": 5970,
      "▁mix": 5971,
      "里,": 5972,
      "完整": 5973,
      "不足": 5974,
      "化和": 5975,
      "数的": 5976,
      "▁hyd": 5977,
      "▁cop": 5978,
      "气温": 5979,
      "▁expand": 5980,
      "▁seafood": 5981,
      "▁eco": 5982,
      "▁paragraph": 5983,
      "▁incorporate": 5984,
      "现金": 5985,
      "inary": 5986,
      "▁became": 5987,
      "单位": 5988,
      "▁\"A": 5989,
      "意思": 5990,
      "▁Redu": 5991,
      "▁publ": 5992,
      "▁size": 5993,
      "▁chemical": 5994,
      "more,": 5995,
      "▁perspectives": 5996,
      "。该": 5997,
      "▁solution": 5998,
      "完善": 5999,
      "aps": 6000,
      "▁print(": 6001,
      "▁写一篇": 6002,
      "▁meditation": 6003,
      "or,": 6004,
      "▁bit": 6005,
      "人们的": 6006,
      "ser": 6007,
      "ret": 6008,
      ":如果": 6009,
      "▁vari": 6010,
      "有机": 6011,
      "确认": 6012,
      "我们需要": 6013,
      "▁resource": 6014,
      "▁skills,": 6015,
      "▁answer": 6016,
      "24": 6017,
      "在的": 6018,
      "ization:": 6019,
      "▁teacher": 6020,
      "▁raise": 6021,
      "维持": 6022,
      "▁//": 6023,
      "wh": 6024,
      "所有的": 6025,
      "吸收": 6026,
      "▁becomes": 6027,
      "▁mood": 6028,
      "的目标": 6029,
      "rench": 6030,
      "▁fully": 6031,
      "▁organic": 6032,
      "不断地": 6033,
      "▁urban": 6034,
      "ried": 6035,
      "▁allo": 6036,
      "统计": 6037,
      "unction": 6038,
      "名字": 6039,
      "▁coast": 6040,
      "-3": 6041,
      ",增加": 6042,
      "▁fire": 6043,
      "ley": 6044,
      "情和": 6045,
      "老师": 6046,
      "▁others.": 6047,
      "▁select": 6048,
      "。\n上所述,": 6049,
      "转化": 6050,
      "▁conflict": 6051,
      "选择合适的": 6052,
      "▁minimize": 6053,
      "▁term": 6054,
      "规范": 6055,
      "至关": 6056,
      "▁Business": 6057,
      "放置": 6058,
      "▁influence": 6059,
      "美丽的": 6060,
      "▁May": 6061,
      "▁stream": 6062,
      "▁Pat": 6063,
      "▁death": 6064,
      "▁exercises": 6065,
      "▁availability": 6066,
      "有效地": 6067,
      "ce,": 6068,
      "ength": 6069,
      "▁excited": 6070,
      "▁serves": 6071,
      "▁Pract": 6072,
      "▁seem": 6073,
      "▁privac": 6074,
      "▁Provide": 6075,
      "运用": 6076,
      "add": 6077,
      "▁programming": 6078,
      "氧气": 6079,
      "▁showc": 6080,
      "ynam": 6081,
      "▁private": 6082,
      "▁tut": 6083,
      ".\nThe": 6084,
      "学者": 6085,
      "ommod": 6086,
      "▁hon": 6087,
      "▁fashion": 6088,
      "。对于": 6089,
      "▁equipment": 6090,
      "事实": 6091,
      "▁Me": 6092,
      ",具有": 6093,
      "▁当然可以": 6094,
      "▁Cent": 6095,
      "▁speed": 6096,
      "▁perpetuate": 6097,
      "as,": 6098,
      "bre": 6099,
      "可能是": 6100,
      "iding": 6101,
      "▁latest": 6102,
      "rief": 6103,
      "的一个": 6104,
      "▁instance,": 6105,
      "评论": 6106,
      "▁reason": 6107,
      "▁inequality": 6108,
      "ana": 6109,
      "▁Amazon": 6110,
      "▁convey": 6111,
      "▁sources,": 6112,
      "lin": 6113,
      "而言": 6114,
      "▁results": 6115,
      "▁Av": 6116,
      "▁hours": 6117,
      "▁information,": 6118,
      "▁experts": 6119,
      "()\n": 6120,
      "和支持": 6121,
      "变成": 6122,
      "▁sand": 6123,
      ",才能": 6124,
      "非常重要的": 6125,
      "▁obstac": 6126,
      "只是": 6127,
      "ample": 6128,
      "vere": 6129,
      "▁rein": 6130,
      "需求和": 6131,
      "的最": 6132,
      ",要": 6133,
      "▁serve": 6134,
      "lies": 6135,
      "':": 6136,
      "rict": 6137,
      "特定": 6138,
      "▁differen": 6139,
      "▁classic": 6140,
      "▁Name]": 6141,
      "urs": 6142,
      "▁architect": 6143,
      "。这样": 6144,
      "urthermore,": 6145,
      "▁college": 6146,
      "▁plenty": 6147,
      "▁tai": 6148,
      "▁eat": 6149,
      "▁interactive": 6150,
      "▁I'd": 6151,
      "▁numerous": 6152,
      "牛肉": 6153,
      "▁indicate": 6154,
      "▁suggests": 6155,
      "ance.": 6156,
      "▁cloud": 6157,
      "▁log": 6158,
      "还需要": 6159,
      "和建议": 6160,
      "▁Cal": 6161,
      "▁experience,": 6162,
      "▁mountain": 6163,
      "owever,": 6164,
      "让人": 6165,
      "▁lifest": 6166,
      "新型": 6167,
      "我想": 6168,
      "手段": 6169,
      "ched": 6170,
      "的特点": 6171,
      "oman": 6172,
      "▁journal": 6173,
      "演讲": 6174,
      "更容易": 6175,
      "▁biod": 6176,
      "查看": 6177,
      "▁went": 6178,
      "过于": 6179,
      ",了解": 6180,
      "▁civil": 6181,
      "▁town": 6182,
      "▁players": 6183,
      "▁schedule": 6184,
      "▁Companies": 6185,
      "影响。": 6186,
      "▁fascinating": 6187,
      "▁high-quality": 6188,
      "可持续发展": 6189,
      "les.": 6190,
      "听起来": 6191,
      "▁signs": 6192,
      "重视": 6193,
      "▁block": 6194,
      "▁meat": 6195,
      "att": 6196,
      "力学": 6197,
      "工艺": 6198,
      "物种": 6199,
      "▁justice": 6200,
      "▁Google": 6201,
      "▁Regular": 6202,
      "▁readers": 6203,
      "▁从": 6204,
      "lored": 6205,
      "这样": 6206,
      "▁manufacturing": 6207,
      "▁seek": 6208,
      ".\n\nC": 6209,
      "_d": 6210,
      "▁struct": 6211,
      "▁work.": 6212,
      "▁footprint": 6213,
      "明显": 6214,
      ",也是": 6215,
      "able.": 6216,
      "一首": 6217,
      "▁Absolutely!": 6218,
      "▁health,": 6219,
      "▁perspective": 6220,
      "▁impress": 6221,
      "ffect": 6222,
      "▁Research": 6223,
      "▁began": 6224,
      "▁becoming": 6225,
      "\n\nThe": 6226,
      "70": 6227,
      "board": 6228,
      "miss": 6229,
      "。\n首先,": 6230,
      "iar": 6231,
      "▁指": 6232,
      "▁ir": 6233,
      "▁Also": 6234,
      "解决问题": 6235,
      "▁meaningful": 6236,
      "▁guided": 6237,
      "▁scientists": 6238,
      "▁extra": 6239,
      "13": 6240,
      "▁Part": 6241,
      "带来了": 6242,
      "神的": 6243,
      "期间": 6244,
      "▁population": 6245,
      "科学家": 6246,
      "▁exciting": 6247,
      "_s": 6248,
      "▁Create": 6249,
      "▁fert": 6250,
      "品种": 6251,
      "▁tailored": 6252,
      "▁standards": 6253,
      ",该": 6254,
      "对手": 6255,
      "▁tours": 6256,
      "▁implementation": 6257,
      "如何在": 6258,
      "材质": 6259,
      "▁advancements": 6260,
      "▁Gu": 6261,
      "法规": 6262,
      "_t": 6263,
      "90": 6264,
      "▁ultimately": 6265,
      ":好的": 6266,
      "▁Healthcare": 6267,
      "\n6.": 6268,
      "一组": 6269,
      "注意事项": 6270,
      "场合": 6271,
      "原子": 6272,
      "▁basic": 6273,
      "▁interests": 6274,
      "积极的": 6275,
      "▁visitors": 6276,
      "▁fuel": 6277,
      "asive": 6278,
      "健康和": 6279,
      "▁trees": 6280,
      "。\n(": 6281,
      "表现出": 6282,
      "▁alternative": 6283,
      "区块": 6284,
      "▁Qu": 6285,
      "▁Nor": 6286,
      "展现": 6287,
      ",希望": 6288,
      "▁points": 6289,
      "▁gend": 6290,
      "▁independ": 6291,
      "▁authentic": 6292,
      "mon": 6293,
      "idents": 6294,
      "下面是": 6295,
      "也有": 6296,
      "▁prompt": 6297,
      "ates,": 6298,
      "▁potentially": 6299,
      "▁2,": 6300,
      "cise": 6301,
      "▁25": 6302,
      "▁protection": 6303,
      "▁broad": 6304,
      "▁single": 6305,
      "地点": 6306,
      "$$": 6307,
      ":通过": 6308,
      "igation": 6309,
      "▁disasters": 6310,
      "▁purchase": 6311,
      "▁position": 6312,
      "▁Pre": 6313,
      "itary": 6314,
      "▁tur": 6315,
      "▁money": 6316,
      "4,": 6317,
      "理念": 6318,
      ",可以帮助": 6319,
      "▁reef": 6320,
      "▁protein": 6321,
      "arah": 6322,
      "▁beneficial": 6323,
      "使用的": 6324,
      "▁Climate": 6325,
      "真的": 6326,
      "45": 6327,
      "目的": 6328,
      "用户的": 6329,
      "cling": 6330,
      "▁technology.": 6331,
      "▁manner.": 6332,
      "▁constant": 6333,
      "▁lost": 6334,
      "数据的": 6335,
      "over,": 6336,
      "。她": 6337,
      "▁Support": 6338,
      "或其他": 6339,
      "传统的": 6340,
      "▁influen": 6341,
      "▁resist": 6342,
      "▁Rec": 6343,
      "▁situation": 6344,
      "▁motivated": 6345,
      "ttp": 6346,
      "某个": 6347,
      "▁appear": 6348,
      "场所": 6349,
      "▁sched": 6350,
      "otes": 6351,
      "▁Gener": 6352,
      "▁mass": 6353,
      "一天": 6354,
      "一样": 6355,
      "地面": 6356,
      "Java": 6357,
      "cision": 6358,
      "▁wear": 6359,
      "▁model,": 6360,
      "▁pet": 6361,
      "alse": 6362,
      "▁accommod": 6363,
      "▁goals.": 6364,
      "_c": 6365,
      "▁migr": 6366,
      "▁So": 6367,
      "ille": 6368,
      "。\n其次,": 6369,
      "电话": 6370,
      "aim": 6371,
      "load": 6372,
      "。以下是一些": 6373,
      "易于": 6374,
      "▁self-care": 6375,
      "▁ethically": 6376,
      ",而不是": 6377,
      "▁对于": 6378,
      "▁num2": 6379,
      "▁worked": 6380,
      "▁screen": 6381,
      "sh": 6382,
      "▁empathy": 6383,
      "▁----": 6384,
      "\".": 6385,
      "(num": 6386,
      "▁serious": 6387,
      "-2": 6388,
      "▁once": 6389,
      "onic": 6390,
      "▁blood": 6391,
      "想象": 6392,
      "ipped": 6393,
      "盐、": 6394,
      "▁usually": 6395,
      "▁satisfaction": 6396,
      "▁region": 6397,
      "▁shows": 6398,
      "▁festival": 6399,
      "▁status": 6400,
      "▁took": 6401,
      "urope": 6402,
      "▁pressure": 6403,
      "Al": 6404,
      "ments.": 6405,
      "antic": 6406,
      "▁connection": 6407,
      "ches": 6408,
      "得到了": 6409,
      "来,": 6410,
      "篇文章": 6411,
      "DNA": 6412,
      "import": 6413,
      "rid": 6414,
      "▁制作": 6415,
      "城市的": 6416,
      "备用": 6417,
      "▁ble": 6418,
      "▁photos": 6419,
      "▁shape": 6420,
      "翻成": 6421,
      "规模": 6422,
      "▁fear": 6423,
      ",并将": 6424,
      "▁yog": 6425,
      "▁dish": 6426,
      "释放": 6427,
      "▁water,": 6428,
      "▁development,": 6429,
      "时刻": 6430,
      "ress,": 6431,
      "▁selection": 6432,
      "▁presence": 6433,
      "▁white": 6434,
      "▁crow": 6435,
      "▁gam": 6436,
      "原则": 6437,
      "让我": 6438,
      "▁managing": 6439,
      "cript": 6440,
      "转换为": 6441,
      "利益": 6442,
      "▁Please": 6443,
      "▁differences": 6444,
      "概率": 6445,
      "▁tree": 6446,
      "▁addition,": 6447,
      "▁diagnoses": 6448,
      "▁talk": 6449,
      "▁courses": 6450,
      "ux": 6451,
      "大学": 6452,
      "itch": 6453,
      "▁×": 6454,
      "▁Pe": 6455,
      "▁vegetarian": 6456,
      "的话": 6457,
      "自然语言": 6458,
      "▁document": 6459,
      "然而": 6460,
      "称为": 6461,
      "cess,": 6462,
      "onomic": 6463,
      "▁industry.": 6464,
      "▁elements": 6465,
      "▁weight": 6466,
      "ate,": 6467,
      "▁Sim": 6468,
      "加热": 6469,
      "▁lik": 6470,
      "▁voc": 6471,
      "▁\"S": 6472,
      "▁Impro": 6473,
      "优质": 6474,
      "backs": 6475,
      "大型": 6476,
      "。在这个": 6477,
      "得出": 6478,
      "▁wine": 6479,
      "▁representative": 6480,
      "较为": 6481,
      "上述": 6482,
      "oper": 6483,
      "▁Ne": 6484,
      "▁process.": 6485,
      "▁entertain": 6486,
      "▁snack": 6487,
      "▁pict": 6488,
      "ina": 6489,
      "自然的": 6490,
      "▁causing": 6491,
      "▁har": 6492,
      "金额": 6493,
      ",而是": 6494,
      "日本": 6495,
      "erving": 6496,
      "▁theme": 6497,
      "erved": 6498,
      "▁ste": 6499,
      "自行车": 6500,
      "化合物": 6501,
      "▁unc": 6502,
      "打开": 6503,
      ",并提供": 6504,
      ",用于": 6505,
      "fore,": 6506,
      "▁display": 6507,
      "▁neighbor": 6508,
      "ales": 6509,
      "ios": 6510,
      "▁Technology": 6511,
      "等。\n2.": 6512,
      "▁hotel": 6513,
      "的颜色": 6514,
      "▁course!": 6515,
      "▁equitable": 6516,
      "之处": 6517,
      "会导致": 6518,
      "等因素": 6519,
      "▁process,": 6520,
      "race": 6521,
      "能否": 6522,
      "▁relief": 6523,
      "▁code": 6524,
      "ull": 6525,
      "▁vary": 6526,
      "▁technique": 6527,
      "hetic": 6528,
      "理财": 6529,
      "alt": 6530,
      "高兴": 6531,
      "ilo": 6532,
      "▁satell": 6533,
      "与其他": 6534,
      "的主题": 6535,
      "认真": 6536,
      "▁fa": 6537,
      "ediate": 6538,
      "▁phone": 6539,
      "▁(N": 6540,
      "主人": 6541,
      "▁Pol": 6542,
      "▁playing": 6543,
      "right": 6544,
      "▁cit": 6545,
      "▁compon": 6546,
      "upervised": 6547,
      "▁lifestyle": 6548,
      "▁那": 6549,
      "▁tend": 6550,
      "对方的": 6551,
      "ibilities": 6552,
      "▁wonder": 6553,
      "▁nu": 6554,
      ",对于": 6555,
      "▁apps": 6556,
      "长的": 6557,
      "爱的": 6558,
      "▁propos": 6559,
      "▁Finally,": 6560,
      "失去": 6561,
      "水分": 6562,
      "ellow": 6563,
      "aced": 6564,
      "▁healthcare,": 6565,
      "▁larger": 6566,
      "支持和": 6567,
      "▁French": 6568,
      "▁industry,": 6569,
      "▁issues.": 6570,
      "s.\n\nIn": 6571,
      "▁outcomes.": 6572,
      "▁vulnerable": 6573,
      "▁published": 6574,
      "可以为": 6575,
      "国际": 6576,
      "▁partner": 6577,
      "ynthes": 6578,
      "上升": 6579,
      "▁played": 6580,
      "同事": 6581,
      "▁capable": 6582,
      "1:": 6583,
      "面粉": 6584,
      "创建一个": 6585,
      "▁Also,": 6586,
      "更为": 6587,
      "。此": 6588,
      "▁transition": 6589,
      "户外": 6590,
      "▁intelligent": 6591,
      "人民": 6592,
      "体重": 6593,
      "▁Priv": 6594,
      "▁literature": 6595,
      "ably": 6596,
      "▁Europe": 6597,
      "▁用": 6598,
      "▁teaching": 6599,
      "▁predictive": 6600,
      "▁retail": 6601,
      "ogue": 6602,
      "▁bike": 6603,
      "服装": 6604,
      "强大的": 6605,
      "ateful": 6606,
      "需要的": 6607,
      "▁Energy": 6608,
      "▁phrase": 6609,
      "内心": 6610,
      "▁hun": 6611,
      "▁artists": 6612,
      "到达": 6613,
      "▁Our": 6614,
      "▁您": 6615,
      "▁environment,": 6616,
      "次数": 6617,
      "做好": 6618,
      "很好": 6619,
      "黑色": 6620,
      "▁pan": 6621,
      "▁hur": 6622,
      "▁deb": 6623,
      "▁alert": 6624,
      "s.\n\nThe": 6625,
      "▁lives.": 6626,
      "r.": 6627,
      "的变化": 6628,
      "It": 6629,
      "了许多": 6630,
      "的行为": 6631,
      "As": 6632,
      "▁neural": 6633,
      "喜好": 6634,
      "ores": 6635,
      "整理": 6636,
      "▁regions": 6637,
      "▁Bias": 6638,
      "▁South": 6639,
      ":当": 6640,
      "医学": 6641,
      "帮我": 6642,
      "ctic": 6643,
      "人,": 6644,
      "▁Let": 6645,
      "界面": 6646,
      "水的": 6647,
      "itions": 6648,
      "感情": 6649,
      "节点": 6650,
      "world": 6651,
      "▁passion": 6652,
      "oreover,": 6653,
      "cient": 6654,
      "quir": 6655,
      "▁delivery": 6656,
      "▁Encourage": 6657,
      "▁dow": 6658,
      "oon": 6659,
      "是什么?": 6660,
      "▁limitations": 6661,
      "?\n\n": 6662,
      "yd": 6663,
      "人体": 6664,
      "▁congest": 6665
    },
    "merges": [
      [
        "▁",
        "t"
      ],
      [
        "▁",
        "a"
      ],
      [
        "i",
        "n"
      ],
      [
        "h",
        "e"
      ],
      [
        "r",
        "e"
      ],
      [
        "o",
        "n"
      ],
      [
        "a",
        "t"
      ],
      [
        "▁",
        "s"
      ],
      [
        "▁",
        "c"
      ],
      [
        "n",
        "d"
      ],
      [
        "e",
        "r"
      ],
      [
        "▁t",
        "he"
      ],
      [
        "e",
        "s"
      ],
      [
        "e",
        "n"
      ],
      [
        "o",
        "r"
      ],
      [
        "a",
        "n"
      ],
      [
        "▁a",
        "nd"
      ],
      [
        "▁",
        "p"
      ],
      [
        "in",
        "g"
      ],
      [
        "i",
        "t"
      ],
      [
        "a",
        "l"
      ],
      [
        "▁",
        "o"
      ],
      [
        "▁",
        "w"
      ],
      [
        "▁t",
        "o"
      ],
      [
        "i",
        "s"
      ],
      [
        "o",
        "u"
      ],
      [
        "▁",
        "m"
      ],
      [
        "▁",
        "in"
      ],
      [
        "▁",
        "f"
      ],
      [
        "▁",
        "b"
      ],
      [
        "e",
        "d"
      ],
      [
        "i",
        "on"
      ],
      [
        "i",
        "c"
      ],
      [
        "▁",
        "d"
      ],
      [
        "▁o",
        "f"
      ],
      [
        "l",
        "e"
      ],
      [
        "a",
        "r"
      ],
      [
        "r",
        "o"
      ],
      [
        "en",
        "t"
      ],
      [
        "▁",
        "e"
      ],
      [
        "v",
        "e"
      ],
      [
        "u",
        "s"
      ],
      [
        "▁",
        "re"
      ],
      [
        "▁",
        "h"
      ],
      [
        "▁t",
        "h"
      ],
      [
        "a",
        "s"
      ],
      [
        "c",
        "t"
      ],
      [
        "o",
        "m"
      ],
      [
        "i",
        "m"
      ],
      [
        "at",
        "ion"
      ],
      [
        "l",
        "o"
      ],
      [
        "\n",
        "\n"
      ],
      [
        "。",
        "\n"
      ],
      [
        "▁b",
        "e"
      ],
      [
        "i",
        "d"
      ],
      [
        "▁c",
        "an"
      ],
      [
        "i",
        "l"
      ],
      [
        "▁",
        "A"
      ],
      [
        "▁",
        "T"
      ],
      [
        "▁th",
        "at"
      ],
      [
        "c",
        "h"
      ],
      [
        "▁",
        "y"
      ],
      [
        "c",
        "e"
      ],
      [
        "o",
        "t"
      ],
      [
        "er",
        "s"
      ],
      [
        "▁",
        "n"
      ],
      [
        "r",
        "a"
      ],
      [
        "▁",
        "g"
      ],
      [
        "▁y",
        "ou"
      ],
      [
        "▁p",
        "ro"
      ],
      [
        "e",
        "t"
      ],
      [
        "l",
        "y"
      ],
      [
        "▁",
        "is"
      ],
      [
        "▁",
        "l"
      ],
      [
        "u",
        "r"
      ],
      [
        "▁f",
        "or"
      ],
      [
        ".",
        "\n\n"
      ],
      [
        "s",
        "t"
      ],
      [
        "▁",
        "I"
      ],
      [
        "u",
        "t"
      ],
      [
        "▁",
        "he"
      ],
      [
        "i",
        "f"
      ],
      [
        "i",
        "r"
      ],
      [
        "it",
        "h"
      ],
      [
        "▁a",
        "re"
      ],
      [
        "i",
        "g"
      ],
      [
        "▁s",
        "t"
      ],
      [
        "e",
        "l"
      ],
      [
        "o",
        "l"
      ],
      [
        "u",
        "l"
      ],
      [
        "s",
        ","
      ],
      [
        "▁",
        "on"
      ],
      [
        "▁",
        "us"
      ],
      [
        "a",
        "y"
      ],
      [
        "o",
        "w"
      ],
      [
        "m",
        "ent"
      ],
      [
        "▁e",
        "x"
      ],
      [
        "es",
        "s"
      ],
      [
        "▁c",
        "on"
      ],
      [
        "s",
        "e"
      ],
      [
        "▁a",
        "n"
      ],
      [
        "▁w",
        "ith"
      ],
      [
        "at",
        "e"
      ],
      [
        "i",
        "v"
      ],
      [
        "a",
        "m"
      ],
      [
        "▁a",
        "s"
      ],
      [
        "u",
        "re"
      ],
      [
        "▁",
        "or"
      ],
      [
        "▁a",
        "l"
      ],
      [
        "i",
        "es"
      ],
      [
        "▁",
        "im"
      ],
      [
        "v",
        "er"
      ],
      [
        "a",
        "b"
      ],
      [
        "▁s",
        "u"
      ],
      [
        "▁d",
        "e"
      ],
      [
        "g",
        "e"
      ],
      [
        "t",
        "h"
      ],
      [
        "可",
        "以"
      ],
      [
        "▁",
        "C"
      ],
      [
        "▁A",
        "I"
      ],
      [
        "▁",
        "en"
      ],
      [
        "a",
        "k"
      ],
      [
        "i",
        "ve"
      ],
      [
        "▁m",
        "o"
      ],
      [
        "it",
        "y"
      ],
      [
        "u",
        "n"
      ],
      [
        "▁",
        "it"
      ],
      [
        "▁im",
        "p"
      ],
      [
        "e",
        "ct"
      ],
      [
        "or",
        "t"
      ],
      [
        "a",
        "d"
      ],
      [
        "s",
        "."
      ],
      [
        "e",
        "m"
      ],
      [
        "▁",
        "S"
      ],
      [
        "▁c",
        "om"
      ],
      [
        "▁T",
        "he"
      ],
      [
        "he",
        "r"
      ],
      [
        "e",
        "re"
      ],
      [
        "i",
        "al"
      ],
      [
        "p",
        "p"
      ],
      [
        "q",
        "u"
      ],
      [
        "▁w",
        "h"
      ],
      [
        "an",
        "t"
      ],
      [
        "▁",
        "le"
      ],
      [
        "▁",
        "v"
      ],
      [
        "us",
        "t"
      ],
      [
        "l",
        "d"
      ],
      [
        "t",
        "er"
      ],
      [
        "▁c",
        "h"
      ],
      [
        "u",
        "d"
      ],
      [
        "▁",
        "|"
      ],
      [
        "a",
        "c"
      ],
      [
        "a",
        "in"
      ],
      [
        "i",
        "z"
      ],
      [
        "▁",
        "H"
      ],
      [
        "▁h",
        "a"
      ],
      [
        "-",
        "-"
      ],
      [
        "om",
        "e"
      ],
      [
        "'",
        "s"
      ],
      [
        "▁n",
        "e"
      ],
      [
        "es",
        "t"
      ],
      [
        "u",
        "m"
      ],
      [
        "is",
        "t"
      ],
      [
        "一",
        "个"
      ],
      [
        "l",
        "p"
      ],
      [
        "▁he",
        "lp"
      ],
      [
        "▁the",
        "ir"
      ],
      [
        ":",
        "\n"
      ],
      [
        "▁T",
        "h"
      ],
      [
        "我",
        "们"
      ],
      [
        "n",
        "t"
      ],
      [
        "p",
        "e"
      ],
      [
        "id",
        "e"
      ],
      [
        "▁",
        "M"
      ],
      [
        "a",
        "re"
      ],
      [
        "f",
        "f"
      ],
      [
        "o",
        "d"
      ],
      [
        "ic",
        "al"
      ],
      [
        "▁w",
        "or"
      ],
      [
        "re",
        "s"
      ],
      [
        "▁you",
        "r"
      ],
      [
        "1",
        "."
      ],
      [
        "▁t",
        "e"
      ],
      [
        "d",
        "u"
      ],
      [
        "2",
        "."
      ],
      [
        "▁a",
        "d"
      ],
      [
        "il",
        "l"
      ],
      [
        "o",
        "c"
      ],
      [
        "a",
        "ct"
      ],
      [
        "需",
        "要"
      ],
      [
        "▁",
        "r"
      ],
      [
        "▁mo",
        "re"
      ],
      [
        "ig",
        "h"
      ],
      [
        "▁",
        "B"
      ],
      [
        "3",
        "."
      ],
      [
        "▁in",
        "c"
      ],
      [
        "p",
        "le"
      ],
      [
        "es",
        ","
      ],
      [
        "▁ex",
        "p"
      ],
      [
        "ou",
        "ld"
      ],
      [
        "▁",
        "P"
      ],
      [
        "p",
        "t"
      ],
      [
        "al",
        "l"
      ],
      [
        "▁s",
        "e"
      ],
      [
        "ou",
        "t"
      ],
      [
        "▁ha",
        "ve"
      ],
      [
        "▁Th",
        "is"
      ],
      [
        "▁pro",
        "v"
      ],
      [
        "▁us",
        "ed"
      ],
      [
        "ion",
        "s"
      ],
      [
        "c",
        "c"
      ],
      [
        "▁s",
        "h"
      ],
      [
        "▁a",
        "b"
      ],
      [
        "▁",
        "W"
      ],
      [
        "▁re",
        "s"
      ],
      [
        "a",
        "ge"
      ],
      [
        "r",
        "i"
      ],
      [
        "o",
        "s"
      ],
      [
        "ab",
        "le"
      ],
      [
        "▁b",
        "y"
      ],
      [
        "▁",
        "lo"
      ],
      [
        "a",
        "nd"
      ],
      [
        "f",
        "or"
      ],
      [
        "ro",
        "m"
      ],
      [
        "re",
        "at"
      ],
      [
        "▁p",
        "l"
      ],
      [
        "ation",
        "s"
      ],
      [
        "4",
        "."
      ],
      [
        "▁w",
        "e"
      ],
      [
        "ak",
        "e"
      ],
      [
        "▁m",
        "e"
      ],
      [
        "t",
        "her"
      ],
      [
        "k",
        "e"
      ],
      [
        "▁",
        "E"
      ],
      [
        "▁s",
        "ome"
      ],
      [
        "in",
        "e"
      ],
      [
        "ou",
        "r"
      ],
      [
        "▁",
        "D"
      ],
      [
        "r",
        "ou"
      ],
      [
        "an",
        "s"
      ],
      [
        "▁in",
        "t"
      ],
      [
        "an",
        "ce"
      ],
      [
        "a",
        "g"
      ],
      [
        "0",
        "0"
      ],
      [
        "ul",
        "t"
      ],
      [
        "y",
        "st"
      ],
      [
        "▁",
        "F"
      ],
      [
        "▁t",
        "r"
      ],
      [
        "p",
        "l"
      ],
      [
        "ar",
        "t"
      ],
      [
        "at",
        "a"
      ],
      [
        "for",
        "m"
      ],
      [
        "▁f",
        "rom"
      ],
      [
        "igh",
        "t"
      ],
      [
        "lo",
        "p"
      ],
      [
        "▁",
        "R"
      ],
      [
        "▁f",
        "e"
      ],
      [
        "ve",
        "lop"
      ],
      [
        "▁",
        "u"
      ],
      [
        "yst",
        "em"
      ],
      [
        "▁d",
        "is"
      ],
      [
        "g",
        "y"
      ],
      [
        "en",
        "ce"
      ],
      [
        "▁t",
        "ra"
      ],
      [
        "ig",
        "n"
      ],
      [
        "al",
        "th"
      ],
      [
        "▁su",
        "ch"
      ],
      [
        "a",
        "ch"
      ],
      [
        "ar",
        "n"
      ],
      [
        "▁d",
        "ata"
      ],
      [
        "s",
        "o"
      ],
      [
        "▁de",
        "velop"
      ],
      [
        "▁a",
        "cc"
      ],
      [
        "▁wor",
        "k"
      ],
      [
        "as",
        "t"
      ],
      [
        "▁",
        "\""
      ],
      [
        "▁o",
        "ther"
      ],
      [
        ",",
        "并"
      ],
      [
        "▁e",
        "ff"
      ],
      [
        "c",
        "es"
      ],
      [
        "▁m",
        "an"
      ],
      [
        "5",
        "."
      ],
      [
        "if",
        "ic"
      ],
      [
        "▁",
        "j"
      ],
      [
        "▁",
        "ro"
      ],
      [
        "▁h",
        "as"
      ],
      [
        "ch",
        "n"
      ],
      [
        "o",
        "lo"
      ],
      [
        "使",
        "用"
      ],
      [
        "u",
        "al"
      ],
      [
        "▁a",
        "t"
      ],
      [
        "▁e",
        "m"
      ],
      [
        "el",
        "l"
      ],
      [
        "▁s",
        "ystem"
      ],
      [
        "▁he",
        "alth"
      ],
      [
        "it",
        "ies"
      ],
      [
        "▁ex",
        "am"
      ],
      [
        "▁",
        "1"
      ],
      [
        "i",
        "b"
      ],
      [
        "▁ab",
        "out"
      ],
      [
        "it",
        "ion"
      ],
      [
        "▁p",
        "re"
      ],
      [
        "▁al",
        "so"
      ],
      [
        "▁in",
        "d"
      ],
      [
        "ou",
        "s"
      ],
      [
        "in",
        "d"
      ],
      [
        "▁te",
        "chn"
      ],
      [
        "i",
        "ent"
      ],
      [
        "问",
        "题"
      ],
      [
        "▁us",
        "e"
      ],
      [
        "▁inc",
        "l"
      ],
      [
        "▁s",
        "pe"
      ],
      [
        "ic",
        "h"
      ],
      [
        "▁the",
        "y"
      ],
      [
        "i",
        "e"
      ],
      [
        "▁h",
        "ow"
      ],
      [
        "▁imp",
        "ro"
      ],
      [
        "▁le",
        "arn"
      ],
      [
        "▁con",
        "t"
      ],
      [
        "i",
        "p"
      ],
      [
        "ar",
        "d"
      ],
      [
        "g",
        "h"
      ],
      [
        "_",
        "_"
      ],
      [
        "▁n",
        "ot"
      ],
      [
        "▁prov",
        "ide"
      ],
      [
        "▁en",
        "s"
      ],
      [
        "res",
        "s"
      ],
      [
        "ent",
        "ial"
      ],
      [
        ":",
        "\n\n"
      ],
      [
        "ac",
        "k"
      ],
      [
        "an",
        "g"
      ],
      [
        "m",
        "s"
      ],
      [
        "▁",
        "G"
      ],
      [
        "e",
        "nd"
      ],
      [
        "▁p",
        "o"
      ],
      [
        "进",
        "行"
      ],
      [
        "▁",
        "-"
      ],
      [
        "ic",
        "e"
      ],
      [
        "▁w",
        "ay"
      ],
      [
        "im",
        "e"
      ],
      [
        "自",
        "己"
      ],
      [
        "▁",
        "un"
      ],
      [
        "b",
        "ot"
      ],
      [
        "▁incl",
        "ud"
      ],
      [
        "at",
        "ed"
      ],
      [
        "▁",
        "L"
      ],
      [
        "pp",
        "ort"
      ],
      [
        "o",
        "od"
      ],
      [
        "i",
        "ke"
      ],
      [
        "r",
        "u"
      ],
      [
        "▁com",
        "m"
      ],
      [
        "▁w",
        "as"
      ],
      [
        "lo",
        "w"
      ],
      [
        "o",
        "re"
      ],
      [
        "er",
        "v"
      ],
      [
        "▁w",
        "he"
      ],
      [
        "▁wh",
        "ich"
      ],
      [
        "▁com",
        "p"
      ],
      [
        "▁",
        "="
      ],
      [
        "if",
        "f"
      ],
      [
        "er",
        "t"
      ],
      [
        "▁re",
        "c"
      ],
      [
        "▁p",
        "at"
      ],
      [
        "--",
        "--"
      ],
      [
        "▁a",
        "pp"
      ],
      [
        "y",
        ","
      ],
      [
        "a",
        "ce"
      ],
      [
        "al",
        "y"
      ],
      [
        "r",
        "it"
      ],
      [
        "a",
        "v"
      ],
      [
        "▁",
        "N"
      ],
      [
        "▁p",
        "ers"
      ],
      [
        "▁m",
        "y"
      ],
      [
        "er",
        "i"
      ],
      [
        "o",
        "k"
      ],
      [
        ",",
        "以"
      ],
      [
        "▁d",
        "iff"
      ],
      [
        "▁th",
        "is"
      ],
      [
        "▁ens",
        "ure"
      ],
      [
        "▁",
        "("
      ],
      [
        "▁o",
        "ut"
      ],
      [
        "▁c",
        "l"
      ],
      [
        "▁",
        "k"
      ],
      [
        "▁I",
        "t"
      ],
      [
        "es",
        "."
      ],
      [
        "ou",
        "nt"
      ],
      [
        "▁techn",
        "olo"
      ],
      [
        "▁ad",
        "d"
      ],
      [
        "▁the",
        "se"
      ],
      [
        "f",
        "ul"
      ],
      [
        "▁",
        "Y"
      ],
      [
        "ct",
        "ion"
      ],
      [
        "e",
        "p"
      ],
      [
        "一",
        "些"
      ],
      [
        "▁s",
        "oc"
      ],
      [
        "▁",
        "2"
      ],
      [
        "▁e",
        "v"
      ],
      [
        "▁re",
        "du"
      ],
      [
        "▁the",
        "m"
      ],
      [
        "通",
        "过"
      ],
      [
        "▁",
        "O"
      ],
      [
        "▁c",
        "o"
      ],
      [
        "▁an",
        "aly"
      ],
      [
        "▁impro",
        "ve"
      ],
      [
        "ing",
        ","
      ],
      [
        "中",
        ","
      ],
      [
        "▁",
        "qu"
      ],
      [
        "▁h",
        "um"
      ],
      [
        "il",
        "ity"
      ],
      [
        "a",
        "il"
      ],
      [
        "这",
        "个"
      ],
      [
        "提",
        "供"
      ],
      [
        "as",
        "e"
      ],
      [
        "▁p",
        "ot"
      ],
      [
        ":\n\n",
        "1."
      ],
      [
        "▁an",
        "y"
      ],
      [
        "▁con",
        "s"
      ],
      [
        "s",
        ".\n\n"
      ],
      [
        "▁a",
        "r"
      ],
      [
        "▁d",
        "o"
      ],
      [
        "▁m",
        "ay"
      ],
      [
        "id",
        "ent"
      ],
      [
        "选",
        "择"
      ],
      [
        "u",
        "e"
      ],
      [
        "▁l",
        "ike"
      ],
      [
        "on",
        "g"
      ],
      [
        "`",
        "`"
      ],
      [
        "i",
        "le"
      ],
      [
        "▁ne",
        "w"
      ],
      [
        "▁imp",
        "act"
      ],
      [
        "a",
        "p"
      ],
      [
        "e",
        "f"
      ],
      [
        "▁pot",
        "ential"
      ],
      [
        "n",
        "s"
      ],
      [
        "可",
        "能"
      ],
      [
        "▁tr",
        "ans"
      ],
      [
        "▁spe",
        "c"
      ],
      [
        "▁w",
        "ill"
      ],
      [
        "好",
        "的"
      ],
      [
        "iz",
        "e"
      ],
      [
        "▁st",
        "ud"
      ],
      [
        ")",
        "\n"
      ],
      [
        "不",
        "同"
      ],
      [
        "on",
        "e"
      ],
      [
        "如",
        "果"
      ],
      [
        ".",
        "\n"
      ],
      [
        "an",
        "ge"
      ],
      [
        "▁res",
        "p"
      ],
      [
        "▁ne",
        "ed"
      ],
      [
        "at",
        "er"
      ],
      [
        "▁pers",
        "on"
      ],
      [
        "▁s",
        "o"
      ],
      [
        "▁m",
        "ake"
      ],
      [
        "i",
        "re"
      ],
      [
        "。\n",
        "2."
      ],
      [
        "▁in",
        "form"
      ],
      [
        "as",
        "ed"
      ],
      [
        "il",
        "d"
      ],
      [
        "▁of",
        "f"
      ],
      [
        "▁the",
        "re"
      ],
      [
        "c",
        "is"
      ],
      [
        "▁I",
        "n"
      ],
      [
        "ak",
        "ing"
      ],
      [
        "▁C",
        "an"
      ],
      [
        "▁d",
        "es"
      ],
      [
        "i",
        "et"
      ],
      [
        "▁p",
        "e"
      ],
      [
        "▁wh",
        "o"
      ],
      [
        "if",
        "y"
      ],
      [
        "ar",
        "k"
      ],
      [
        "▁exp",
        "eri"
      ],
      [
        "时",
        ","
      ],
      [
        "▁s",
        "c"
      ],
      [
        "▁t",
        "ime"
      ],
      [
        "非",
        "常"
      ],
      [
        "。\n",
        "3."
      ],
      [
        "▁comm",
        "un"
      ],
      [
        "▁s",
        "p"
      ],
      [
        "▁c",
        "ould"
      ],
      [
        "r",
        "y"
      ],
      [
        "l",
        "ic"
      ],
      [
        "▁it",
        "s"
      ],
      [
        "▁m",
        "ed"
      ],
      [
        "▁c",
        "ol"
      ],
      [
        "as",
        "s"
      ],
      [
        "ul",
        "ar"
      ],
      [
        "重",
        "要"
      ],
      [
        ",",
        "这"
      ],
      [
        "ra",
        "ct"
      ],
      [
        "▁prov",
        "id"
      ],
      [
        "▁imp",
        "ort"
      ],
      [
        "ur",
        "al"
      ],
      [
        "ly",
        ","
      ],
      [
        "▁u",
        "nd"
      ],
      [
        "in",
        "t"
      ],
      [
        "▁o",
        "ver"
      ],
      [
        "他",
        "们"
      ],
      [
        "g",
        "ra"
      ],
      [
        "c",
        "ess"
      ],
      [
        "or",
        "s"
      ],
      [
        "n",
        "ow"
      ],
      [
        "▁learn",
        "ing"
      ],
      [
        "▁p",
        "r"
      ],
      [
        "是",
        "一"
      ],
      [
        "包",
        "括"
      ],
      [
        "c",
        "k"
      ],
      [
        ":\n",
        "1."
      ],
      [
        "▁",
        "ident"
      ],
      [
        "ur",
        "ing"
      ],
      [
        "自己",
        "的"
      ],
      [
        "bot",
        "s"
      ],
      [
        "g",
        "or"
      ],
      [
        "▁su",
        "pport"
      ],
      [
        "n",
        "e"
      ],
      [
        "▁diff",
        "ere"
      ],
      [
        "on",
        "s"
      ],
      [
        "▁as",
        "s"
      ],
      [
        "▁g",
        "o"
      ],
      [
        "▁technolo",
        "gy"
      ],
      [
        "▁in",
        "ter"
      ],
      [
        "▁in",
        "v"
      ],
      [
        "▁o",
        "ur"
      ],
      [
        "▁system",
        "s"
      ],
      [
        "数",
        "据"
      ],
      [
        "ust",
        "om"
      ],
      [
        "▁re",
        "l"
      ],
      [
        "if",
        "e"
      ],
      [
        "▁p",
        "art"
      ],
      [
        "。",
        "这"
      ],
      [
        "以",
        "下"
      ],
      [
        "中",
        "的"
      ],
      [
        "▁u",
        "p"
      ],
      [
        "at",
        "ive"
      ],
      [
        "帮",
        "助"
      ],
      [
        "▁H",
        "ere"
      ],
      [
        "pl",
        "es"
      ],
      [
        "▁b",
        "ut"
      ],
      [
        "公",
        "司"
      ],
      [
        "▁a",
        "ct"
      ],
      [
        "▁a",
        "m"
      ],
      [
        "gor",
        "ith"
      ],
      [
        ",",
        "可以"
      ],
      [
        "▁H",
        "ow"
      ],
      [
        "\n",
        "-"
      ],
      [
        "▁p",
        "er"
      ],
      [
        "▁eff",
        "ect"
      ],
      [
        "▁pro",
        "du"
      ],
      [
        "▁sh",
        "ould"
      ],
      [
        ",",
        "我们"
      ],
      [
        "ic",
        "t"
      ],
      [
        "▁al",
        "gorith"
      ],
      [
        "rou",
        "gh"
      ],
      [
        "▁be",
        "t"
      ],
      [
        "at",
        "ing"
      ],
      [
        "i",
        "a"
      ],
      [
        "▁analy",
        "z"
      ],
      [
        "根",
        "据"
      ],
      [
        "iz",
        "ed"
      ],
      [
        "T",
        "he"
      ],
      [
        "▁hum",
        "an"
      ],
      [
        "▁c",
        "ustom"
      ],
      [
        "ir",
        "on"
      ],
      [
        "▁re",
        "g"
      ],
      [
        "▁person",
        "al"
      ],
      [
        "能",
        "够"
      ],
      [
        "iv",
        "id"
      ],
      [
        "g",
        "an"
      ],
      [
        "▁",
        "U"
      ],
      [
        "▁al",
        "l"
      ],
      [
        "am",
        "e"
      ],
      [
        "k",
        "s"
      ],
      [
        "?",
        "\n"
      ],
      [
        "c",
        "y"
      ],
      [
        "el",
        "f"
      ],
      [
        ",",
        "但"
      ],
      [
        "th",
        "ical"
      ],
      [
        "v",
        "iron"
      ],
      [
        "viron",
        "ment"
      ],
      [
        "\n",
        "|"
      ],
      [
        "or",
        "d"
      ],
      [
        "▁s",
        "ign"
      ],
      [
        "ou",
        "nd"
      ],
      [
        "o",
        "ple"
      ],
      [
        "▁inform",
        "ation"
      ],
      [
        "▁ident",
        "ify"
      ],
      [
        "▁c",
        "re"
      ],
      [
        "ib",
        "le"
      ],
      [
        "u",
        "b"
      ],
      [
        "ent",
        "s"
      ],
      [
        "▁le",
        "ad"
      ],
      [
        "g",
        "et"
      ],
      [
        "▁exam",
        "ple"
      ],
      [
        "影",
        "响"
      ],
      [
        "is",
        "h"
      ],
      [
        "x",
        "t"
      ],
      [
        "o",
        "b"
      ],
      [
        "时",
        "间"
      ],
      [
        "d",
        "ition"
      ],
      [
        "ivid",
        "ual"
      ],
      [
        "ere",
        "d"
      ],
      [
        "ar",
        "y"
      ],
      [
        "▁en",
        "vironment"
      ],
      [
        "en",
        "s"
      ],
      [
        "▁pe",
        "ople"
      ],
      [
        "▁d",
        "et"
      ],
      [
        "▁",
        "if"
      ],
      [
        "it",
        "e"
      ],
      [
        "o",
        "se"
      ],
      [
        "▁",
        "J"
      ],
      [
        "c",
        "ation"
      ],
      [
        "方",
        "式"
      ],
      [
        "at",
        "ure"
      ],
      [
        "or",
        "y"
      ],
      [
        "▁int",
        "o"
      ],
      [
        ".\n\n",
        "2."
      ],
      [
        "提",
        "高"
      ],
      [
        "ment",
        "s"
      ],
      [
        "环",
        "境"
      ],
      [
        ".\n\n",
        "3."
      ],
      [
        "ers",
        "t"
      ],
      [
        "▁e",
        "thical"
      ],
      [
        "i",
        "ous"
      ],
      [
        "6",
        "."
      ],
      [
        "▁differe",
        "nt"
      ],
      [
        "▁k",
        "now"
      ],
      [
        "▁ind",
        "ividual"
      ],
      [
        "rou",
        "nd"
      ],
      [
        "。\n",
        "4."
      ],
      [
        "▁exam",
        "ples"
      ],
      [
        ",",
        "我"
      ],
      [
        "om",
        "m"
      ],
      [
        "▁man",
        "y"
      ],
      [
        "它",
        "们"
      ],
      [
        "▁m",
        "ent"
      ],
      [
        "▁o",
        "pt"
      ],
      [
        "▁import",
        "ant"
      ],
      [
        "▁|",
        "\n|"
      ],
      [
        "p",
        "h"
      ],
      [
        "▁pat",
        "ient"
      ],
      [
        "n",
        "ess"
      ],
      [
        "设",
        "计"
      ],
      [
        "▁soc",
        "ial"
      ],
      [
        "▁",
        "\n"
      ],
      [
        "例",
        "如"
      ],
      [
        ".\n\n",
        "4."
      ],
      [
        "▁a",
        "ut"
      ],
      [
        "▁s",
        "erv"
      ],
      [
        "g",
        "g"
      ],
      [
        "产",
        "品"
      ],
      [
        "it",
        "s"
      ],
      [
        "ve",
        "l"
      ],
      [
        "方",
        "法"
      ],
      [
        "▁b",
        "en"
      ],
      [
        "因",
        "此"
      ],
      [
        "c",
        "are"
      ],
      [
        "ver",
        "y"
      ],
      [
        "p",
        "er"
      ],
      [
        "建",
        "议"
      ],
      [
        "▁p",
        "os"
      ],
      [
        "w",
        "e"
      ],
      [
        "i",
        "qu"
      ],
      [
        "▁re",
        "al"
      ],
      [
        "▁redu",
        "ce"
      ],
      [
        "a",
        "f"
      ],
      [
        "ang",
        "u"
      ],
      [
        "▁s",
        "k"
      ],
      [
        "▁",
        "ed"
      ],
      [
        "erst",
        "and"
      ],
      [
        "m",
        "ot"
      ],
      [
        "应",
        "该"
      ],
      [
        "▁th",
        "rough"
      ],
      [
        "。",
        "在"
      ],
      [
        "▁con",
        "c"
      ],
      [
        "发",
        "展"
      ],
      [
        "▁W",
        "h"
      ],
      [
        "▁ad",
        "v"
      ],
      [
        "技",
        "术"
      ],
      [
        "▁ben",
        "ef"
      ],
      [
        "▁develop",
        "ment"
      ],
      [
        "-",
        "p"
      ],
      [
        "en",
        "g"
      ],
      [
        "iet",
        "y"
      ],
      [
        "如",
        "何"
      ],
      [
        "ion",
        "al"
      ],
      [
        "iv",
        "ers"
      ],
      [
        "▁r",
        "is"
      ],
      [
        "ro",
        "w"
      ],
      [
        "er",
        "gy"
      ],
      [
        "计",
        "算"
      ],
      [
        "信",
        "息"
      ],
      [
        "▁algorith",
        "ms"
      ],
      [
        "▁pro",
        "cess"
      ],
      [
        "ic",
        "es"
      ],
      [
        "其",
        "他"
      ],
      [
        "▁g",
        "reat"
      ],
      [
        "e",
        "ar"
      ],
      [
        "j",
        "ect"
      ],
      [
        "all",
        ","
      ],
      [
        "le",
        "ct"
      ],
      [
        "生",
        "活"
      ],
      [
        "▁und",
        "erstand"
      ],
      [
        "▁pro",
        "gra"
      ],
      [
        "an",
        "c"
      ],
      [
        "▁w",
        "rit"
      ],
      [
        "▁includ",
        "ing"
      ],
      [
        "r",
        "ic"
      ],
      [
        "o",
        "g"
      ],
      [
        ";",
        "\n"
      ],
      [
        "▁ar",
        "t"
      ],
      [
        "▁p",
        "h"
      ],
      [
        "▁inc",
        "re"
      ],
      [
        "方",
        "面"
      ],
      [
        "▁p",
        "ract"
      ],
      [
        "▁us",
        "ing"
      ],
      [
        "▁acc",
        "ess"
      ],
      [
        "▁l",
        "angu"
      ],
      [
        "▁ch",
        "all"
      ],
      [
        "on",
        "d"
      ],
      [
        "__",
        "__"
      ],
      [
        "im",
        "ate"
      ],
      [
        "l",
        "l"
      ],
      [
        "▁w",
        "ell"
      ],
      [
        "▁p",
        "ol"
      ],
      [
        "▁",
        "ra"
      ],
      [
        "in",
        "es"
      ],
      [
        "▁v",
        "ar"
      ],
      [
        "b",
        "er"
      ],
      [
        "▁F",
        "or"
      ],
      [
        "▁g",
        "en"
      ],
      [
        "h",
        "ip"
      ],
      [
        "▁g",
        "u"
      ],
      [
        "t",
        "e"
      ],
      [
        "▁sign",
        "ific"
      ],
      [
        "▁de",
        "cis"
      ],
      [
        "▁a",
        "g"
      ],
      [
        "▁tra",
        "in"
      ],
      [
        "ar",
        "m"
      ],
      [
        "▁c",
        "reat"
      ],
      [
        "▁on",
        "e"
      ],
      [
        "ing",
        "s"
      ],
      [
        "学",
        "习"
      ],
      [
        "更",
        "加"
      ],
      [
        "▁whe",
        "n"
      ],
      [
        "▁b",
        "i"
      ],
      [
        "工",
        "作"
      ],
      [
        "p",
        "ort"
      ],
      [
        "▁be",
        "en"
      ],
      [
        "▁l",
        "ife"
      ],
      [
        "用",
        "户"
      ],
      [
        "c",
        "om"
      ],
      [
        "ing",
        "."
      ],
      [
        "▁mo",
        "d"
      ],
      [
        "our",
        "ces"
      ],
      [
        "▁or",
        "gan"
      ],
      [
        "什",
        "么"
      ],
      [
        "in",
        "k"
      ],
      [
        "▁en",
        "ergy"
      ],
      [
        "ert",
        "ain"
      ],
      [
        "m",
        "m"
      ],
      [
        "s",
        ":"
      ],
      [
        "ver",
        "all,"
      ],
      [
        "▁lo",
        "c"
      ],
      [
        "▁re",
        "qu"
      ],
      [
        "▁",
        "ess"
      ],
      [
        "v",
        "ing"
      ],
      [
        "ust",
        "ain"
      ],
      [
        "▁dis",
        "c"
      ],
      [
        "ab",
        "ility"
      ],
      [
        "▁ed",
        "u"
      ],
      [
        "re",
        "e"
      ],
      [
        "▁cre",
        "ate"
      ],
      [
        "▁st",
        "r"
      ],
      [
        "健",
        "康"
      ],
      [
        "▁des",
        "ign"
      ],
      [
        "ation",
        ","
      ],
      [
        "▁",
        "V"
      ],
      [
        "▁B",
        "y"
      ],
      [
        "in",
        "ess"
      ],
      [
        ",",
        "而"
      ],
      [
        "▁whe",
        "re"
      ],
      [
        "了",
        "解"
      ],
      [
        ".\n\n",
        "5."
      ],
      [
        "'",
        "t"
      ],
      [
        "是",
        "一个"
      ],
      [
        "ion",
        ","
      ],
      [
        "▁be",
        "ing"
      ],
      [
        "ar",
        "ch"
      ],
      [
        "dition",
        "al"
      ],
      [
        "l",
        "es"
      ],
      [
        "▁example",
        ","
      ],
      [
        "▁S",
        "t"
      ],
      [
        "▁wh",
        "ile"
      ],
      [
        "▁signific",
        "ant"
      ],
      [
        "it",
        "ive"
      ],
      [
        "▁langu",
        "age"
      ],
      [
        "▁analyz",
        "e"
      ],
      [
        "▁C",
        "h"
      ],
      [
        "个",
        "人"
      ],
      [
        "2",
        "0"
      ],
      [
        "ri",
        "b"
      ],
      [
        "▁health",
        "care"
      ],
      [
        "▁experi",
        "ence"
      ],
      [
        "o",
        "ok"
      ],
      [
        "p",
        "lo"
      ],
      [
        "▁I",
        "'"
      ],
      [
        "▁w",
        "ould"
      ],
      [
        "ver",
        ","
      ],
      [
        "保",
        "持"
      ],
      [
        "▁ment",
        "al"
      ],
      [
        "▁fe",
        "w"
      ],
      [
        "u",
        "es"
      ],
      [
        "过",
        "程"
      ],
      [
        "安",
        "全"
      ],
      [
        "▁s",
        "ustain"
      ],
      [
        "情",
        "况"
      ],
      [
        "▁w",
        "ere"
      ],
      [
        "re",
        "d"
      ],
      [
        "▁spec",
        "ific"
      ],
      [
        "▁wor",
        "ld"
      ],
      [
        "▁",
        "3"
      ],
      [
        "``",
        "`"
      ],
      [
        "▁t",
        "ake"
      ],
      [
        "S",
        "S"
      ],
      [
        "▁ro",
        "bots"
      ],
      [
        "▁m",
        "us"
      ],
      [
        "服",
        "务"
      ],
      [
        "t",
        "en"
      ],
      [
        "▁e",
        "c"
      ],
      [
        "智",
        "能"
      ],
      [
        "▁A",
        "s"
      ],
      [
        "v",
        "ent"
      ],
      [
        "▁pro",
        "t"
      ],
      [
        "1",
        "0"
      ],
      [
        "▁h",
        "igh"
      ],
      [
        ",",
        "在"
      ],
      [
        "▁b",
        "us"
      ],
      [
        "▁ind",
        "ust"
      ],
      [
        "人",
        "们"
      ],
      [
        "ad",
        "e"
      ],
      [
        "▁h",
        "ad"
      ],
      [
        "▁he",
        "r"
      ],
      [
        "▁j",
        "ust"
      ],
      [
        "▁w",
        "ater"
      ],
      [
        "▁f",
        "ood"
      ],
      [
        "游",
        "戏"
      ],
      [
        "a",
        "us"
      ],
      [
        "▁chall",
        "eng"
      ],
      [
        "文",
        "化"
      ],
      [
        ".\n\n",
        "O"
      ],
      [
        "▁mo",
        "st"
      ],
      [
        "on",
        "om"
      ],
      [
        "▁s",
        "m"
      ],
      [
        "▁act",
        "iv"
      ],
      [
        "▁b",
        "u"
      ],
      [
        "plo",
        "y"
      ],
      [
        "的",
        ","
      ],
      [
        "g",
        "ies"
      ],
      [
        "ers",
        ","
      ],
      [
        "系",
        "统"
      ],
      [
        "分",
        "析"
      ],
      [
        "ol",
        "ut"
      ],
      [
        "ow",
        "ered"
      ],
      [
        "omm",
        "end"
      ],
      [
        "▁com",
        "ple"
      ],
      [
        "注",
        "意"
      ],
      [
        "▁edu",
        "cation"
      ],
      [
        "at",
        "her"
      ],
      [
        "▁f",
        "ind"
      ],
      [
        "▁The",
        "se"
      ],
      [
        "at",
        "ural"
      ],
      [
        "▁h",
        "is"
      ],
      [
        "之",
        "间"
      ],
      [
        "▁effect",
        "ive"
      ],
      [
        "▁at",
        "t"
      ],
      [
        "▁re",
        "se"
      ],
      [
        "能",
        "力"
      ],
      [
        "al",
        "ity"
      ],
      [
        "▁produ",
        "ct"
      ],
      [
        "。\n",
        "5."
      ],
      [
        "▁al",
        "low"
      ],
      [
        ",",
        "如"
      ],
      [
        "▁a",
        "v"
      ],
      [
        "o",
        "p"
      ],
      [
        "▁pro",
        "mot"
      ],
      [
        "ie",
        "w"
      ],
      [
        "c",
        "ome"
      ],
      [
        "▁resp",
        "ons"
      ],
      [
        "▁c",
        "ult"
      ],
      [
        "▁rec",
        "ommend"
      ],
      [
        "O",
        "SS"
      ],
      [
        "c",
        "ing"
      ],
      [
        "▁ch",
        "ange"
      ],
      [
        "▁wh",
        "at"
      ],
      [
        "不同",
        "的"
      ],
      [
        "v",
        "ed"
      ],
      [
        ",",
        "让"
      ],
      [
        "I",
        "n"
      ],
      [
        "解",
        "决"
      ],
      [
        "▁fe",
        "el"
      ],
      [
        "▁c",
        "are"
      ],
      [
        "-p",
        "owered"
      ],
      [
        "活",
        "动"
      ],
      [
        "▁se",
        "e"
      ],
      [
        "▁s",
        "ur"
      ],
      [
        "这",
        "些"
      ],
      [
        "▁pl",
        "ay"
      ],
      [
        "▁v",
        "is"
      ],
      [
        "确",
        "保"
      ],
      [
        "实",
        "现"
      ],
      [
        ",",
        "包括"
      ],
      [
        "应",
        "用"
      ],
      [
        "▁comp",
        "an"
      ],
      [
        "▁inv",
        "ol"
      ],
      [
        "▁custom",
        "er"
      ],
      [
        "因",
        "为"
      ],
      [
        "▁in",
        "s"
      ],
      [
        "w",
        "n"
      ],
      [
        "w",
        "ay"
      ],
      [
        "自",
        "然"
      ],
      [
        "社",
        "会"
      ],
      [
        "ol",
        "d"
      ],
      [
        "你",
        "的"
      ],
      [
        "▁add",
        "ress"
      ],
      [
        "t",
        "ing"
      ],
      [
        "re",
        "n"
      ],
      [
        "▁t",
        "reat"
      ],
      [
        "e",
        "ver,"
      ],
      [
        "对",
        "于"
      ],
      [
        "▁AI",
        "-powered"
      ],
      [
        "▁",
        "K"
      ],
      [
        "id",
        "er"
      ],
      [
        "▁",
        "ke"
      ],
      [
        "▁sk",
        "ill"
      ],
      [
        "▁po",
        "p"
      ],
      [
        "ic",
        "s"
      ],
      [
        "p",
        "are"
      ],
      [
        "▁en",
        "g"
      ],
      [
        "▁M",
        "OSS"
      ],
      [
        "o",
        "st"
      ],
      [
        "▁pre",
        "d"
      ],
      [
        "en",
        "ces"
      ],
      [
        "▁em",
        "ot"
      ],
      [
        "▁a",
        "c"
      ],
      [
        "▁m",
        "on"
      ],
      [
        "▁Y",
        "es,"
      ],
      [
        "f",
        "ore"
      ],
      [
        "▁v",
        "al"
      ],
      [
        "▁way",
        "s"
      ],
      [
        "al",
        "s"
      ],
      [
        "▁is",
        "s"
      ],
      [
        "b",
        "s"
      ],
      [
        "we",
        "en"
      ],
      [
        "▁includ",
        "e"
      ],
      [
        "▁prot",
        "ect"
      ],
      [
        "关",
        "系"
      ],
      [
        "▁The",
        "y"
      ],
      [
        "▁se",
        "ver"
      ],
      [
        "▁eff",
        "ic"
      ],
      [
        "ic",
        "k"
      ],
      [
        "▁th",
        "an"
      ],
      [
        "需",
        "求"
      ],
      [
        "▁j",
        "ob"
      ],
      [
        "-",
        "t"
      ],
      [
        "▁bet",
        "ween"
      ],
      [
        "▁m",
        "ach"
      ],
      [
        "----",
        "----"
      ],
      [
        "考",
        "虑"
      ],
      [
        "质",
        "量"
      ],
      [
        "w",
        "or"
      ],
      [
        "我们",
        "的"
      ],
      [
        "e",
        "g"
      ],
      [
        "is",
        "s"
      ],
      [
        "▁individual",
        "s"
      ],
      [
        "n",
        "er"
      ],
      [
        "w",
        "ard"
      ],
      [
        "a",
        "pt"
      ],
      [
        "没",
        "有"
      ],
      [
        "▁app",
        "ro"
      ],
      [
        "家",
        "庭"
      ],
      [
        "▁provid",
        "ing"
      ],
      [
        "▁ass",
        "ist"
      ],
      [
        "▁n",
        "atural"
      ],
      [
        "▁s",
        "af"
      ],
      [
        "具",
        "有"
      ],
      [
        "同",
        "时"
      ],
      [
        "▁per",
        "form"
      ],
      [
        "et",
        "h"
      ],
      [
        "ow",
        "er"
      ],
      [
        "le",
        "ment"
      ],
      [
        "▁sever",
        "al"
      ],
      [
        "▁bus",
        "iness"
      ],
      [
        "▁e",
        "ach"
      ],
      [
        "▁t",
        "y"
      ],
      [
        "▁p",
        "ub"
      ],
      [
        "iv",
        "es"
      ],
      [
        "oc",
        "us"
      ],
      [
        "f",
        "t"
      ],
      [
        "语",
        "言"
      ],
      [
        "▁are",
        "as"
      ],
      [
        "ri",
        "end"
      ],
      [
        "▁part",
        "ic"
      ],
      [
        "市",
        "场"
      ],
      [
        "管",
        "理"
      ],
      [
        "ant",
        "s"
      ],
      [
        "人",
        "类"
      ],
      [
        "身",
        "体"
      ],
      [
        "iqu",
        "e"
      ],
      [
        "age",
        "ment"
      ],
      [
        "i",
        "an"
      ],
      [
        "、",
        "、"
      ],
      [
        "l",
        "ine"
      ],
      [
        "后",
        ","
      ],
      [
        "▁pat",
        "ter"
      ],
      [
        "00",
        "0"
      ],
      [
        "o",
        "y"
      ],
      [
        "内",
        "容"
      ],
      [
        "人",
        "的"
      ],
      [
        "▁organ",
        "iz"
      ],
      [
        "ou",
        "gh"
      ],
      [
        "▁",
        "ve"
      ],
      [
        "孩",
        "子"
      ],
      [
        "▁se",
        "c"
      ],
      [
        "▁",
        "5"
      ],
      [
        "il",
        "y"
      ],
      [
        "at",
        "es"
      ],
      [
        "▁a",
        "ff"
      ],
      [
        "▁n",
        "um"
      ],
      [
        "的",
        "。"
      ],
      [
        "▁c",
        "ar"
      ],
      [
        "ab",
        "or"
      ],
      [
        "是一",
        "种"
      ],
      [
        "▁in",
        "st"
      ],
      [
        "之",
        "一"
      ],
      [
        "ur",
        "n"
      ],
      [
        "-",
        "b"
      ],
      [
        "7",
        "."
      ],
      [
        "更",
        "多"
      ],
      [
        "▁m",
        "ain"
      ],
      [
        "程",
        "序"
      ],
      [
        "it",
        "or"
      ],
      [
        "音",
        "乐"
      ],
      [
        "▁off",
        "er"
      ],
      [
        "▁pl",
        "an"
      ],
      [
        "▁A",
        "d"
      ],
      [
        "外",
        ","
      ],
      [
        "▁d",
        "uring"
      ],
      [
        "代",
        "码"
      ],
      [
        "▁gu",
        "id"
      ],
      [
        "主",
        "要"
      ],
      [
        "▁f",
        "am"
      ],
      [
        "▁benef",
        "its"
      ],
      [
        "通",
        "常"
      ],
      [
        "处",
        "理"
      ],
      [
        "s",
        "s"
      ],
      [
        "w",
        "are"
      ],
      [
        "▁to",
        "ol"
      ],
      [
        "文",
        "本"
      ],
      [
        ".\n\nO",
        "verall,"
      ],
      [
        "c",
        "ed"
      ],
      [
        "的",
        "人"
      ],
      [
        "目",
        "标"
      ],
      [
        "▁e",
        "very"
      ],
      [
        "城",
        "市"
      ],
      [
        "r",
        "ies"
      ],
      [
        "。\n",
        "总"
      ],
      [
        "适",
        "合"
      ],
      [
        "ot",
        "h"
      ],
      [
        "一",
        "种"
      ],
      [
        "▁m",
        "ade"
      ],
      [
        "▁re",
        "m"
      ],
      [
        "is",
        "e"
      ],
      [
        "等",
        "。"
      ],
      [
        "▁gen",
        "er"
      ],
      [
        "a",
        "ir"
      ],
      [
        "▁exp",
        "l"
      ],
      [
        "材",
        "料"
      ],
      [
        "▁pred",
        "ict"
      ],
      [
        "情",
        "感"
      ],
      [
        "▁s",
        "et"
      ],
      [
        "▁cl",
        "imate"
      ],
      [
        "▁f",
        "ocus"
      ],
      [
        "▁g",
        "row"
      ],
      [
        "ing",
        ":"
      ],
      [
        "客",
        "户"
      ],
      [
        "不",
        "断"
      ],
      [
        "ru",
        "ct"
      ],
      [
        "▁E",
        "n"
      ],
      [
        "▁stud",
        "ents"
      ],
      [
        "是",
        "否"
      ],
      [
        "ation",
        "."
      ],
      [
        ",",
        "也"
      ],
      [
        "ut",
        "ure"
      ],
      [
        "y",
        "th"
      ],
      [
        "▁o",
        "wn"
      ],
      [
        "▁",
        "["
      ],
      [
        "gg",
        "est"
      ],
      [
        "▁t",
        "as"
      ],
      [
        "he",
        "s"
      ],
      [
        "▁mod",
        "el"
      ],
      [
        "▁m",
        "aking"
      ],
      [
        "▁rese",
        "arch"
      ],
      [
        "▁it",
        "'s"
      ],
      [
        "大",
        "的"
      ],
      [
        "p",
        "ut"
      ],
      [
        "ere",
        "st"
      ],
      [
        "i",
        "el"
      ],
      [
        "ow",
        "n"
      ],
      [
        "▁Y",
        "ou"
      ],
      [
        "成",
        "为"
      ],
      [
        "▁commun",
        "ic"
      ],
      [
        "▁c",
        "he"
      ],
      [
        "▁re",
        "st"
      ],
      [
        "b",
        "ack"
      ],
      [
        "▁loc",
        "al"
      ],
      [
        "▁g",
        "et"
      ],
      [
        ",",
        "它"
      ],
      [
        "en",
        "cy"
      ],
      [
        "▁H",
        "e"
      ],
      [
        "▁f",
        "in"
      ],
      [
        "y",
        "s"
      ],
      [
        "v",
        "es"
      ],
      [
        "制",
        "作"
      ],
      [
        "▁su",
        "ggest"
      ],
      [
        "增",
        "加"
      ],
      [
        "▁med",
        "ia"
      ],
      [
        "rib",
        "ut"
      ],
      [
        "▁res",
        "ources"
      ],
      [
        "加",
        "入"
      ],
      [
        "▁c",
        "le"
      ],
      [
        "▁th",
        "ink"
      ],
      [
        "▁ris",
        "k"
      ],
      [
        ",",
        "\n"
      ],
      [
        "pport",
        "un"
      ],
      [
        "ation",
        "al"
      ],
      [
        "▁ev",
        "en"
      ],
      [
        "cc",
        "ess"
      ],
      [
        "a",
        "x"
      ],
      [
        "▁f",
        "uture"
      ],
      [
        "▁cont",
        "in"
      ],
      [
        "▁pro",
        "f"
      ],
      [
        "▁conc",
        "er"
      ],
      [
        "或",
        "者"
      ],
      [
        "存",
        "在"
      ],
      [
        "▁re",
        "f"
      ],
      [
        "c",
        "i"
      ],
      [
        "▁s",
        "elf"
      ],
      [
        "y",
        "m"
      ],
      [
        "运",
        "动"
      ],
      [
        "b",
        "le"
      ],
      [
        "▁in",
        "f"
      ],
      [
        "▁sustain",
        "able"
      ],
      [
        "▁te",
        "xt"
      ],
      [
        "iel",
        "d"
      ],
      [
        "▁g",
        "ra"
      ],
      [
        "品",
        "牌"
      ],
      [
        "l",
        "ed"
      ],
      [
        "▁o",
        "pportun"
      ],
      [
        "▁",
        "+"
      ],
      [
        "p",
        "r"
      ],
      [
        "▁How",
        "ever,"
      ],
      [
        "避",
        "免"
      ],
      [
        "新",
        "的"
      ],
      [
        "▁re",
        "t"
      ],
      [
        "▁int",
        "erest"
      ],
      [
        "结",
        "果"
      ],
      [
        ",",
        "例如"
      ],
      [
        "首",
        "先"
      ],
      [
        "▁2",
        "0"
      ],
      [
        "▁b",
        "re"
      ],
      [
        "▁",
        "'"
      ],
      [
        "更",
        "好"
      ],
      [
        "开",
        "始"
      ],
      [
        "描",
        "述"
      ],
      [
        "res",
        "ent"
      ],
      [
        "▁bu",
        "ild"
      ],
      [
        "▁be",
        "h"
      ],
      [
        "▁g",
        "ood"
      ],
      [
        "理",
        "解"
      ],
      [
        "功",
        "能"
      ],
      [
        "l",
        "abor"
      ],
      [
        "▁eff",
        "ort"
      ],
      [
        "he",
        "d"
      ],
      [
        "▁Wh",
        "at"
      ],
      [
        "支",
        "持"
      ],
      [
        "e",
        "c"
      ],
      [
        "▁re",
        "ad"
      ],
      [
        "▁bet",
        "ter"
      ],
      [
        "▁d",
        "ay"
      ],
      [
        "导",
        "致"
      ],
      [
        "▁imp",
        "lement"
      ],
      [
        "y",
        "."
      ],
      [
        "▁re",
        "v"
      ],
      [
        "```",
        "\n"
      ],
      [
        "en",
        "se"
      ],
      [
        ",",
        "从"
      ],
      [
        "▁l",
        "ong"
      ],
      [
        "ure",
        ","
      ],
      [
        "ark",
        "et"
      ],
      [
        "ot",
        "her"
      ],
      [
        "p",
        "ect"
      ],
      [
        "一",
        "份"
      ],
      [
        "ure",
        "s"
      ],
      [
        "yth",
        "on"
      ],
      [
        "您",
        "的"
      ],
      [
        "减",
        "少"
      ],
      [
        "it",
        "ed"
      ],
      [
        "rou",
        "p"
      ],
      [
        "各",
        "种"
      ],
      [
        "▁mus",
        "ic"
      ],
      [
        "▁pub",
        "lic"
      ],
      [
        "▁l",
        "ar"
      ],
      [
        "a",
        "ut"
      ],
      [
        "领",
        "域"
      ],
      [
        "ol",
        "low"
      ],
      [
        "定",
        "的"
      ],
      [
        "▁ch",
        "ang"
      ],
      [
        "▁b",
        "est"
      ],
      [
        "保",
        "护"
      ],
      [
        "▁ch",
        "at"
      ],
      [
        "。",
        "如果"
      ],
      [
        "▁p",
        "ower"
      ],
      [
        "计",
        "划"
      ],
      [
        "变",
        "化"
      ],
      [
        "as",
        "es"
      ],
      [
        "il",
        "ities"
      ],
      [
        "▁cons",
        "ider"
      ],
      [
        "ers",
        "."
      ],
      [
        "那",
        "么"
      ],
      [
        "植",
        "物"
      ],
      [
        "▁",
        "ide"
      ],
      [
        "▁b",
        "ased"
      ],
      [
        "每",
        "个"
      ],
      [
        "ity",
        ","
      ],
      [
        "▁r",
        "ange"
      ],
      [
        "所",
        "有"
      ],
      [
        "▁res",
        "ult"
      ],
      [
        "▁m",
        "em"
      ],
      [
        "▁le",
        "vel"
      ],
      [
        "▁b",
        "r"
      ],
      [
        "建",
        "立"
      ],
      [
        "▁un",
        "ique"
      ],
      [
        "许",
        "多"
      ],
      [
        "行",
        "为"
      ],
      [
        "研",
        "究"
      ],
      [
        "▁h",
        "ist"
      ],
      [
        "▁a",
        "round"
      ],
      [
        "▁en",
        "c"
      ],
      [
        "步",
        "骤"
      ],
      [
        "▁s",
        "im"
      ],
      [
        "n",
        "ect"
      ],
      [
        "▁b",
        "ack"
      ],
      [
        "回",
        "答"
      ],
      [
        "ation",
        ":"
      ],
      [
        "到",
        "了"
      ],
      [
        "方",
        "案"
      ],
      [
        "世",
        "界"
      ],
      [
        "更好",
        "地"
      ],
      [
        "▁em",
        "ploy"
      ],
      [
        "两",
        "个"
      ],
      [
        "▁decis",
        "ion"
      ],
      [
        "▁th",
        "ose"
      ],
      [
        "v",
        "ers"
      ],
      [
        "▁f",
        "act"
      ],
      [
        "ou",
        "ra"
      ],
      [
        "er",
        ","
      ],
      [
        "▁wor",
        "d"
      ],
      [
        "▁",
        "在"
      ],
      [
        "文",
        "章"
      ],
      [
        "▁pre",
        "vent"
      ],
      [
        "▁It",
        "'s"
      ],
      [
        "▁n",
        "o"
      ],
      [
        "▁d",
        "el"
      ],
      [
        "▁opt",
        "im"
      ],
      [
        "▁",
        "4"
      ],
      [
        "ly",
        "."
      ],
      [
        "▁acc",
        "ount"
      ],
      [
        "▁I'",
        "m"
      ],
      [
        "at",
        "h"
      ],
      [
        "▁d",
        "ivers"
      ],
      [
        "ver",
        "n"
      ],
      [
        "e",
        ","
      ],
      [
        "企",
        "业"
      ],
      [
        "地",
        "球"
      ],
      [
        "▁tr",
        "y"
      ],
      [
        "▁for",
        "m"
      ],
      [
        "▁g",
        "roup"
      ],
      [
        "▁personal",
        "ized"
      ],
      [
        ",",
        "同时"
      ],
      [
        "重要",
        "的"
      ],
      [
        "▁d",
        "r"
      ],
      [
        "表",
        "达"
      ],
      [
        "▁f",
        "ollow"
      ],
      [
        "产",
        "生"
      ],
      [
        "▁e",
        "ar"
      ],
      [
        "▁d",
        "i"
      ],
      [
        "k",
        "ing"
      ],
      [
        "is",
        "m"
      ],
      [
        "ac",
        "y"
      ],
      [
        "▁b",
        "ook"
      ],
      [
        "▁su",
        "ccess"
      ],
      [
        "▁treat",
        "ment"
      ],
      [
        ",",
        "其"
      ],
      [
        "▁requ",
        "ire"
      ],
      [
        "og",
        "n"
      ],
      [
        "▁environment",
        "al"
      ],
      [
        ",",
        "不"
      ],
      [
        "ed",
        ","
      ],
      [
        "▁inter",
        "act"
      ],
      [
        "团",
        "队"
      ],
      [
        "▁re",
        "p"
      ],
      [
        "▁P",
        "ro"
      ],
      [
        "用",
        "于"
      ],
      [
        "▁d",
        "ist"
      ],
      [
        "认",
        "为"
      ],
      [
        "▁s",
        "ent"
      ],
      [
        "函",
        "数"
      ],
      [
        "▁redu",
        "cing"
      ],
      [
        "▁mon",
        "itor"
      ],
      [
        "▁c",
        "aus"
      ],
      [
        "▁soc",
        "iety"
      ],
      [
        "▁of",
        "ten"
      ],
      [
        "之间",
        "的"
      ],
      [
        "可能",
        "会"
      ],
      [
        "员",
        "工"
      ],
      [
        "▁ha",
        "nd"
      ],
      [
        "a",
        ","
      ],
      [
        ",",
        "需要"
      ],
      [
        "▁activ",
        "ities"
      ],
      [
        "喜",
        "欢"
      ],
      [
        "▁p",
        "ur"
      ],
      [
        "动",
        "物"
      ],
      [
        "s",
        "elf"
      ],
      [
        "控",
        "制"
      ],
      [
        "▁pr",
        "iv"
      ],
      [
        "a",
        "z"
      ],
      [
        "▁mach",
        "ine"
      ],
      [
        "上",
        "的"
      ],
      [
        "价",
        "格"
      ],
      [
        "价",
        "值"
      ],
      [
        "一",
        "下"
      ],
      [
        "ations",
        "hip"
      ],
      [
        "▁w",
        "ant"
      ],
      [
        "▁te",
        "am"
      ],
      [
        "▁m",
        "arket"
      ],
      [
        "▁fe",
        "ed"
      ],
      [
        "▁lo",
        "ve"
      ],
      [
        "pt",
        "ion"
      ],
      [
        "关",
        "于"
      ],
      [
        "输",
        "入"
      ],
      [
        "▁trans",
        "port"
      ],
      [
        "▁comple",
        "x"
      ],
      [
        "▁y",
        "ear"
      ],
      [
        "销",
        "售"
      ],
      [
        "i",
        "ence"
      ],
      [
        "ight",
        "s"
      ],
      [
        "▁fe",
        "ature"
      ],
      [
        "▁",
        "\n\n"
      ],
      [
        "▁m",
        "ind"
      ],
      [
        "▁f",
        "un"
      ],
      [
        "▁ch",
        "ar"
      ],
      [
        "简",
        "单"
      ],
      [
        "▁st",
        "art"
      ],
      [
        "中",
        "国"
      ],
      [
        "▁con",
        "f"
      ],
      [
        "av",
        "i"
      ],
      [
        "元",
        "素"
      ],
      [
        "▁pos",
        "itive"
      ],
      [
        "▁c",
        "ur"
      ],
      [
        "▁c",
        "ount"
      ],
      [
        ",",
        "你"
      ],
      [
        "▁rel",
        "ationship"
      ],
      [
        "▁co",
        "st"
      ],
      [
        "ak",
        "es"
      ],
      [
        "▁e",
        "qu"
      ],
      [
        "同",
        "时,"
      ],
      [
        "▁pol",
        "ic"
      ],
      [
        "iv",
        "en"
      ],
      [
        "pl",
        "ace"
      ],
      [
        "▁",
        "0"
      ],
      [
        "ch",
        "ie"
      ],
      [
        "ag",
        "ing"
      ],
      [
        "▁patter",
        "ns"
      ],
      [
        "▁f",
        "l"
      ],
      [
        "c",
        "ial"
      ],
      [
        "因",
        "素"
      ],
      [
        "颜",
        "色"
      ],
      [
        "▁med",
        "ical"
      ],
      [
        "▁aut",
        "om"
      ],
      [
        "le",
        "ase"
      ],
      [
        "c",
        "l"
      ],
      [
        "▁W",
        "e"
      ],
      [
        "▁The",
        "re"
      ],
      [
        "he",
        "n"
      ],
      [
        "▁det",
        "ect"
      ],
      [
        "▁sh",
        "ow"
      ],
      [
        "风",
        "格"
      ],
      [
        "▁an",
        "im"
      ],
      [
        "a",
        "ve"
      ],
      [
        "X",
        "X"
      ],
      [
        "▁m",
        "in"
      ],
      [
        "未",
        "来"
      ],
      [
        "具",
        "体"
      ],
      [
        "u",
        "ch"
      ],
      [
        "艺",
        "术"
      ],
      [
        "数",
        "字"
      ],
      [
        "ic",
        "ult"
      ],
      [
        "ly",
        "!"
      ],
      [
        "iv",
        "ing"
      ],
      [
        "▁challeng",
        "es"
      ],
      [
        "▁off",
        "ers"
      ],
      [
        "ur",
        "ity"
      ],
      [
        "▁rec",
        "ogn"
      ],
      [
        "ro",
        "p"
      ],
      [
        "太",
        "阳"
      ],
      [
        "ag",
        "es"
      ],
      [
        "▁",
        "1."
      ],
      [
        "▁A",
        "n"
      ],
      [
        "▁D",
        "o"
      ],
      [
        "▁",
        "ent"
      ],
      [
        "▁be",
        "fore"
      ],
      [
        "已",
        "经"
      ],
      [
        "▁be",
        "come"
      ],
      [
        "表",
        "现"
      ],
      [
        "▁exp",
        "lo"
      ],
      [
        "任",
        "务"
      ],
      [
        "▁a",
        "chie"
      ],
      [
        "然",
        "后"
      ],
      [
        "▁f",
        "ound"
      ],
      [
        "▁lo",
        "ok"
      ],
      [
        "pe",
        "nd"
      ],
      [
        "▁ess",
        "ay"
      ],
      [
        "s",
        "is"
      ],
      [
        "-",
        "s"
      ],
      [
        "o",
        "v"
      ],
      [
        "u",
        "p"
      ],
      [
        "-",
        "m"
      ],
      [
        "er",
        "m"
      ],
      [
        "▁diff",
        "icult"
      ],
      [
        "-",
        "f"
      ],
      [
        "▁cl",
        "ass"
      ],
      [
        "ation",
        "s,"
      ],
      [
        "▁qu",
        "est"
      ],
      [
        "▁trans",
        "pare"
      ],
      [
        "▁pro",
        "ject"
      ],
      [
        "a",
        "w"
      ],
      [
        "int",
        "("
      ],
      [
        "分",
        "类"
      ],
      [
        "▁ch",
        "o"
      ],
      [
        "性",
        "和"
      ],
      [
        "o",
        "id"
      ],
      [
        "▁e",
        "as"
      ],
      [
        "▁develop",
        "ed"
      ],
      [
        "▁aff",
        "ect"
      ],
      [
        "▁reg",
        "ul"
      ],
      [
        "ag",
        "n"
      ],
      [
        "作",
        "为"
      ],
      [
        "▁",
        "$"
      ],
      [
        "▁writ",
        "ing"
      ],
      [
        "▁f",
        "riend"
      ],
      [
        "▁det",
        "ail"
      ],
      [
        "▁tra",
        "ditional"
      ],
      [
        "购",
        "买"
      ],
      [
        "确",
        "定"
      ],
      [
        "ion",
        "."
      ],
      [
        "体",
        "验"
      ],
      [
        "▁con",
        "nect"
      ],
      [
        "▁b",
        "oth"
      ],
      [
        "n",
        "ing"
      ],
      [
        "▁s",
        "it"
      ],
      [
        "▁design",
        "ed"
      ],
      [
        "沟",
        "通"
      ],
      [
        "j",
        "oy"
      ],
      [
        "▁add",
        "ition"
      ],
      [
        "作",
        "用"
      ],
      [
        "介",
        "绍"
      ],
      [
        "ion",
        "s,"
      ],
      [
        "▁man",
        "agement"
      ],
      [
        "现",
        "在"
      ],
      [
        "▁s",
        "he"
      ],
      [
        "▁promot",
        "e"
      ],
      [
        "▁var",
        "ious"
      ],
      [
        "▁o",
        "p"
      ],
      [
        ".\n\n",
        "The"
      ],
      [
        "▁s",
        "ens"
      ],
      [
        "ab",
        "l"
      ],
      [
        "p",
        "or"
      ],
      [
        "▁ess",
        "ential"
      ],
      [
        ".\n\n",
        "In"
      ],
      [
        "get",
        "her"
      ],
      [
        "ir",
        "st"
      ],
      [
        "ir",
        "t"
      ],
      [
        "投",
        "资"
      ],
      [
        "▁spec",
        "ies"
      ],
      [
        "ch",
        "o"
      ],
      [
        "▁C",
        "ertain"
      ],
      [
        "▁beh",
        "avi"
      ],
      [
[...]
