{"<unk>":0,"<pad>":1,"<mask>":2,"<s>":3,"</s>":4,"!":5,"\"":6,"#":7,"$":8,"%":9,"&":10,"'":11,"(":12,")":13,"*":14,"+":15,",":16,"-":17,".":18,"/":19,"0":20,"1":21,"2":22,"3":23,"4":24,"5":25,"6":26,"7":27,"8":28,"9":29,":":30,";":31,"<":32,"=":33,">":34,"?":35,"@":36,"A":37,"B":38,"C":39,"D":40,"E":41,"F":42,"G":43,"H":44,"I":45,"J":46,"K":47,"L":48,"M":49,"N":50,"O":51,"P":52,"Q":53,"R":54,"S":55,"T":56,"U":57,"V":58,"W":59,"X":60,"Y":61,"Z":62,"[":63,"\\":64,"]":65,"^":66,"_":67,"`":68,"a":69,"b":70,"c":71,"d":72,"e":73,"f":74,"g":75,"h":76,"i":77,"j":78,"k":79,"l":80,"m":81,"n":82,"o":83,"p":84,"q":85,"r":86,"s":87,"t":88,"u":89,"v":90,"w":91,"x":92,"y":93,"z":94,"{":95,"|":96,"}":97,"~":98,"¡":99,"¢":100,"£":101,"¤":102,"¥":103,"¦":104,"§":105,"¨":106,"©":107,"ª":108,"«":109,"¬":110,"®":111,"¯":112,"°":113,"±":114,"²":115,"³":116,"´":117,"µ":118,"¶":119,"·":120,"¸":121,"¹":122,"º":123,"»":124,"¼":125,"½":126,"¾":127,"¿":128,"Â":129,"Ã":130,"Ä":131,"Å":132,"Æ":133,"Ç":134,"È":135,"É":136,"Ê":137,"Ë":138,"Ì":139,"Í":140,"Î":141,"Ï":142,"Ð":143,"Ñ":144,"Ò":145,"Ó":146,"Ô":147,"Õ":148,"Ö":149,"×":150,"Ø":151,"Ù":152,"Ú":153,"Û":154,"à":155,"á":156,"â":157,"ã":158,"ä":159,"å":160,"æ":161,"ç":162,"è":163,"é":164,"ê":165,"ë":166,"ì":167,"í":168,"î":169,"ï":170,"ð":171,"Ă":172,"ă":173,"Ĉ":174,"ĉ":175,"Ċ":176,"ċ":177,"Č":178,"č":179,"ď":180,"Đ":181,"đ":182,"Ē":183,"ē":184,"Ĕ":185,"Ę":186,"ę":187,"Ě":188,"ě":189,"Ĝ":190,"ĝ":191,"Ġ":192,"ġ":193,"Ģ":194,"ģ":195,"Ĥ":196,"ĥ":197,"Ħ":198,"ħ":199,"Ĩ":200,"ĩ":201,"Ī":202,"ī":203,"Ĭ":204,"ĭ":205,"Į":206,"į":207,"İ":208,"ı":209,"Ĳ":210,"ĳ":211,"Ĵ":212,"ĵ":213,"Ķ":214,"ķ":215,"ĸ":216,"Ĺ":217,"ĺ":218,"Ļ":219,"ļ":220,"Ľ":221,"ľ":222,"Ŀ":223,"ŀ":224,"Ł":225,"ł":226,"Ń":227,"Ġt":228,"Ġa":229,"in":230,"he":231,"re":232,"ï¼":233,"ä¸":234,"on":235,"at":236,"çļ":237,"çļĦ":238,"ï¼Į":239,"Ġs":240,"Ġc":241,"nd":242,"ãĢ":243,"er":244,"Ġthe":245,"es":246,"en":247,"or":248,"an":249,"Ġand":250,"ing":251,"Ġp":252,"it":253,"al":254,"ãĢĤ":255,"Ġo":256,"Ġw":257,"ä»":258,"Ġto":259,"is":260,"ou":261,"Ġm":262,"äº":263,"Ġin":264,"Ġf":265,"Ġb":266,"ed":267,"ion":268,"åı":269,"ic":270,"Ġd":271,"Ġof":272,"le":273,"ar":274,"ro":275,"ĠĠ":276,"åħ":277,"ent":278,"æľ":279,"Ġe":280,"åĴ":281,"è¿":282,"ä½":283,"åĴĮ":284,"æĪ":285,"å®":286,"åĪ":287,"ve":288,"us":289,"Ġre":290,"Ġh":291,"Ġth":292,"as":293,"ct":294,"çĶ":295,"om":296,"åľ":297,"å¤":298,"æĺ":299,"åĬ":300,"åĲ":301,"ä¸Ģ":302,"im":303,"è¯":304,"æĸ":305,"ation":306,"lo":307,"ç»":308,"Ġbe":309,"ãĢģ":310,"id":311,"Ġcan":312,"il":313,"æĺ¯":314,"ä¹":315,"è®":316,"ĠA":317,"Ġthat":318,"ĠT":319,"ä»¥":320,"ch":321,"Ġy":322,"ce":323,"ï¼ļ":324,"ot":325,"ers":326,"Ġn":327,"éĢ":328,"ra":329,"å°":330,"Ġg":331,"Ġyou":332,"åŃ":333,"Ġpro":334,"et":335,"åº":336,"åľ¨":337,"ly":338,"Ġis":339,"ä¸ª":340,"Ġl":341,"ur":342,"Ġfor":343,"åı¯":344,"éĩ":345,"st":346,"çļĦæ":347,"ut":348,"Ġhe":349,"if":350,"ĥ½":351,"ä¼":352,"ĠI":353,"è¡":354,"ir":355,"ith":356,"å¹":357,"Ġare":358,"ig":359,"Ġst":360,"el":361,"ol":362,"å¸":363,"ul":364,"æĿ":365,"æĪĳ":366,"Ġon":367,"è¦":368,"æľī":369,"æĹ":370,"å¯":371,"è§":372,"è¦ģ":373,"Ġus":374,"ay":375,"æķ":376,"çī":377,"ow":378,"ment":379,"çĶ¨":380,"ess":381,"ä¸Ń":382,"ä»¬":383,"äºº":384,"åĩ":385,"Ġex":386,"ĠĠĠĠ":387,"åĽ":388,"åĮ":389,"å¼":390,"Ġcon":391,"se":392,"èĥ½":393,"çİ":394,"Ġan":395,"Ġwith":396,"ä¸º":397,"ate":398,"iv":399,"am":400,"Ġas":401,"ure":402,"è¿Ļ":403,"åĨ":404,"çŃ":405,"Ġor":406,"å·":407,"Ġal":408,"ies":409,"ç§":410,"Ġim":411,"æĢ":412,"ver":413,"ab":414,"äºĨ":415,"Ġsu":416,"Ġde":417,"ge":418,"th":419,"åı¯ä»¥":420,"èĢ":421,"ä¸į":422,"å¾":423,"ĠAI":424,"Ġen":425,"éĹ":426,"æī":427,"ak":428,"ive":429,"Ġmo":430,"å¥":431,"éĿ":432,"çĽ":433,"ity":434,"ä¿":435,"un":436,"è´":437,"åį":438,"Ġit":439,"Ġimp":440,"ect":441,"æł":442,"å½":443,"èĩ":444,"é¢":445,"åĵ":446,"æ³":447,"ort":448,"ad":449,"æŀ":450,"em":451,"Ġcom":452,"å¦":453,"her":454,"ere":455,"ĠS":456,"ial":457,"ĠC":458,"ĠThe":459,"çĲ":460,"çĶŁ":461,"æĦ":462,"pp":463,"æŃ":464,"æĸ¹":465,"qu":466,"Ġwh":467,"å¦Ĥ":468,"éľ":469,"ant":470,"Ġle":471,"Ġv":472,"æĭ":473,"æĬ":474,"ust":475,"æĹ¶":476,"çŃī":477,"åĳ":478,"å¯¹":479,"ter":480,"ld":481,"è¡Į":482,"Ġch":483,"ud":484,"éľĢ":485,"æ°":486,"æĪĲ":487,"Ġ|":488,"ac":489,"ain":490,"iz":491,"æı":492,"ions":493,"Ġha":494,"æĽ":495,"--":496,"æĿ¥":497,"ome":498,"å¿":499,"'s":500,"Ġne":501,"est":502,"ä¾":503,"um":504,"åĪ°":505,"åľ°":506,"ist":507,"âĢ":508,"çī©":509,"ä¸Ģä¸ª":510,"lp":511,"æİ":512,"èĩª":513,"Ġhelp":514,"Ġtheir":515,"æĶ":516,"ä½ľ":517,"ä¼ļ":518,"æĮ":519,"æĪĳä»¬":520,"nt":521,"äºİ":522,"åĪĨ":523,"res":524,"pe":525,"åĩº":526,"ide":527,"æĥ":528,"ĠH":529,"è¾":530,"ĠM":531,"ff":532,"æ¯":533,"od":534,"ical":535,"Ġwor":536,"ä¸Ĭ":537,"are":538,"æĽ´":539,"Ġyour":540,"ä¸ĭ":541,"èµ":542,"ations":543,"æķ°":544,"Ġte":545,"åİ":546,"çĲĨ":547,"ĠTh":548,"è¿ĩ":549,"å¹¶":550,"du":551,"éĿ¢":552,"Ġad":553,"ill":554,"æµ":555,"å¥½":556,"oc":557,"act":558,"éľĢè¦ģ":559,"ä»ĸ":560,"å±":561,"Ġr":562,"Ġmore":563,"åŃ¦":564,"ç®":565,"igh":566,"äºĽ":567,"ĠB":568,"åĬ¨":569,"åĵģ":570,"èī":571,"ple":572,"Ġinc":573,"åĲĮ":574,"Ġexp":575,"ould":576,"ä½ł":577,"æį":578,"æıĲ":579,"å¤§":580,"çİ°":581,"pt":582,"ĠP":583,"all":584,"åĬł":585,"ç§į":586,"Ġse":587,"åĬĽ":588,"out":589,"Ġhave":590,"çº":591,"ä½ĵ":592,"Ġprov":593,"åĮĸ":594,"å¤ļ":595,"å®ļ":596,"Ġused":597,"éĢļ":598,"cc":599,"è¿Ľ":600,"æ´":601,"Ġsh":602,"Ġab":603,"os":604,"Ġres":605,"ĠThis":606,"ç¨":607,"æĢ§":608,"age":609,"ri":610,"æ¸":611,"able":612,"åŃĲ":613,"Ġby":614,"åıĳ":615,"éĩı":616,"åºĶ":617,"Ġlo":618,"ä½¿":619,"åħ¶":620,"é«":621,"éĻ":622,"é«ĺ":623,"åº¦":624,"è§£":625,"é£":626,"å°Ĩ":627,"æ³ķ":628,"and":629,"ä¿Ŀ":630,"ans":631,"for":632,"rom":633,"reat":634,"Ġpl":635,"çļĦç":636,"å¸¸":637,"è½":638,"Ġwe":639,"è¡¨":640,"ake":641,"æĪĸ":642,"é¢ĺ":643,"åŁ":644,"Ġme":645,"æĸĩ":646,"ther":647,"ke":648,"å®¶":649,"åĲĪ":650,"æľĢ":651,"ine":652,"Ġsome":653,"ç±":654,"éĩį":655,"æŀľ":656,"ĠW":657,"ĠE":658,"éĺ":659,"our":660,"rou":661,"çĤ":662,"æ±":663,"åħ³":664,"Ġint":665,"ance":666,"ä¹Ł":667,"éģ":668,"ĠĠĠ":669,"å®ĥ":670,"ag":671,"æ¬":672,"00":673,"è°":674,"ult":675,"yst":676,"éĹ´":677,"ç³":678,"Ġtr":679,"pl":680,"art":681,"æĦŁ":682,"æĤ":683,"ata":684,"ĠF":685,"form":686,"è®¡":687,"Ġfrom":688,"ĠD":689,"éĹ®":690,"ight":691,"ces":692,"æį®":693,"lop":694,"ä¹ĭ":695,"Ġfe":696,"åģ":697,"velop":698,"Ġ1":699,"åĽł":700,"ks":701,"æ²":702,"Ġu":703,"å°ı":704,"ystem":705,"Ġdis":706,"ĠR":707,"gy":708,"å·¥":709,"ç¨ĭ":710,"å¢":711,"ence":712,"èĤ":713,"ç¡":714,"Ġtra":715,"å»":716,"åħ¥":717,"ign":718,"alth":719,"Ġsuch":720,"ach":721,"æĻ":722,"arn":723,"Ġdata":724,"è¶":725,"å®ŀ":726,"so":727,"Ġdevelop":728,"ç¤":729,"Ġacc":730,"ast":731,"èĢĮ":732,"Ġ\"":733,"Ġother":734,"å»º":735,"Ġeff":736,"ç«":737,"Ġman":738,"åħ¬":739,"åĢ":740,"çĦ":741,"ms":742,"å¼ı":743,"èī²":744,"å¾Ĺ":745,"ific":746,"Ġj":747,"Ġro":748,"Ġhas":749,"chn":750,"olo":751,"åĪ¶":752,"èĬ":753,"ä½¿çĶ¨":754,"ous":755,"ual":756,"Ġat":757,"Ġem":758,"ell":759,"Ġsystem":760,"Ġhealth":761,"ities":762,"Ġexam":763,"ib":764,"éĶ":765,"Ġabout":766,"äº§":767,"åĲİ":768,"æĦı":769,"ç±»":770,"Ġpre":771,"æĤ¨":772,"Ġalso":773,"ents":774,"Ġind":775,"ind":776,"éĢĤ":777,"Ġtechn":778,"ress":779,"æĥħ":780,"éĹ®é¢ĺ":781,"Ġuse":782,"ï¼Ł":783,"Ġincl":784,"Ġspe":785,"ich":786,"ps":787,"æľº":788,"Ġthey":789,"ie":790,"Ġhow":791,"Ġwork":792,"ä¸ļ":793,"ç´":794,"Ġimpro":795,"Ġlearn":796,"æĸ°":797,"çĤ¹":798,"Ġcont":799,"ard":800,"çĦ¶":801,"æľ¬":802,"ç³»":803,"ç¡®":804,"è®¾":805,"åħ·":806,"éĢī":807,"èĢħ":808,"éħ":809,"gh":810,"__":811,"Ġnot":812,"çľ":813,"çĽ¸":814,"Ġprovide":815,"åī":816,"ional":817,"Ġens":818,"ä¸İ":819,"è´¨":820,"ential":821,"ç»ı":822,"å¿ĥ":823,"ang":824,"æŃ¤":825,"end":826,"Ġpo":827,"è¿Ľè¡Į":828,"ice":829,"Ġ-":830,"Ġway":831,"å·±":832,"Ġ2":833,"ime":834,"ç½":835,"èĩªå·±":836,"Ġun":837,"bot":838,"Ġinclud":839,"ated":840,"æ°´":841,"éķ":842,"æĮģ":843,"ä»£":844,"é¡":845,"æīĢ":846,"çĿ":847,"pport":848,"ood":849,"ike":850,"ru":851,"Ġcomm":852,"ĠL":853,"ä¿¡":854,"ĠG":855,"çŁ":856,"çĶµ":857,"Ġwas":858,"low":859,"erv":860,"åĮħ":861,"ĠĠĠĠĠĠĠĠ":862,"Ġwhe":863,"dit":864,"Ġwhich":865,"Ġcomp":866,"éª":867,"ore":868,"ç¾":869,"Ġ=":870,"çī¹":871,"iff":872,"ert":873,"æģ":874,"rit":875,"Ġrec":876,"åĨħ":877,"æĺİ":878,"ors":879,"Ġpat":880,"----":881,"æŁ":882,"Ġapp":883,"ns":884,"åĬ¡":885,"aly":886,"ace":887,"æ´»":888,"ä¾Ľ":889,"av":890,"ä¸»":891,"Ġpers":892,"çĥ":893,"è¯¥":894,"Ġmy":895,"ç©":896,"eri":897,"è®©":898,"æĬĢ":899,"éķ¿":900,"ack":901,"ĠN":902,"Ġdiff":903,"Ġthis":904,"åĿ":905,"Ġensure":906,"å½ĵ":907,"Ġout":908,"Ġcl":909,"Ġk":910,"é¦":911,"ount":912,"çİ¯":913,"åĬ©":914,"Ġtechnolo":915,"Ġthese":916,"ful":917,"éļ":918,"æ·":919,"ä¸ĢäºĽ":920,"Ġsoc":921,"å¼Ģ":922,"å¤©":923,"Ġev":924,"Ġredu":925,"Ġthem":926,"Ġ(":927,"éĥ½":928,"æĪ·":929,"è·":930,"åľº":931,"æ°Ķ":932,"ĠY":933,"è¯Ń":934,"éĢļè¿ĩ":935,"å±ķ":936,"Ġco":937,"å½±":938,"ç¬":939,"Ġanaly":940,"æ¯Ķ":941,"åħ¨":942,"Ġimprove":943,"ç»ĵ":944,"å¹´":945,"çķ":946,"çĿĢ":947,"Ġhum":948,"Ġqu":949,"ç®Ĺ":950,"ĠO":951,"é£Ł":952,"ility":953,"Ġsystems":954,"åıĺ":955,"ail":956,"ç¼":957,"çł":958,"è¿Ļä¸ª":959,"æıĲä¾Ľ":960,"ase":961,"åŀ":962,"ments":963,"Ġpot":964,"Ġany":965,"ä½Ĩ":966,"Ġcons":967,"ĠIt":968,"æł¼":969,"Ġar":970,"æľ¯":971,"éĿŀ":972,"Ġdo":973,"Ġmay":974,"æĭ©":975,"ue":976,"éĢīæĭ©":977,"ry":978,"éĥ":979,"Ġlike":980,"ong":981,"èģ":982,"``":983,"ile":984,"æ±Ĥ":985,"Ġnew":986,"ient":987,"Ġimpact":988,"è¿ĺ":989,"æ³¨":990,"ä¹Ī":991,"çĽ®":992,"âĢľ":993,"âĢĿ":994,"ef":995,"ä¾ĭ":996,"Ġpotential":997,"ok":998,"åı¯èĥ½":999,"Ġtrans":1000,"Ġact":1001,"ï¼ī":1002,"Ġspec":1003,"æ¶":1004,"Ġwill":1005,"äº¤":1006,"ize":1007,"ç¾İ":1008,"å¸Ĥ":1009,"Ġstud":1010,"pon":1011,"èº":1012,"ä¸įåĲĮ":1013,"one":1014,"å¾Ī":1015,"åıĬ":1016,"å¦Ĥæŀľ":1017,"çĲĥ":1018,"ange":1019,"Ġneed":1020,"å¤ĸ":1021,"ety":1022,"aking":1023,"è¯·":1024,"ater":1025,"Ġperson":1026,"ident":1027,"Ġso":1028,"Ġmake":1029,"å¹³":1030,"å¤Ł":1031,"èº«":1032,"ï¼Ī":1033,"Ġinform":1034,"æ¡":1035,"äºĭ":1036,"åıĹ":1037,"ased":1038,"ild":1039,"Ġoff":1040,"Ġthere":1041,"cis":1042,"è¢":1043,"éĥ¨":1044,"æ¯ı":1045,"ract":1046,"ass":1047,"Ġlearning":1048,"åĸ":1049,"å½¢":1050,"ire":1051,"ä»İ":1052,"bots":1053,"èĻ":1054,"å¸®":1055,"Ġdes":1056,"ĠIn":1057,"cess":1058,"Ġpe":1059,"ify":1060,"Ġwho":1061,"ä¹ł":1062,"æľŁ":1063,"Ġexperi":1064,"éĤ":1065,"Ġsc":1066,"ep":1067,"ä½ķ":1068,"Ġtime":1069,"éĿŀå¸¸":1070,"æĭ¬":1071,"åķ":1072,"ä»¥ä¸ĭ":1073,"éģĵ":1074,"Ġcommun":1075,"Ġcould":1076,"ap":1077,"èĲ":1078,"è°ĥ":1079,"lic":1080,"duct":1081,"Ġits":1082,"cy":1083,"è¯´":1084,"Ġmed":1085,"Ġcol":1086,"ular":1087,"éĩįè¦ģ":1088,"Ġsp":1089,"åĪ©":1090,"èµ·":1091,"Ġprovid":1092,"ices":1093,"åĻ":1094,"æĸĻ":1095,"Ġimport":1096,"ural":1097,"åŃĹ":1098,"Ġund":1099,"int":1100,"Ġover":1101,"åı¸":1102,"æł¹":1103,"é¥":1104,"ples":1105,"ä»ĸä»¬":1106,"gra":1107,"uring":1108,"now":1109,"åįķ":1110,"è¿ĻäºĽ":1111,"åīį":1112,"å®ī":1113,"Ġpr":1114,"åĮħæĭ¬":1115,"ç»Ļ":1116,"The":1117,"ä½į":1118,"å§":1119,"ç´ł":1120,"åĳĺ":1121,"Ġident":1122,"åŀĭ":1123,"Ġadd":1124,"å¼º":1125,"æĺ¯ä¸Ģ":1126,"ip":1127,"gor":1128,"Ġsupport":1129,"ne":1130,"Ġdiffere":1131,"åħĥ":1132,"Ġass":1133,"åĨ³":1134,"éĽ":1135,"åĲį":1136,"Ġgo":1137,"Ġtechnology":1138,"æĢ»":1139,"è®®":1140,"Ġinter":1141,"Ġinv":1142,"Ġour":1143,"æķĪ":1144,"ustom":1145,"Ġrel":1146,"ife":1147,"åĻ¨":1148,"ings":1149,"ä»·":1150,"Ġpart":1151,"è¢«":1152,"æīĭ":1153,"ary":1154,"Ġrespon":1155,"ĊĠĠĠ":1156,"å¥½çļĦ":1157,"ative":1158,"å¸®åĬ©":1159,"ç»Ł":1160,"æĶ¾":1161,"ĠHere":1162,"çģ":1163,"Ġbut":1164,"æģ¯":1165,"æŃ£":1166,"ark":1167,"åħ¬åı¸":1168,"ory":1169,"å¢ĥ":1170,"lect":1171,"éŁ":1172,"æĥ³":1173,"é£İ":1174,"ating":1175,"Ġam":1176,"its":1177,"æ»":1178,"gorith":1179,"åĵį":1180,"ures":1181,"Ġeffect":1182,"Ġshould":1183,"Ġper":1184,"è±":1185,"ç²":1186,"ict":1187,"Ġalgorith":1188,"uc":1189,"rough":1190,"ä»»":1191,"ä»¶":1192,"Ġbet":1193,"ia":1194,"Ġanalyz":1195,"æł¹æį®":1196,"ized":1197,"æµģ":1198,"è§Ĥ":1199,"è£":1200,"æłĩ":1201,"iron":1202,"Ġcustom":1203,"Ġreg":1204,"Ġpersonal":1205,"èĥ½å¤Ł":1206,"ics":1207,"ivid":1208,"çĪ":1209,"èµĦ":1210,"æŃ¥":1211,"å®¹":1212,"åĪĽ":1213,"èĪ":1214,"ä¹Ĳ":1215,"å¯¼":1216,"gan":1217,"èĬĤ":1218,"Ġall":1219,"ens":1220,"ame":1221,"ness":1222,"Ġup":1223,"ĠU":1224,"èĢĥ":1225,"elf":1226,"åĢ¼":1227,"å°ĳ":1228,"æľį":1229,"ari":1230,"thical":1231,"viron":1232,"èĥ":1233,"ord":1234,"Ġsign":1235,"éĩĮ":1236,"ound":1237,"ople":1238,"åŁº":1239,"Ġinformation":1240,"Ġidentify":1241,"åĽŀ":1242,"Ġcre":1243,"éŁ³":1244,"ible":1245,"ub":1246,"è¿Ĳ":1247,"Ġlead":1248,"æ¸¸":1249,"æ¬¡":1250,"åĨĻ":1251,"éĤ£":1252,"get":1253,"èį":1254,"Ġexample":1255,"ä¼ĺ":1256,"å½±åĵį":1257,"ish":1258,"xt":1259,"æº":1260,"éªĮ":1261,"ob":1262,"å®¢":1263,"å¤ĩ":1264,"åģ¥":1265,"è½¦":1266,"ç¤¾":1267,"ividual":1268,"ered":1269,"les":1270,"Ġenviron":1271,"Ġpeople":1272,"æĺŁ":1273,"çĸ":1274,"çĭ":1275,"Ġdet":1276,"æĹł":1277,"Ġif":1278,"ose":1279,"ite":1280,"å¢ŀ":1281,"éĴ":1282,"åĲĮæĹ¶":1283,"è¿°":1284,"æĸ¹å¼ı":1285,"åĽ½":1286,"é»":1287,"å¤Ħ":1288,"Ġexamples":1289,"æ®":1290,"Ġinto":1291,"æĮĩ":1292,"Ġhuman":1293,"åĲĳ":1294,"ç¤º":1295,"æķ°æį®":1296,"Ġ3":1297,"ĠJ":1298,"èı":1299,"çİ¯å¢ĥ":1300,"als":1301,"erst":1302,"Ġethical":1303,"ç»Ħ":1304,"ä¼ł":1305,"Ġdifferent":1306,"Ġknow":1307,"åºı":1308,"Ġindividual":1309,"æıĲé«ĺ":1310,"round":1311,"å°±":1312,"åıĸ":1313,"åŃĺ":1314,"ä¸¤":1315,"çŁ¥":1316,"ources":1317,"ck":1318,"å£":1319,"ines":1320,"è¾¾":1321,"Ġmany":1322,"æķ´":1323,"æł·":1324,"ditional":1325,"omm":1326,"çĶ±":1327,"éĢł":1328,"å®ĥä»¬":1329,"ues":1330,"Ġment":1331,"Ġimportant":1332,"Ġopt":1333,"Ġloc":1334,"ph":1335,"Ġprocess":1336,"Ġalgorithms":1337,"è®¾è®¡":1338,"Ġsocial":1339,"very":1340,"åĪĻ":1341,"ä¾ĭå¦Ĥ":1342,"è®¤":1343,"Ġaut":1344,"Ġserv":1345,"gg":1346,"äº§åĵģ":1347,"è§Ħ":1348,"çľĭ":1349,"vel":1350,"æĸ¹æ³ķ":1351,"Ġben":1352,"åĽłæŃ¤":1353,"care":1354,"per":1355,"åĬŁ":1356,"å»ºè®®":1357,"Ġpos":1358,"æ¤":1359,"we":1360,"åĮº":1361,"iqu":1362,"Ġreal":1363,"æĹ¥":1364,"Ġreduce":1365,"af":1366,"angu":1367,"Ġsk":1368,"Ġed":1369,"erstand":1370,"åĨµ":1371,"mot":1372,"åħĪ":1373,"ç¥":1374,"åºĶè¯¥":1375,"Ġthrough":1376,"Ġconc":1377,"åıĳå±ķ":1378,"è¯ķ":1379,"æ¡Ī":1380,"Ġenvironment":1381,"åı£":1382,"Ġadv":1383,"åĪ«":1384,"Ġbenef":1385,"æ¸ħ":1386,"åĳ³":1387,"åħī":1388,"Ġdevelopment":1389,"eng":1390,"å¦Ĥä½ķ":1391,"ç®¡":1392,"ivers":1393,"åĲĦ":1394,"Ġris":1395,"row":1396,"ergy":1397,"è®¡ç®Ĺ":1398,"ä¿¡æģ¯":1399,"Ġproduct":1400,"è¾ĥ":1401,"è®º":1402,"èĩªå·±çļĦ":1403,"æĬ¤":1404,"åıį":1405,"åħ¶ä»ĸ":1406,"åĪĹ":1407,"ç»Ĩ":1408,"ç©º":1409,"Ġgreat":1410,"ear":1411,"æºĲ":1412,"ject":1413,"çĶŁæ´»":1414,"ä¸ŃçļĦ":1415,"Ġunderstand":1416,"èĭ":1417,"hat":1418,"Ġprogra":1419,"çĬ":1420,"éĩĳ":1421,"Ġincluding":1422,"Ġaccess":1423,"ĠĠĠĠĠĠĠ":1424,"è¯Ĩ":1425,"ç¦":1426,"og":1427,"è£ħ":1428,"Ġart":1429,"Ġwrit":1430,"Ġincre":1431,"Ġph":1432,"æĸ¹éĿ¢":1433,"Ġpract":1434,"Ġusing":1435,"é¡¹":1436,"æİ¥":1437,"Ġways":1438,"Ġlangu":1439,"æĶ¯":1440,"Ġchall":1441,"åİ»":1442,"____":1443,"imate":1444,"æĸŃ":1445,"è¨":1446,"Ġwell":1447,"ll":1448,"Ġpol":1449,"æĢģ":1450,"Ġra":1451,"Can":1452,"åİŁ":1453,"ber":1454,"è¨Ģ":1455,"ç«ĭ":1456,"Ġgen":1457,"éħį":1458,"æ·±":1459,"te":1460,"ä¸ī":1461,"ç§ĳ":1462,"ĠFor":1463,"çº¿":1464,"çħ":1465,"æ¼":1466,"åķĨ":1467,"æĿĲ":1468,"Ġsignific":1469,"Ġgu":1470,"Ġdecis":1471,"Ġtrain":1472,"Ġag":1473,"Ġcreat":1474,"å®Į":1475,"æĹ¶éĹ´":1476,"Ġone":1477,"èĦ":1478,"Ġnat":1479,"åŃ¦ä¹ł":1480,"çļĦæķ":1481,"ced":1482,"Ġwhen":1483,"Ġbi":1484,"èİ":1485,"æĽ´åĬł":1486,"ives":1487,"port":1488,"å·¥ä½ľ":1489,"ving":1490,"Ġbeen":1491,"æĻº":1492,"Ġlife":1493,"å¼ķ":1494,"arm":1495,"çİĩ":1496,"çĶ¨æĪ·":1497,"ä¹ī":1498,"ä»½":1499,"è¯Ŀ":1500,"iness":1501,"com":1502,"åº·":1503,"åĩı":1504,"ä»Ģ":1505,"è¾ĵ":1506,"Ġvari":1507,"con":1508,"Ġmod":1509,"ä»Ģä¹Ī":1510,"Ġenergy":1511,"æĬĢæľ¯":1512,"ertain":1513,"mm":1514,"verall":1515,"åĪĴ":1516,"Ġrobots":1517,"Ġorgan":1518,"æİ¨":1519,"ants":1520,"åĩĨ":1521,"ds":1522,"æŀģ":1523,"çĻ":1524,"Ġrequ":1525,"Ġess":1526,"ç®Ģ":1527,"ustain":1528,"æ¨":1529,"Ġstr":1530,"cing":1531,"ability":1532,"ree":1533,"Ġeduc":1534,"åİĨ":1535,"Ġcreate":1536,"åģ¥åº·":1537,"Ġdesign":1538,"ips":1539,"åģļ":1540,"èĬ±":1541,"ink":1542,"èıľ":1543,"æī¾":1544,"æ®µ":1545,"æµĭ":1546,"ĠV":1547,"ĠBy":1548,"åĶ":1549,"é¦ĸ":1550,"è¯į":1551,"Ġwhere":1552,"Ġdisc":1553,"äºĨè§£":1554,"ric":1555,"ä¸Ķ":1556,"è¶³":1557,"æĺ¯ä¸Ģä¸ª":1558,"arch":1559,"ç§¯":1560,"å¸¦":1561,"Ġwhile":1562,"Ġsignificant":1563,"çłģ":1564,"æĪ¿":1565,"Ġbeing":1566,"Ġlanguage":1567,"itive":1568,"20":1569,"Ġanalyze":1570,"æĻ¯":1571,"èĮ":1572,"rib":1573,"æ¨¡":1574,"ĠSt":1575,"è´¹":1576,"'t":1577,"Ġhealthcare":1578,"Ġexperience":1579,"Ġ5":1580,"ä¸ªäºº":1581,"ays":1582,"è±¡":1583,"plo":1584,"Ġwould":1585,"èĻĳ":1586,"æĶ¶":1587,"é¢Ħ":1588,"é¢Ĩ":1589,"ä¿ĿæĮģ":1590,"ences":1591,"åıª":1592,"èĩ´":1593,"æĪı":1594,"Ġmental":1595,"Ġfew":1596,"ates":1597,"è¿ĩç¨ĭ":1598,"å®īåħ¨":1599,"Ġsustain":1600,"Ġwere":1601,"å¤ª":1602,"çĮ":1603,"Ġspecific":1604,"Ġworld":1605,"çŃĶ":1606,"```":1607,"Ġtake":1608,"åħ»":1609,"éĢŁ":1610,"ever":1611,"SS":1612,"éĶĢ":1613,"Ġbo":1614,"hes":1615,"Ġmus":1616,"æľįåĬ¡":1617,"è§Ĵ":1618,"ten":1619,"æŀĲ":1620,"pow":1621,"dict":1622,"vent":1623,"10":1624,"çļĦæĹ":1625,"ĸçķ":1626,"Ġprot":1627,"ç½®":1628,"Ġhigh":1629,"Ġbus":1630,"Ġindust":1631,"åĲ¦":1632,"cial":1633,"äººä»¬":1634,"ĠAs":1635,"åĳĬ":1636,"ade":1637,"æĶ¹":1638,"çĹ":1639,"Ġhad":1640,"Ġher":1641,"Ġjust":1642,"ï¼Ľ":1643,"è´Ń":1644,"ç¬¬":1645,"éĵ":1646,"Ġwater":1647,"Ġfood":1648,"éĺŁ":1649,"aus":1650,"Ġchalleng":1651,"åħį":1652,"æĸĩåĮĸ":1653,"Ġmost":1654,"é¸":1655,"ç½ĳ":1656,"çĽ´":1657,"Ġsm":1658,"Ġactiv":1659,"ploy":1660,"Overall":1661,"å¿«":1662,"ruct":1663,"Ġindividuals":1664,"å§ĭ":1665,"gies":1666,"æŁ¥":1667,"çĪ±":1668,"iety":1669,"In":1670,"åĪĨæŀĲ":1671,"è§Ĩ":1672,"æ¸©":1673,"ç»´":1674,"olut":1675,"åŁŁ":1676,"ommend":1677,"Ġcomple":1678,"æķĻ":1679,"Ġbu":1680,"Ġeducation":1681,"ather":1682,"Ġ4":1683,"ting":1684,"Ġfind":1685,"æ²¡":1686,"Ġhis":1687,"ä¹ĭéĹ´":1688,"Ġeffective":1689,"Ġatt":1690,"Ġrese":1691,"èĥ½åĬĽ":1692,"åŁİ":1693,"Ġallow":1694,"Ġav":1695,"Ġpromot":1696,"æĻºèĥ½":1697,"æ»¡":1698,"åħ±":1699,"iew":1700,"come":1701,"ç³»ç»Ł":1702,"Ġrespons":1703,"äºĴ":1704,"Ġcult":1705,"powered":1706,"Ġrecommend":1707,"èĲ¥":1708,"OSS":1709,"Ġchange":1710,"è¯ģ":1711,"ved":1712,"æİĴ":1713,"è§£åĨ³":1714,"ici":1715,"ĠHow":1716,"Ġfeel":1717,"æľĪ":1718,"Ġwhat":1719,"ä»¥åıĬ":1720,"Ġsee":1721,"åŃ©":1722,"bs":1723,"Ġsur":1724,"æ£":1725,"ality":1726,"Ġvis":1727,"ç¡®ä¿Ŀ":1728,"pect":1729,"å®ŀçİ°":1730,"Ġcare":1731,"å¹¿":1732,"ills":1733,"åºŃ":1734,"ases":1735,"å¤į":1736,"åºĶçĶ¨":1737,"çļĦæĥ":1738,"ards":1739,"Ġaddress":1740,"Ġcompan":1741,"Ġinvol":1742,"Ġcustomer":1743,"åĽłä¸º":1744,"Ġstudents":1745,"Ġins":1746,"æ³¨æĦı":1747,"æŀĦ":1748,"æ¬¢":1749,"æµ·":1750,"åıĤ":1751,"èĩªçĦ¶":1752,"é©":1753,"ĠThese":1754,"wn":1755,"æĺĵ":1756,"çĬ¶":1757,"ren":1758,"Ġtreat":1759,"Ġbenefits":1760,"ĊĠĠĠĠĠĠĠ":1761,"å¯¹äºİ":1762,"æĢĿ":1763,"ider":1764,"ĠYes":1765,"ĠK":1766,"åĸľ":1767,"Ġke":1768,"Ġeng":1769,"Ġpop":1770,"ost":1771,"pare":1772,"Ġmon":1773,"æ¬¾":1774,"ĠMOSS":1775,"Ġemot":1776,"Ġac":1777,"ç¼ĸ":1778,"fore":1779,"åı¥":1780,"Ġval":1781,"ily":1782,"Ġiss":1783,"èĤī":1784,"èĩ³":1785,"æ¸¸æĪı":1786,"ween":1787,"Ġinclude":1788,"Ġprotect":1789,"åħ³ç³»":1790,"éĻ©":1791,"Ġsever":1792,"Ġthan":1793,"éľĢæ±Ĥ":1794,"ç»ĥ":1795,"ĠThey":1796,"iss":1797,"ys":1798,"Ġjob":1799,"éĺ³":1800,"æĲ":1801,"Ġbetween":1802,"Ġmach":1803,"--------":1804,"èĢĥèĻĳ":1805,"è´¨éĩı":1806,"Ġbusiness":1807,"wor":1808,"ick":1809,"eg":1810,"åħħ":1811,"ç¯":1812,"æĿ¡":1813,"ner":1814,"apt":1815,"Ġappro":1816,"Ġplay":1817,"æ²¡æľī":1818,"¤Ĳ":1819,"æľª":1820,"æĪĺ":1821,"å®¶åºŃ":1822,"ãĢĭ":1823,"ency":1824,"ĠCh":1825,"ãĢĬ":1826,"Ġproviding":1827,"Ġresources":1828,"âĢĻ":1829,"Ġassist":1830,"Ġnatural":1831,"è¯Ħ":1832,"ä¾¿":1833,"Ġsaf":1834,"åħ·æľī":1835,"è°¢":1836,"çĥŃ":1837,"ss":1838,"eth":1839,"old":1840,"Ġperform":1841,"Ġseveral":1842,"é¤Ĳ":1843,"Ġeach":1844,"è½¬":1845,"ci":1846,"Ġty":1847,"Ġpub":1848,"æ´»åĬ¨":1849,"ocus":1850,"çīĮ":1851,"è¶Ĭ":1852,"åĽ¢":1853,"è½»":1854,"è¯Ńè¨Ģ":1855,"Ġareas":1856,"éĩĩ":1857,"ft":1858,"riend":1859,"å·²":1860,"å¸Ĥåľº":1861,"ition":1862,"ients":1863,"ç®¡çĲĨ":1864,"è®¸":1865,"äººç±»":1866,"èº«ä½ĵ":1867,"ique":1868,"Ġpartic":1869,"ç»Ń":1870,"agement":1871,"ves":1872,"ç¬¦":1873,"line":1874,"çº¢":1875,"åĲ¸":1876,"Ġpatter":1877,"000":1878,"ç¤¾ä¼ļ":1879,"åĨħå®¹":1880,"Ġorganiz":1881,"ough":1882,"Ġve":1883,"åŃ©åŃĲ":1884,"æĸ½":1885,"æ¤į":1886,"åĩł":1887,"ä½Ĩæĺ¯":1888,"Ġaff":1889,"Ġnum":1890,"lement":1891,"èīº":1892,"èĳ":1893,"Ġcar":1894,"ages":1895,"abor":1896,"æĺ¯ä¸Ģç§į":1897,"Ġinst":1898,"èĽ":1899,"ä¹ĭä¸Ģ":1900,"è·¯":1901,"åį³":1902,"Ġmain":1903,"éļı":1904,"How":1905,"å¿ħ":1906,"ç¨ĭåºı":1907,"éŁ³ä¹Ĳ":1908,"red":1909,"æ²¹":1910,"Ġoffer":1911,"ets":1912,"ç¢":1913,"Ġduring":1914,"çļĦäºº":1915,"æĽ´å¤ļ":1916,"Ġdi":1917,"ä»£çłģ":1918,"èİ·":1919,"åħĭ":1920,"Ġguid":1921,"ä¸»è¦ģ":1922,"Ġfam":1923,"æİ§":1924,"éĢļå¸¸":1925,"ĠAd":1926,"å¤ĦçĲĨ":1927,"urn":1928,"ower":1929,"åĳ½":1930,"æıı":1931,"Ġskills":1932,"Ġtool":1933,"ware":1934,"æĸĩæľ¬":1935,"Ġpatterns":1936,"çĽ®æłĩ":1937,"acy":1938,"æīĵ":1939,"åŁİå¸Ĥ":1940,"Ġevery":1941,"ries":1942,"è¯»":1943,"éģ¿":1944,"çĻ½":1945,"éĢĤåĲĪ":1946,"Ġpatient":1947,"çľŁ":1948,"oth":1949,"å¥¹":1950,"åĶ®":1951,"ä¸Ģç§į":1952,"Ġmade":1953,"ä½İ":1954,"ise":1955,"Ġrem":1956,"æ¶Ī":1957,"åĲ«":1958,"air":1959,"Ġgener":1960,"oy":1961,"ç²¾":1962,"æĥħåĨµ":1963,"ights":1964,"Ġexpl":1965,"è§ģ":1966,"Ġpredict":1967,"ç±³":1968,"æĽ´å¥½":1969,"ä¿®":1970,"Ġclimate":1971,"Ġfocus":1972,"Ġgrow":1973,"å®¢æĪ·":1974,"ä¸įæĸŃ":1975,"itor":1976,"ĠEn":1977,"çº¦":1978,"æĺ¯åĲ¦":1979,"ä»ħ":1980,"æĪĳä»¬çļĦ":1981,"æľĽ":1982,"op":1983,"Ġmaking":1984,"yth":1985,"ccess":1986,"Ġown":1987,"ggest":1988,"Ġtas":1989,"uture":1990,"Ġmodel":1991,"put":1992,"Ġresearch":1993,"erest":1994,"éļ¾":1995,"Ġ[":1996,"iel":1997,"ational":1998,"Ġcommunic":1999,"ç¥ŀ":2000,"ç©¶":2001,"Ġrest":2002,"æĪĲä¸º":2003,"king":2004,"pr":2005,"åĮ»":2006,"cur":2007,"èĤ²":2008,"Ġ'":2009,"è¿Ļç§į":2010,"ç¯ĩ":2011,"Ġche":2012,"own":2013,"éĻħ":2014,"Ġfin":2015,"åĪ¶ä½ľ":2016,"Ġsuggest":2017,"å¢ŀåĬł":2018,"Ġmedia":2019,"ribut":2020,"çļĦæĥħ":2021,"åĬłåħ¥":2022,"Ġcle":2023,"åĳ¨":2024,"ç«ł":2025,"Ġthink":2026,"Ġlocal":2027,"pportun":2028,"ĠYou":2029,"Ġplan":2030,"Ġeven":2031,"éĽĨ":2032,"å·§":2033,"ax":2034,"Ġchallenges":2035,"Ġprof":2036,"ĠCan":2037,"Ġconcer":2038,"Ġfuture":2039,"åĬ¿":2040,"Ġref":2041,"èģĶ":2042,"Ġself":2043,"æĪĸèĢħ":2044,"ble":2045,"åĽ´":2046,"è¿ĲåĬ¨":2047,"Ġinf":2048,"éĩĬ":2049,"Ġsustainable":2050,"Ġtext":2051,"Ġgra":2052,"äºĮ":2053,"åĵģçīĮ":2054,"ä¸įåĲĮçļĦ":2055,"led":2056,"çĭ¬":2057,"Ġopportun":2058,"Ġcontin":2059,"ym":2060,"Ġget":2061,"å¯Ĩ":2062,"éĻ¤":2063,"æħ":2064,"éģ¿åħį":2065,"Ġ+":2066,"è§ī":2067,"Ġret":2068,"å¸ĥ":2069,"Ġinterest":2070,"Ġsociety":2071,"ç»ĵæŀľ":2072,"åĲ¬":2073,"é¦ĸåħĪ":2074,"Ġbre":2075,"Ġ20":2076,"ĠHowever":2077,"è®°":2078,"ons":2079,"è¿ĳ":2080,"å¼Ģå§ĭ":2081,"Ġbuild":2082,"Ġbeh":2083,"'m":2084,"vers":2085,"Ġgood":2086,"çĲĨè§£":2087,"resent":2088,"ç¦»":2089,"åĬŁèĥ½":2090,"Ġeffort":2091,"labor":2092,"é»ĳ":2093,"Ġbetter":2094,"Ġread":2095,"å¾ĭ":2096,"èĽĭ":2097,"hed":2098,"ä¹°":2099,"å¯¼èĩ´":2100,"Ġimplement":2101,"ç¿":2102,"äº«":2103,"å¤´":2104,"ense":2105,"Ġlong":2106,"other":2107,"é¥®":2108,"åŃĺåľ¨":2109,"çļĦæĦ":2110,"ä¸Ģä»½":2111,"ython":2112,"ning":2113,"åĩıå°ĳ":2114,"åĢĻ":2115,"ä¸ĵ":2116,"åĲĦç§į":2117,"èħ":2118,"å°½":2119,"åįĩ":2120,"æĬ¥":2121,"Ġpublic":2122,"Ġlar":2123,"ä½łçļĦ":2124,"aut":2125,"é¢ĨåŁŁ":2126,"æļ":2127,"ollow":2128,"èģĮ":2129,"Ġchang":2130,"Ġbest":2131,"hip":2132,"åĨį":2133,"akes":2134,"Ġchat":2135,"ited":2136,"Ġpower":2137,"ä¿ĿæĬ¤":2138,"ä¹¦":2139,"è®¡åĪĴ":2140,"éĩįè¦ģçļĦ":2141,"åıĺåĮĸ":2142,"ilities":2143,"Ġconsider":2144,"æĪĳä»¬åı¯ä»¥":2145,"éĤ£ä¹Ī":2146,"Ġide":2147,"æ¼Ķ":2148,"aging":2149,"Ġbased":2150,"å®Ŀ":2151,"Ġrange":2152,"Ġresult":2153,"Ġmem":2154,"çħ§":2155,"Ġlevel":2156,"cou":2157,"Ġbr":2158,"Th":2159,"ä¼ģ":2160,"å»ºç«ĭ":2161,"Ġunique":2162,"è®Ń":2163,"Ġmark":2164,"è®¸å¤ļ":2165,"è¡Įä¸º":2166,"Ķç©¶":2167,"çļĦæĬ":2168,"Ġset":2169,"éª¤":2170,"ts":2171,"Ġhist":2172,"Ġaround":2173,"Ġrev":2174,"åħ¶ä¸Ń":2175,"ï¼ģ":2176,"æııè¿°":2177,"æľĢåĲİ":2178,"Ġsim":2179,"nect":2180,"åĽŀçŃĶ":2181,"éĺ²":2182,"èī¯":2183,"åĪ°äºĨ":2184,"ä¸ĸçķ":2185,"æĸ¹æ¡Ī":2186,"æĿĲæĸĻ":2187,"ä¸ĸçķĮ":2188,"æĽ´å¥½åľ°":2189,"ä¸¤ä¸ª":2190,"Ġemploy":2191,"Ġtry":2192,"æĵ":2193,"Ġback":2194,"åĪĩ":2195,"Ġsuccess":2196,"Ġdecisions":2197,"Ġthose":2198,"å¯Į":2199,"Ġfact":2200,"æİ¢":2201,"è¶£":2202,"Ġpractices":2203,"åĲĹ":2204,"æīį":2205,"çİ©":2206,"ption":2207,"æĸĩç«ł":2208,"Ġfeat":2209,"Ġprevent":2210,"Ġwriting":2211,"çļĦæĢ":2212,"Ġno":2213,"ä»ĭ":2214,"éĹ¨":2215,"Ġdel":2216,"æĴ":2217,"Ġoptim":2218,"ination":2219,"ĠĊ":2220,"usion":2221,"Ġaccount":2222,"ling":2223,"Ġdivers":2224,".\"":2225,"ath":2226,"èĭ±":2227,"ä¼ģä¸ļ":2228,"Ġgrou":2229,"åľ°çĲĥ":2230,"å¤±":2231,"Ġpersonalized":2232,"ĠHe":2233,"è¡¨è¾¾":2234,"curity":2235,"Ġfollow":2236,"äº§çĶŁ":2237,"Ġear":2238,"åİĭ":2239,"vern":2240,"Ġissues":2241,"åĿĩ":2242,"é²":2243,"Ġdr":2244,"iving":2245,"Ġtraining":2246,"Ġrisk":2247,"åĩ½":2248,"åı²":2249,"æĳ":2250,"çļĦæĹ¶":2251,"ogn":2252,"Ġrequire":2253,"Ġenvironmental":2254,"back":2255,"éĶ®":2256,"çĸĹ":2257,"Ġinteract":2258,"åĽ¢éĺŁ":2259,"æ¯ıä¸ª":2260,"çĦ¶åĲİ":2261,"Ġdist":2262,"çĶ¨äºİ":2263,"è®¤ä¸º":2264,"åĩ½æķ°":2265,"Ġsent":2266,"ĊĠĠĠĠĠĠĠĠ":2267,"Ġreducing":2268,"å¹²":2269,"Ġrep":2270,"Ġcaus":2271,"Ġmusic":2272,"çª":2273,"Ġmonitor":2274,"Ġform":2275,"é¢ľ":2276,"çĹħ":2277,"é¦Ļ":2278,"Ġoften":2279,"åı¯èĥ½ä¼ļ":2280,"åĳĺå·¥":2281,"Ġhand":2282,"æĬķ":2283,"Ġneeds":2284,"æŃ¤å¤ĸ":2285,"åıĭ":2286,"ivity":2287,"Ġactivities":2288,"åĸľæ¬¢":2289,"Ġpur":2290,"ian":2291,"self":2292,"åĬ¨çī©":2293,"comes":2294,"å©":2295,"Ġpriv":2296,"az":2297,"Ġrelations":2298,"Ġmachine":2299,"çļĦæ°":2300,"ä»·æł¼":2301,"ä»·åĢ¼":2302,"ç´¢":2303,"Ġfeed":2304,"ä¸Ģä¸ĭ":2305,"Ġteam":2306,"Ġindustry":2307,"è´¢":2308,"ĠPro":2309,"Ġwant":2310,"ç§°":2311,"Ġclass":2312,"Ġlove":2313,"åħ³äºİ":2314,"è¾ĵåħ¥":2315,"Ġtransport":2316,"Ġcomplex":2317,"Ġyear":2318,"éĶĢåĶ®":2319,"å¯»":2320,"ience":2321,"ists":2322,"æĶ¯æĮģ":2323,"Ġmind":2324,"Ġfun":2325,"Ġchar":2326,"æĮī":2327,"Ġconcerns":2328,"conom":2329,"ç®Ģåįķ":2330,"ä»¥ä¸ĭæĺ¯":2331,"Ġstart":2332,"å¹¶ä¸Ķ":2333,"avi":2334,"ä¸ŃåĽ½":2335,"åħĥç´ł":2336,"Ġconf":2337,"Ġpositive":2338,"Ġcur":2339,"Ġcount":2340,"ery":2341,"å¡":2342,"å®¤":2343,"Ġcost":2344,"Ġequ":2345,"Ġpolic":2346,"aste":2347,"aw":2348,"éħĴ":2349,"coura":2350,"iven":2351,"place":2352,"chie":2353,"çļĦæķ°":2354,"åĽłç´ł":2355,"Ġfl":2356,"ism":2357,"Ġmedical":2358,"Ġhumans":2359,"Ġautom":2360,"ertainly":2361,"Ġ0":2362,"Ġoffers":2363,"Ġdetect":2364,"Ġ6":2365,"é£İæł¼":2366,"Ġshow":2367,"çģ«":2368,"Ġanim":2369,"é¢ľèī²":2370,"lease":2371,"ave":2372,"åĵª":2373,"ĠThere":2374,"ä»¥ä¸Ĭ":2375,"æľªæĿ¥":2376,"XX":2377,"çīĩ":2378,"uch":2379,"Ġtasks":2380,"åħ·ä½ĵ":2381,"æ¤įçī©":2382,"Ġmin":2383,"èīºæľ¯":2384,"icult":2385,"Ġexperiences":2386,"æİ§åĪ¶":2387,"be":2388,"Ġpatients":2389,"å²":2390,"ĠWe":2391,"Ġrecogn":2392,"çĥ¤":2393,"Ġsmall":2394,"åĿĹ":2395,"åĦ":2396,"å¤ªéĺ³":2397,"ction":2398,"Ġent":2399,"æį¢":2400,"Ġbefore":2401,"Ġbecome":2402,"å·²ç»ı":2403,"è¡¨çİ°":2404,"Ġexplo":2405,"Ġachie":2406,"ä»»åĬ¡":2407,"å¤§çļĦ":2408,"Ġday":2409,"Ġfound":2410,"å±±":2411,"ond":2412,"Ġtreatment":2413,"pend":2414,"hen":2415,"Ġcondit":2416,"ç¡®å®ļ":2417,"Ġbusinesses":2418,"ĠWh":2419,"æīĢæľī":2420,"Ġdeveloped":2421,"ç»Ī":2422,"æŃ¥éª¤":2423,"Ġdifficult":2424,"åı·":2425,"ĠRe":2426,"éĶĻ":2427,"Ġcho":2428,"Ġquest":2429,"Ġtranspare":2430,"Ġproject":2431,"Ġcommunity":2432,"ov":2433,"å¸Ī":2434,"å¼ł":2435,"åĪĨç±»":2436,"äººçļĦ":2437,"sis":2438,"çĽĬ":2439,"oid":2440,"ĠAn":2441,"ways":2442,"Ġeas":2443,"Ġaffect":2444,"Ġothers":2445,"Ġregul":2446,"æĢ§åĴĮ":2447,"åĸĦ":2448,"agn":2449,"ä½ľä¸º":2450,"åı¯ä»¥å¸®åĬ©":2451,"åĦ¿":2452,"Ġorganizations":2453,"é¸¡":2454,"åħ´":2455,"Ġfriend":2456,"Ġ$":2457,"Ġdetail":2458,"Ġtraditional":2459,"Ġdesigned":2460,"è´Ńä¹°":2461,"ä½ĵéªĮ":2462,"ç»į":2463,"erm":2464,"Ġconnect":2465,"è¿Ļæł·":2466,"Ġrecommendations":2467,"Ġboth":2468,"ŁéĢļ":2469,"æ¯į":2470,"Ġsit":2471,"ä½ľçĶ¨":2472,"ä»ĭç»į":2473,"Ġste":2474,"ĠSure":2475,"åı°":2476,"æĤ¨çļĦ":2477,"Ġshe":2478,"Ġmanagement":2479,"joy":2480,"è´Ł":2481,"Ġpromote":2482,"Ġvarious":2483,"(\"":2484,"por":2485,"Ġsens":2486,"Ġessential":2487,"gether":2488,"ularly":2489,"äºī":2490,"irst":2491,"Ġop":2492,"Ġspecies":2493,"çİ°åľ¨":2494,"cho":2495,"Ġbehavi":2496,"çŃĳ":2497,"å¥³":2498,"Ġquality":2499,"Ġext":2500,"è¥":2501,"å®ĮæĪĲ":2502,"æĢ»ä¹ĭ":2503,"éĥ¨åĪĨ":2504,"ä»İèĢĮ":2505,"åĽ¾":2506,"Ġtyp":2507,"Ġstrate":2508,"è¥¿":2509,"Ġhere":2510,"ars":2511,"å¸Į":2512,"çļĦæĿ":2513,"å°Ŀ":2514,"ee":2515,"ier":2516,"Ġec":2517,"ically":2518,"ering":2519,"å¿µ":2520,"ĠDe":2521,"Ġneg":2522,"å»ºçŃĳ":2523,"Ġservices":2524,"Ġable":2525,"imes":2526,"Ġoptions":2527,"çĽ¸åħ³":2528,"Ġsub":2529,"Ġdecision":2530,"ĠCertainly":2531,"Ġåľ¨":2532,"æ¢":2533,"Ġservice":2534,"):":2535,"å¸¦æĿ¥":2536,"Ġchild":2537,"è§£éĩĬ":2538,"irt":2539,"çĨ":2540,"ä¸įä»ħ":2541,"æĿ¾":2542,"ç§¯æŀģ":2543,"ron":2544,"åı¤":2545,"çłĶç©¶":2546,"ç²ī":2547,"hor":2548,"Ġprofess":2549,"çļĦéĹ®é¢ĺ":2550,"Ġopportunities":2551,"åİĨåı²":2552,"Ġdef":2553,"ĠAm":2554,"Ġgr":2555,"aur":2556,"å±Ĥ":2557,"çŃĸ":2558,"Ġpopular":2559,"æ´ģ":2560,"åıĳçİ°":2561,"Ġpoem":2562,"èµĽ":2563,"Ġob":2564,"Ġdon":2565,"Ġsound":2566,"Ġtransportation":2567,"ious":2568,"åı¦":2569,"Ġrole":2570,"Ġfiel":2571,"ç§ĳåŃ¦":2572,"èĢģ":2573,"reen":2574,"æľīæķĪ":2575,"Ġcor":2576,"Ġfeedback":2577,"Ġtechnologies":2578,"äº¤éĢļ":2579,"Ġadapt":2580,"'re":2581,"ervation":2582,"Ġcommunities":2583,"çİ°ä»£":2584,"Ġlook":2585,"Ġfac":2586,"çĶµå½±":2587,"Ġcollect":2588,"å¾ĹåĪ°":2589,"hips":2590,"Ġavail":2591,"eren":2592,"ä¸Ģèµ·":2593,"çīĽ":2594,"Ġposs":2595,"Ġweather":2596,"Ġefforts":2597,"¿Ģ":2598,"æĹħ":2599,"oh":2600,"Ġcollabor":2601,"æĭ¥":2602,"æĪĲåĬŁ":2603,"èİ·å¾Ĺ":2604,"å±ħ":2605,"Ġtre":2606,"Ġsources":2607,"Ġstudy":2608,"Ġprograms":2609,"éĻĲ":2610,"Ġtips":2611,"Ġmarket":2612,"ally":2613,"å®³":2614,"wards":2615,"æ£Ģ":2616,"ä¸Ģç¯ĩ":2617,"rior":2618,"Ġtop":2619,"Ġend":2620,"åĭ":2621,"Ġlarge":2622,"iciency":2623,"Ġdec":2624,"å®ļçļĦ":2625,"icient":2626,"è¿ĩç¨ĭä¸Ń":2627,"lications":2628,"ç¼º":2629,"Ġtour":2630,"Ġtogether":2631,"äººå·¥":2632,"Ġtools":2633,"æĸ¯":2634,"æ°ĳ":2635,"æĬĬ":2636,"ä¹ĭéĹ´çļĦ":2637,"çī¹çĤ¹":2638,"Ġbel":2639,"ditionally":2640,"åĪ©çĶ¨":2641,"è¾¹":2642,"éĻį":2643,"ĠIf":2644,"é¢Ŀ":2645,"åįı":2646,"å¾Ģ":2647,"lish":2648,"è¯ī":2649,"ins":2650,"å¥¶":2651,"Ġeconom":2652,"Ġinvest":2653,"ĠDo":2654,"tain":2655,"åĩºçİ°":2656,"çļĦå½±åĵį":2657,"aterial":2658,"Ġsure":2659,"Ġpass":2660,"çĶ»":2661,"è´£":2662,"ç»ĵæŀĦ":2663,"æķħ":2664,"æĥħæĦŁ":2665,"æ¿Ģ":2666,"ellig":2667,"ä¼Ĺ":2668,"æ¯Ķè¾ĥ":2669,"tern":2670,"Ġoutcomes":2671,"up":2672,"Ġbeaut":2673,"read":2674,"çĶŁæĪĲ":2675,"æķ°åŃĹ":2676,"Ġdem":2677,"ires":2678,"åı¯ä»¥éĢļè¿ĩ":2679,"æĸ°çļĦ":2680,"Ġdeep":2681,"å¨":2682,"çĭĹ":2683,"åħ³æ³¨":2684,"çĶŁåĳ½":2685,"ä¼łç»Ł":2686,"Ġstay":2687,"æŃĮ":2688,"åħ³éĶ®":2689,"Ġplace":2690,"ä¸»é¢ĺ":2691,"å¾Īå¤ļ":2692,"èĪĴ":2693,"Ġprofessional":2694,"yle":2695,"æĽ²":2696,"19":2697,"Ġessay":2698,"Ġgive":2699,"ç³ĸ":2700,"Ġonly":2701,"æŁĲ":2702,"Ġphys":2703,"å¯¹è¯Ŀ":2704,"Ġcontro":2705,"Ġamount":2706,"cept":2707,"ization":2708,"ç¼ĸåĨĻ":2709,"åıĹåĪ°":2710,"Ġalways":2711,"æ¯Ķå¦Ĥ":2712,"Ġprivacy":2713,"au":2714,"________":2715,"Ġresponsible":2716,"()":2717,"çŃīçŃī":2718,"Ġmaterial":2719,"Ġonline":2720,"é¼":2721,"æĶ¿":2722,"åĽĽ":2723,"Ġenjoy":2724,"åľŁ":2725,"Ġsafety":2726,"Ġtw":2727,"Ġcommunication":2728,"ä¸½":2729,"æĺ¾":2730,"olution":2731,"erg":2732,"įä½ľ":2733,"Ġuser":2734,"Ġemotional":2735,"time":2736,"é¾":2737,"Ġsecurity":2738,"Ġsense":2739,"elines":2740,"åĬ±":2741,"çī©è´¨":2742,"ura":2743,"Ġshare":2744,"Ġanalyzing":2745,"ital":2746,"é±":2747,"irtual":2748,"Ġvisit":2749,"bers":2750,"Ġcour":2751,"Ġproble":2752,"è®¾å¤ĩ":2753,"atch":2754,"land":2755,"é±¼":2756,"æĪĳä»¬éľĢè¦ģ":2757,"ç¨³":2758,"ibility":2759,"Ġefficiency":2760,"å£°":2761,"èĴ":2762,"æľºåĻ¨":2763,"Ġclear":2764,"åĪ¶å®ļ":2765,"izing":2766,"Ġconditions":2767,"lusion":2768,"Ġlow":2769,"Ġlim":2770,"hers":2771,"Ġrisks":2772,"ç¿»":2773,"Ġlet":2774,"åĴĸ":2775,"å¿ĥçĲĨ":2776,"è¿ľ":2777,"print":2778,"Ġchanges":2779,"Ġmeas":2780,"Ġimproving":2781,"Ġcrit":2782,"50":2783,"å¸ĮæľĽ":2784,"Ġaud":2785,"åįĹ":2786,"æĹłæ³ķ":2787,"Ġnegative":2788,"é¡¹çĽ®":2789,"und":2790,"ats":2791,"Ġcompanies":2792,"æī¾åĪ°":2793,"Ġcontribut":2794,"æŃ£ç¡®":2795,"é»Ħ":2796,"å±ŀ":2797,"Ġunderstanding":2798,"Ġmult":2799,"Ġclo":2800,"å¾ģ":2801,"Ġprior":2802,"rim":2803,"äººå·¥æĻºèĥ½":2804,"Ġvariety":2805,"Ġtaking":2806,"åĤ":2807,"aster":2808,"ody":2809,"Ġ{":2810,"çļĦéĩįè¦ģ":2811,"Ġfore":2812,"èµĦæºĲ":2813,"è¦ģæ±Ĥ":2814,"Ġfeatures":2815,"èįī":2816,"me":2817,"èĮĥ":2818,"Ġoper":2819,"çº§":2820,"é²ľ":2821,"æĬĢå·§":2822,"ĳæĪĺ":2823,"ç±»åŀĭ":2824,"æĿ¿":2825,"è½¯":2826,"ew":2827,"Ġrestaur":2828,"Ġwithout":2829,"ructure":2830,"çļĦæĺ¯":2831,"çı":2832,"Ġlist":2833,"urate":2834,"Ġbook":2835,"äº²":2836,"åºĹ":2837,"ä¹Łæĺ¯":2838,"ä»»ä½ķ":2839,"Ġcam":2840,"ĠBe":2841,"Ġgovern":2842,"Ġbehavior":2843,"è®Ńç»ĥ":2844,"Ġfamily":2845,"æĿĤ":2846,"Ġcity":2847,"Ġapproach":2848,"Ġaccurate":2849,"Ġsom":2850,"Ġel":2851,"èĪŀ":2852,"èŀ":2853,"åŁºæľ¬":2854,"Ġdise":2855,"Ġencoura":2856,"ĠWhat":2857,"åĥ":2858,"è¯¦":2859,"¦Ĥ":2860,"å·¥åħ·":2861,"åķ¡":2862,"Ġstill":2863,"chool":2864,"æĦŁåĪ°":2865,"çĶŁçī©":2866,"åĴĸåķ¡":2867,"åĩĨå¤ĩ":2868,"Ġwaste":2869,"Ġevents":2870,"æķĻèĤ²":2871,"Ġ8":2872,"Ġmust":2873,"ied":2874,"asing":2875,"å½¢æĪĲ":2876,"Ġproducts":2877,"åħ¸":2878,"è®²":2879,"fter":2880,"å·®":2881,"less":2882,"Ġcro":2883,"Ġfinan":2884,"åıįåºĶ":2885,"åĪĽéĢł":2886,"Ġguidelines":2887,"åĪ¤":2888,"ä½ľåĵģ":2889,"è¡¨ç¤º":2890,"å¼Ĥ":2891,"Ġknown":2892,"Ġtest":2893,"è¯¯":2894,"ope":2895,"Ġusers":2896,"AI":2897,"å¾·":2898,"new":2899,"è¿½":2900,"iques":2901,"æ¨¡åŀĭ":2902,"åĬĽåĴĮ":2903,"Ġhistory":2904,"ĠAl":2905,"æĬķèµĦ":2906,"å°Ŀè¯ķ":2907,"ank":2908,"Ġhome":2909,"éĴŁ":2910,"ä¸°":2911,"èĪĴéĢĤ":2912,"Ġincrease":2913,"Ġhab":2914,"åĪ»":2915,"è¾ĵåĩº":2916,"Ġleading":2917,"Ġ7":2918,"é£İéĻ©":2919,"Ġperformance":2920,"Ġhapp":2921,"åŃ£":2922,"Ġstand":2923,"ty":2924,"ç¦ı":2925,"Ġcustomers":2926,"åįİ":2927,"Ġbelie":2928,"Ġcompany":2929,"å½ķ":2930,"é£Łçī©":2931,"ĠUn":2932,"Ġsumm":2933,"rent":2934,"ĠCon":2935,"éĢĤéĩı":2936,"anced":2937,"Ġi":2938,"Ġlight":2939,"Ġanalysis":2940,"å°Ĭ":2941,"ĠUse":2942,"ouse":2943,"ted":2944,"Ġcharact":2945,"Ġ#":2946,"to":2947,"ç»ľ":2948,"ä¸įæĺ¯":2949,"Ġdeveloping":2950,"åŁ¹":2951,"Ġstrategies":2952,"Ġmight":2953,"çŁŃ":2954,"çļĦæİ":2955,"Ġfirst":2956,"èĥĮ":2957,"çĮ«":2958,"Ġincludes":2959,"åĽŃ":2960,"Ġdiagn":2961,"Ġgrowth":2962,"ä¸ĵä¸ļ":2963,"Ġdoes":2964,"12":2965,"ç»¿":2966,"Ġkeep":2967,"è¯¦ç»Ĩ":2968,"åĥı":2969,"åıĳçĶŁ":2970,"fact":2971,"åı¯ä»¥åľ¨":2972,"ç«Ļ":2973,"æĭī":2974,"æµİ":2975,"Ġchatbots":2976,"Ġbreak":2977,"è¡¡":2978,"çŁ³":2979,"æĮģç»Ń":2980,"life":2981,"Ġ10":2982,"æ´Ĺ":2983,"ĠAdditionally":2984,"å£«":2985,"ember":2986,"Ġgoals":2987,"å¾®":2988,"Ġview":2989,"Â·":2990,"ove":2991,"åŁºç¡":2992,"Ġoptimize":2993,"Ġtem":2994,"Ġdown":2995,"åŁºç¡Ģ":2996,"è¶ħ":2997,"ercis":2998,"Ġless":2999,"ees":3000,"æĿĥ":3001,"Ġkey":3002,"Ġworks":3003,"è®¨":3004,"åı¥åŃĲ":3005,"Ġrobot":3006,"uss":3007,"åħ¨çĲĥ":3008,"ç»ıæµİ":3009,"æīįèĥ½":3010,"egr":3011,"ä»ĸä»¬çļĦ":3012,"äºĶ":3013,"èµ·æĿ¥":3014,"çĵ":3015,"Ġfactors":3016,"Ġcultural":3017,"æľ¨":3018,"Ġworking":3019,"ä¼¼":3020,"èĲ½":3021,"éĢŁåº¦":3022,"ä½ı":3023,"Ġeffects":3024,"å©ļ":3025,"br":3026,"åİħ":3027,"rain":3028,"\")":3029,"åŃ¦çĶŁ":3030,"\",":3031,"Ġpar":3032,"atform":3033,"Ġensuring":3034,"çĶ±äºİ":3035,"Ġmuch":3036,"Ġwords":3037,"Ġmar":3038,"ç»ıéªĮ":3039,"ä¸ºäºĨ":3040,"åĲĪä½ľ":3041,"ven":3042,"Ġ/":3043,"Ġfinancial":3044,"work":3045,"ories":3046,"æ²»":3047,"Ġtechniques":3048,"æĭ¥æľī":3049,"rap":3050,"å°Ķ":3051,"Ġest":3052,"Ġavailable":3053,"Ġlit":3054,"æ¹":3055,"Ġefficient":3056,"els":3057,"over":3058,"Ġland":3059,"Ġarea":3060,"Ġintellig":3061,"Ġpref":3062,"ature":3063,"çŁ¥è¯Ĩ":3064,"æĵįä½ľ":3065,"å¾ħ":3066,"igate":3067,"çļĦæĶ":3068,"Ġmean":3069,"bo":3070,"Ġcontrol":3071,"éĩĩçĶ¨":3072,"ricult":3073,"Ġprogramm":3074,"Ġtowards":3075,"thing":3076,"ä¸įè¦ģ":3077,"Ġthough":3078,"å½©":3079,"Ġcertain":3080,"Ġwild":3081,"ä»Ĭ":3082,"Ġconservation":3083,"çŁ¥éģĵ":3084,"Ġreally":3085,"çļĦåľ°":3086,"io":3087,"é¥°":3088,"Ġful":3089,"çİ¯ä¿Ŀ":3090,"Ġexplore":3091,"çļĦæ¸":3092,"Ġdiverse":3093,"åĬłå¼º":3094,"çļ®":3095,"Ġemotions":3096,"Ġavoid":3097,"'ll":3098,"çļĦæī":3099,"åį¡":3100,"Ġplatform":3101,"ances":3102,"Ġsitu":3103,"ä»ĺ":3104,"ä½įç½®":3105,"oring":3106,"çĽĲ":3107,"ä¸ĩ":3108,"Ġdev":3109,"nov":3110,"ash":3111,"Ġtwo":3112,"å®ł":3113,"bon":3114,"èµ°":3115,"åĪĹè¡¨":3116,"Ġcy":3117,"èįĲ":3118,"ĠSome":3119,"Ġexplain":3120,"Ġaware":3121,"ç¤¾äº¤":3122,"day":3123,"åıĮ":3124,"æ²ŁéĢļ":3125,"æ°§":3126,"å¼Ģåıĳ":3127,"åħ¬åı¸çļĦ":3128,"Ġair":3129,"åĩ»":3130,"aring":3131,"éĥ½æĺ¯":3132,"Ġlevels":3133,"ods":3134,"Ġsteps":3135,"Ġcap":3136,"æ´ŀ":3137,"é©¬":3138,"Ġreturn":3139,"Ġmet":3140,"çĶŁæĢģ":3141,"ä¸°å¯Į":3142,"æŁĵ":3143,"æīĢä»¥":3144,"é¡»":3145,"Ġer":3146,"Ġfra":3147,"30":3148,"èĵ":3149,"âĢĶ":3150,"Ġå½ĵ":3151,"ah":3152,"ä¿ĥ":3153,"Ġlikely":3154,"ĠĠĠĠĠĠĠĠĠĠĠĠĠĠĠĠ":3155,"åĪĿ":3156,"Ġcreating":3157,"Ġfarm":3158,"Ġbal":3159,"Ġlives":3160,"å®ĥçļĦ":3161,"Ġability":3162,"ä¸ĬçļĦ":3163,"Ġsentence":3164,"åĤ¨":3165,"Ġrout":3166,"Ġprovides":3167,"Ġagain":3168,"å®łçī©":3169,"éĢĲ":3170,"Ġyears":3171,"èŀį":3172,"Ġphysical":3173,"Python":3174,"ĠEx":3175,"iting":3176,"è°ĥæķ´":3177,"ç½ĳç»ľ":3178,"æħ¢":3179,"ç©ºéĹ´":3180,"åĽ°":3181,"è±Ĩ":3182,"æĽ´å¤ļçļĦ":3183,"ĠAr":3184,"Ġmaintain":3185,"å®ŀéĻħ":3186,"Ġtravel":3187,"Ġsat":3188,"pro":3189,"çĶµåŃĲ":3190,"æ±½":3191,"ex":3192,"åģĩ":3193,"æĲŃ":3194,"éļıçĿĢ":3195,"è¿ĺæľī":3196,"ç¤¼":3197,"ale":3198,"Ġconsum":3199,"ĊĠ":3200,"ncy":3201,"Ġquestions":3202,"fort":3203,"making":3204,"Ġdesc":3205,"15":3206,"Ġinvolves":3207,"Ġstress":3208,"åŃĹç¬¦":3209,"here":3210,"Ġimpacts":3211,"Ġexercis":3212,"åĿļ":3213,"ledge":3214,"ç§ĳæĬĢ":3215,"oci":3216,"Ġeffectively":3217,"æ¶Īè´¹":3218,"Ġconclusion":3219,"éĺħ":3220,"Ġstre":3221,"issions":3222,"æ·»":3223,"It":3224,"éĿĻ":3225,"Ġvirtual":3226,"è¡£":3227,"Ġachieve":3228,"ource":3229,"è¿ŀ":3230,"acks":3231,"è¡¨æł¼":3232,"Ġimportance":3233,"èĩªæĪĳ":3234,"These":3235,"num":3236,"çļĦæł":3237,"Ġrelationships":3238,"Ġworkers":3239,"gical":3240,"orpor":3241,"erson":3242,"åĳ¢":3243,"nds":3244,"æİ¨èįĲ":3245,"ohn":3246,"å¿ħé¡»":3247,"å®¹æĺĵ":3248,"ĠGo":3249,"Ġtell":3250,"ĠRes":3251,"onom":3252,"Ġbec":3253,"æ³Ľ":3254,"pos":3255,"Ġmove":3256,"Ġstory":3257,"æŃ¢":3258,"Ġpriorit":3259,"Ġindustries":3260,"èľ":3261,"Ġpossible":3262,"ĠMan":3263,"Ġexpress":3264,"abilities":3265,"Ġintegr":3266,"ä»£è¡¨":3267,"Ġrespond":3268,"åĪĨéĴŁ":3269,"æľºä¼ļ":3270,"Ġthings":3271,"äº¤æµģ":3272,"Ġmeth":3273,"urther":3274,"Ġwide":3275,"èĳĹ":3276,"æĪĳçļĦ":3277,"ĸçķ¥":3278,"ides":3279,"ething":3280,"ĠWhile":3281,"pan":3282,"çŃĸçķ¥":3283,"Ġcent":3284,"Ġplease":3285,"ology":3286,"uracy":3287,"å¾ª":3288,"ward":3289,"nce":3290,"Ġthen":3291,"çªģ":3292,"å¥ĩ":3293,"Ġblo":3294,"ai":3295,"æŀĹ":3296,"ç®Ĺæ³ķ":3297,"ç»¼":3298,"Ġprint":3299,"aces":3300,"lu":3301,"ªæĸ½":3302,"pre":3303,"çļĦæĦı":3304,"Ġsol":3305,"Ġoverall":3306,"hold":3307,"Ġes":3308,"çļĦä¸Ģ":3309,"éģĩ":3310,"Ġpopul":3311,"å°ıè¯´":3312,"æ³¢":3313,"åįģ":3314,"ä¹Łåı¯ä»¥":3315,"é£Łåĵģ":3316,"Ġcontent":3317,"å°Ħ":3318,"Ġrequires":3319,"æ£ĢæŁ¥":3320,"ĊĠĠĠĠĠĠĠĠĠĠĠ":3321,"Ġgroups":3322,"Ġfair":3323,"Ġbl":3324,"å®ŀéªĮ":3325,"æĮīçħ§":3326,"osp":3327,"str":3328,"ä¸įèĥ½":3329,"Ġharm":3330,"Ġprodu":3331,"çļĦæĬĢ":3332,"çĩ":3333,"tle":3334,"Ġanimals":3335,"è§Ĵèī²":3336,"lev":3337,"æ¸Ĳ":3338,"å¤įæĿĤ":3339,"Ġdepend":3340,"æĮĳæĪĺ":3341,"åĮħåĲ«":3342,"Ġhelps":3343,"Ġopen":3344,"Ġnet":3345,"ĠĠĠĠĠ":3346,"Ġstrong":3347,"Ġjour":3348,"å¹¿æ³Ľ":3349,"æķ´ä¸ª":3350,"Ġelect":3351,"Ġresponse":3352,"åįķè¯į":3353,"æľĭ":3354,"Ġ<":3355,"åĮĸåŃ¦":3356,"éĴĪ":3357,"Ġquick":3358,"ually":3359,"Ġsomething":3360,"Ġtrack":3361,"åº¦åĴĮ":3362,"erences":3363,"æłĳ":3364,"Ġaccuracy":3365,"Ġexc":3366,"é£ŀ":3367,"Ġfield":3368,"å¯»æī¾":3369,"éħ¸":3370,"Ġhope":3371,"çĳ":3372,"Ġinnov":3373,"ç»ª":3374,"alk":3375,"Ġtypes":3376,"Ġdid":3377,"åĬª":3378,"Ġcall":3379,"è¯Ĺ":3380,"Ġearly":3381,"ĠOne":3382,"app":3383,"Ġcommon":3384,"æľĢç»Ī":3385,"Ġcheck":3386,"Ġsym":3387,"çĤĴ":3388,"æĬĢèĥ½":3389,"Ġenh":3390,"Ġagricult":3391,"Ġimm":3392,"ç»ĩ":3393,"æ»¡è¶³":3394,"Ġschool":3395,"bal":3396,"Ġfollowing":3397,"based":3398,"Ġwebs":3399,"Ġculture":3400,"ĠCom":3401,"way":3402,"ä¸Ģå®ļ":3403,"åķĨåĵģ":3404,"ude":3405,"çļĦåıĳå±ķ":3406,"çĶŁäº§":3407,"osystem":3408,"Ġplant":3409,"åı¶":3410,"åĲĥ":3411,"ä»ĸçļĦ":3412,"der":3413,"è¯¢":3414,"å®¶åħ·":3415,"Ġfree":3416,"ç§»":3417,"æİĮ":3418,"Ġbody":3419,"Ġpresent":3420,"Ġparticularly":3421,"Ġchildren":3422,"Ġstudent":3423,").":3424,"çī¹å¾ģ":3425,"èĶ":3426,"éĺħè¯»":3427,"æķĪçİĩ":3428,"Ġprogram":3429,"éħ±":3430,"åıĺå¾Ĺ":3431,"ix":3432,"Ġcome":3433,"çļĦæ²":3434,"ĠTe":3435,"ĠTo":3436,"åħ±åĲĮ":3437,"Ġemployees":3438,"è¯´æĺİ":3439,"Ġheart":3440,"Ġmot":3441,"æľĭåıĭ":3442,"eric":3443,"è¯ĳ":3444,"Ġcurrent":3445,"æĪĲæľ¬":3446,"Ġtoo":3447,"çİ©å®¶":3448,"åĪĽæĸ°":3449,"Ġecosystem":3450,"å¸¸è§ģ":3451,"ä¸ĢæŃ¥":3452,"Ġpres":3453,"Ġmulti":3454,"åĳĬè¯ī":3455,"ä¸¥":3456,"Ġmit":3457,"Ġaction":3458,"çĨŁ":3459,"Ġhabit":3460,"åı£æĦŁ":3461,"ç®±":3462,"Ġuses":3463,"å¢ŀå¼º":3464,"ç»Ļåĩº":3465,"Ġ9":3466,"Ġdep":3467,"Ġeconomic":3468,"æĢ§çļĦ":3469,"18":3470,"åĨ°":3471,"Ġhelped":3472,"åĲ¸å¼ķ":3473,"çİĭ":3474,"Ġdiagnos":3475,"åł":3476,"èģĶç³»":3477,"ç¾¤":3478,"ç»ĥä¹ł":3479,"æĪĲéķ¿":3480,"Ġpoint":3481,"å®ļæľŁ":3482,"åĳ¼":3483,"èį¯":3484,"æĿ¯":3485,"æ¤Ĵ":3486,"æķĪæŀľ":3487,"Ġspecial":3488,"æ··":3489,"åĩłä¸ª":3490,"ause":3491,"éĨ":3492,"æ¯ĶèµĽ":3493,"è·Ŀ":3494,"What":3495,"Ġtimes":3496,"icles":3497,"Ġ*":3498,"ç´§":3499,"å¦Ĥæŀľä½ł":3500,"çĭ¬çī¹":3501,"çģµ":3502,"ç¨İ":3503,"Ġcarbon":3504,"Ġbias":3505,"åĬ©äºİ":3506,"Ġconst":3507,"èĩªçĶ±":3508,"æĿ¥è¯´":3509,"å°±æĺ¯":3510,"åį°":3511,"Ġmeet":3512,"è§ĦåĪĴ":3513,"çļĦç¾":3514,"èĲ¥åħ»":3515,"ators":3516,"ç¨³å®ļ":3517,"ode":3518,"çħ®":3519,"Ġassoci":3520,"å¿Ĺ":3521,"è¡ĮæĺŁ":3522,"æĿİ":3523,"Ġreview":3524,"åĩĢ":3525,"ĠRo":3526,"Ġknowledge":3527,"ä»¥ä¾¿":3528,"æµĭè¯ķ":3529,"åĲĪéĢĤ":3530,"sc":3531,"å½¢å¼ı":3532,"Ġfriends":3533,"Ġnature":3534,"Ġcritical":3535,"æ´ĭ":3536,"Ġafter":3537,"erve":3538,"Ġrece":3539,"çļĦæŃ":3540,"æ±½è½¦":3541,"çķĮ":3542,"Ġloss":3543,"Ġapplications":3544,"å¤ļç§į":3545,"éĶħ":3546,"ä¸²":3547,"Ġinsp":3548,"---":3549,"ĠSh":3550,"Ġvol":3551,"lut":3552,"oks":3553,"sequ":3554,"Ġbir":3555,"åĲĪçĲĨ":3556,"Ġnecess":3557,"æĪĳæĥ³":3558,"çŃīæĸ¹éĿ¢":3559,"é¼ĵ":3560,"Ġsoft":3561,"Ġlive":3562,"å°ıæĺİ":3563,"ĠInd":3564,"Ġbring":3565,"æĺ¯æĮĩ":3566,"Ġsoil":3567,"ilar":3568,"ä¸ľ":3569,"æĿ¡ä»¶":3570,"Ġtri":3571,"äº®":3572,"Ġmom":3573,"æı¡":3574,"ä¼°":3575,"ŀäºī":3576,"çĽĳ":3577,"èĤ¤":3578,"è´¢åĬ¡":3579,"æ·»åĬł":3580,"é¥®é£Ł":3581,"Ġallowing":3582,"åºķ":3583,"Ġright":3584,"Ġexpert":3585,"Ġsupp":3586,"Ġinit":3587,"çļĦæµ":3588,"arget":3589,"Ġexpect":3590,"Ġ19":3591,"Ġmeasures":3592,"olutions":3593,"just":3594,"arc":3595,"å°ļ":3596,"Ġpractice":3597,"æľīåĬ©äºİ":3598,"å¤§éĩı":3599,"',":3600,"iment":3601,"Ġcontinue":3602,"Ġdiscuss":3603,"100":3604,"éļľ":3605,"çļĦæĦŁ":3606,"Ġreflect":3607,"itation":3608,"åį«":3609,"äºĨä¸Ģ":3610,"ney":3611,"ĠLe":3612,"ised":3613,"è¶ĭ":3614,"äºĨä¸Ģä¸ª":3615,"Ġincreasing":3616,"çļĦæĮ":3617,"Ġstru":3618,"æĢ»ç»ĵ":3619,"ely":3620,"å®ĩ":3621,"Ġauthor":3622,"è¡¨éĿ¢":3623,"Ġx":3624,"æķħäºĭ":3625,"emic":3626,"Ġrepresent":3627,"ger":3628,"Ġincreased":3629,"ones":3630,"ains":3631,"Ġtrained":3632,"Ġfish":3633,"Ġstate":3634,"åĨ·":3635,"çĶŁéķ¿":3636,"Ġrenew":3637,"ording":3638,"åĮĹ":3639,"æİªæĸ½":3640,"å¹³è¡¡":3641,"Ġsuccessful":3642,"ä¸ĭéĿ¢":3643,"Ġactivity":3644,"èĮ¶":3645,"éĢĤåºĶ":3646,"èĦĳ":3647,"æİ¢ç´¢":3648,"ffic":3649,"ç»ĦæĪĲ":3650,"atives":3651,"äºļ":3652,"Ġscen":3653,"æ²Ļ":3654,"gress":3655,"ä½¿å¾Ĺ":3656,"æī¿":3657,"Ġdiscrim":3658,"Ġassistants":3659,"Ġexist":3660,"çķĻ":3661,"Ġspace":3662,"æľĢè¿ĳ":3663,"Ġideas":3664,"éĩĩåıĸ":3665,"light":3666,"æ³¨éĩį":3667,"çļĦæĹ¶éĹ´":3668,"è¿İ":3669,"Ġcomb":3670,"éĢĤå½ĵ":3671,"Ġyourself":3672,"rite":3673,"ason":3674,"åĮĢ":3675,"åı¯ä»¥ä½¿çĶ¨":3676,"åħħæ»¡":3677,"Ġvalues":3678,"æ½":3679,"Ġbiases":3680,"ä¿ĥè¿Ľ":3681,"åľºæĻ¯":3682,"ross":3683,"åį³åı¯":3684,"Ġcru":3685,"Ġnumber":3686,"Ġtype":3687,"rast":3688,"åĩĨç¡®":3689,"This":3690,"Ġpast":3691,"çģ¯":3692,"å®ļä¹ī":3693,"Ġsolutions":3694,"Ġter":3695,"ä¿Ŀè¯ģ":3696,"èĶ¬":3697,"å¹¸":3698,"åī§":3699,"åħ´è¶£":3700,"åª":3701,"ention":3702,"avor":3703,"Ġscient":3704,"åĬªåĬĽ":3705,"Ġproviders":3706,"Ġpolicies":3707,"alu":3708,"ĠIm":3709,"Ġallows":3710,"Ġintelligence":3711,"çļĦæĸ¹æ³ķ":3712,"è¿Ļæĺ¯":3713,"Ġ`":3714,"Ġemissions":3715,"Ġå°Ĩ":3716,"Ġmeaning":3717,"Ġstyle":3718,"åİŁåĽł":3719,"Ġstrugg":3720,"çļĦç¾İ":3721,"iful":3722,"dition":3723,"éĥ½æľī":3724,"ç©ºæ°Ķ":3725,"å®ĥä»¬çļĦ":3726,"ä¼ĺåĮĸ":3727,"Ġinflu":3728,"åŁºäºİ":3729,"Ġdetails":3730,"Ġtransparency":3731,"Ġmess":3732,"ĠCl":3733,"Ġgame":3734,"pri":3735,"è¶ĭåĬ¿":3736,"å½Ĵ":3737,"ç¿»è¯ĳ":3738,"æķ£":3739,"By":3740,"éŃ":3741,"ĠAmeric":3742,"Ġproduction":3743,"Ġincorpor":3744,"æĻļ":3745,"Ġinvolve":3746,"Ġhot":3747,"æĻ®":3748,"by":3749,"Ġflow":3750,"Ġemerg":3751,"åº§":3752,"Ġidea":3753,"åİĭåĬĽ":3754,"éĿĴ":3755,"oms":3756,"èģĮä¸ļ":3757,"Ġreport":3758,"Ġpap":3759,"Ġtherap":3760,"Ġsal":3761,"åıĤä¸İ":3762,"æĸĩåŃ¦":3763,"æĲŃéħį":3764,"oot":3765,"),":3766,"Ġcr":3767,"Ġprocesses":3768,"gin":3769,"å¹³åı°":3770,"å¯Ł":3771,"Ġpromoting":3772,"æļĸ":3773,"akehold":3774,"ç»§":3775,"iver":3776,"æ¦Ĥ":3777,"Ġmodels":3778,"Ġdra":3779,"èĸ":3780,"Ġgroup":3781,"è¶³å¤Ł":3782,"Ġgreen":3783,"Ġhealthy":3784,"Ġcomfort":3785,"Ġadditional":3786,"ä¸Ģæ¬¡":3787,"é¤Ĳåİħ":3788,"Ġmaterials":3789,"Ġmanage":3790,"çļĦæ¯":3791,"ä¼¤":3792,"åıĬæĹ¶":3793,"Ġglo":3794,"Ġstat":3795,"å¿«éĢŁ":3796,"Ġmonitoring":3797,"aily":3798,"rand":3799,"oice":3800,"resh":3801,"ç»Ħç»ĩ":3802,"Ġunder":3803,"Ġnecessary":3804,"Ġhelpful":3805,"ĠCol":3806,"é»ĳæ´ŀ":3807,"åģļåĩº":3808,"Ġcourse":3809,"Ġmat":3810,"Ġleg":3811,"Ġface":3812,"ä»¤":3813,"èī¯å¥½çļĦ":3814,"ock":3815,"åĮ»çĸĹ":3816,"çĽĸ":3817,"idence":3818,"Ġassociated":3819,"Ġprogress":3820,"åľĨ":3821,"Ġeveryone":3822,"ç¼ĵ":3823,"ĠEng":3824,"word":3825,"èĵĿ":3826,"å¤©æ°Ķ":3827,"Ġactions":3828,"ems":3829,"ĠPl":3830,"å®Ļ":3831,"ush":3832,"é¡¾":3833,"Ġcosts":3834,"ator":3835,"ç©¿":3836,"Ġamounts":3837,"èĶ¬èıľ":3838,"..":3839,"Ġmanner":3840,"Ġconsequ":3841,"æ°ĶåĢĻ":3842,"Ġinsights":3843,"being":3844,"atory":3845,"ener":3846,"lex":3847,"Ġmeans":3848,"Ġcollaboration":3849,"Ġperspect":3850,"orm":3851,"priate":3852,"å°Ĭéĩį":3853,"Ġtarget":3854,"è®°å½ķ":3855,"åĢĴ":3856,"Ġrenewable":3857,"æĦ¿":3858,"èĥ½æºĲ":3859,"Ġinput":3860,"å®ĩå®Ļ":3861,"ape":3862,"Ġadjust":3863,"eries":3864,"Ġdire":3865,"ä¾Ŀ":3866,"ustr":3867,"fect":3868,"Ġbeautiful":3869,"Ġdue":3870,"reci":3871,"çĮ®":3872,"èĥĮæĻ¯":3873,"èĤ¡":3874,"Ġdam":3875,"ik":3876,"Ġadvanced":3877,"çĽ¸å¯¹":3878,"åĲįç§°":3879,"Ġshort":3880,"Ġobject":3881,"è¿ĻéĩĮ":3882,"éĢłæĪĲ":3883,"èĲ¥éĶĢ":3884,"çļĦæĥħæĦŁ":3885,"ç¥¨":3886,"Ġcountries":3887,"ining":3888,"istic":3889,"Ġplans":3890,"è´£ä»»":3891,"Ġstakehold":3892,"the":3893,"Ġassess":3894,"æĢĿèĢĥ":3895,"ech":3896,"æĪĲåĳĺ":3897,"21":3898,"Ġdaily":3899,"Ġcomput":3900,"çļĦæĥħåĨµ":3901,"æıĲåĩº":3902,"ĠâĢľ":3903,"åªĴ":3904,"ä¸Ńå¿ĥ":3905,"ished":3906,"ĠSe":3907,"onomous":3908,"ern":3909,"ç»´æĬ¤":3910,"ames":3911,"Ġprioritize":3912,"çº¸":3913,"èĤ¥":3914,"Ġtemper":3915,"æ¸ħæ´ģ":3916,"use":3917,"æ±¡":3918,"Ġminim":3919,"æĺ¯åľ¨":3920,"å¤§å°ı":3921,"åĵªäºĽ":3922,"Ġappreci":3923,"reng":3924,"Ġregulations":3925,"ĠZ":3926,"éĶĻè¯¯":3927,"rans":3928,"èĢĮä¸Ķ":3929,"èĪ¬":3930,"èĳ±":3931,"èĨ":3932,"æ°´å¹³":3933,"è´Ńçī©":3934,"åŃĹç¬¦ä¸²":3935,"å¯¹æĸ¹":3936,"Ġhim":3937,"Ġconsequences":3938,"å·´":3939,"é¼ĵåĬ±":3940,"Ġfil":3941,"äººåĳĺ":3942,"è·Ŀç¦»":3943,"ĠWhen":3944,"çļĦæ°´":3945,"çī©çĲĨ":3946,"åĲĮæĹ¶ä¹Ł":3947,"åľ¨è¿Ļä¸ª":3948,"åħ¶æ¬¡":3949,",\"":3950,"æ¶²":3951,"çĶ·":3952,"ival":3953,"åı¯ä»¥è®©":3954,"æĥ¯":3955,"Ġadvance":3956,"Ġveh":3957,"å¦ĤæŀľæĤ¨":3958,"Ġestab":3959,"ript":3960,"ç«¯":3961,"ä¸įä¼ļ":3962,"Ġtransparent":3963,"æķ°éĩı":3964,"çĽĺ":3965,"Ġspeak":3966,"Ġpark":3967,"Ġstakeholders":3968,"éº":3969,"Ġevent":3970,"çļĦæķ°æį®":3971,"èĩªåĬ¨":3972,"ç»ĨèĬĤ":3973,"è¯Ħä¼°":3974,"æ¶¦":3975,"Ġpreferences":3976,"Ġveget":3977,"æįŁ":3978,"equ":3979,"Ġgl":3980,"Ġpain":3981,"ogra":3982,"Ġtraffic":3983,"Ġoce":3984,"ä¹ĺ":3985,"ext":3986,"âĢĿï¼Į":3987,"Ġanother":3988,"å¤ļå°ĳ":3989,"Ġagainst":3990,"ç»ıåİĨ":3991,"è®¡ç®Ĺæľº":3992,"èĢĲ":3993,"è½¯ä»¶":3994,"ĠPre":3995,"Ġplants":3996,"çĽ¸äºĴ":3997,"é¢ĳ":3998,"\\_":3999,"Ġsame":4000,"rug":4001,"Ġvalu":4002,"Ġocc":4003,"çļĦç¤":4004,"Ġsustainability":4005,"ĠShe":4006,"de":4007,"ote":4008,"Ġdig":4009,"NA":4010,"Ġcrucial":4011,"æī§":4012,"å±Ģ":4013,"æĭŁ":4014,"æĭĮ":4015,"Ġnon":4016,"Ġengaging":4017,"Ġintern":4018,"LP":4019,"æ¸©åº¦":4020,"æł¸":4021,"æĬ¥åĳĬ":4022,"æĿ¥è¶Ĭ":4023,"hood":4024,"ä¸īä¸ª":4025,"å¦Ĥä¸ĭ":4026,"çī©ä½ĵ":4027,"force":4028,"Ġneeded":4029,"Ġimages":4030,"Ġbuilding":4031,"icious":4032,"ĠæĪĳ":4033,"è¶ĬæĿ¥è¶Ĭ":4034,"æĶ¾åħ¥":4035,"go":4036,"éĻįä½İ":4037,"å½ĵåľ°":4038,"æ¶Īè´¹èĢħ":4039,"ç£":4040,"iversity":4041,"é¢Ħç®Ĺ":4042,"icle":4043,"æ··åĲĪ":4044,"Ġparticip":4045,"Ġdishes":4046,"Ġthroughout":4047,"Ġwithin":4048,"åı³":4049,"é«ĺçļĦ":4050,"Ġphot":4051,"Ġtrust":4052,"æĦıè¯Ĩ":4053,"ä»¥ç¡®ä¿Ŀ":4054,"çĬ¶æĢģ":4055,"Ġautomation":4056,"11":4057,"Ġpost":4058,"æīĭæľº":4059,"works":4060,"éĢı":4061,"åºĵ":4062,"Ġwind":4063,"Ġ==":4064,"Ġprocessing":4065,"èĮĥåĽ´":4066,"æĦıä¹ī":4067,"è¿½æ±Ĥ":4068,"Ã©":4069,"å¾Ħ":4070,"éĿł":4071,"ä¸ĸ":4072,"èĻ½":4073,"ç«ŀäºī":4074,"Ġappropriate":4075,"æĽ´å¥½çļĦ":4076,"Ġcharacter":4077,"cl":4078,"ç§ĺ":4079,"itude":4080,"Ġteac":4081,"leep":4082,"ĠDevelop":4083,"ince":4084,"å·¦":4085,"ground":4086,"è¡Įä¸ļ":4087,"éĴĪå¯¹":4088,"å¿ħè¦ģ":4089,"Ġdeterm":4090,"----------------":4091,"Ġstreng":4092,"do":4093,"Ġchallenging":4094,"ork":4095,"Ġanx":4096,"èī²çļĦ":4097,"Ġhard":4098,"æĺİç¡®":4099,"åĪĨäº«":4100,"æĶ¹åıĺ":4101,"ä½³":4102,"åıªæľī":4103,"å±ķç¤º":4104,"Ġcamp":4105,"çº³":4106,"aj":4107,"etic":4108,"ument":4109,"ä½łåı¯ä»¥":4110,"Ġpollut":4111,"Ġhig":4112,"pping":4113,"ead":4114,"çĦ¶èĢĮ":4115,"ç¬¬äºĮ":4116,"é¸Ł":4117,"çī©åĵģ":4118,"ä¸¾":4119,"Ġencourage":4120,"pecial":4121,"Ġacross":4122,"elves":4123,"äºĭä»¶":4124,"cle":4125,"æ©":4126,"åªĴä½ĵ":4127,"ners":4128,"Ġcal":4129,"èĻ½çĦ¶":4130,"åĽº":4131,"ä¹łæĥ¯":4132,"Ġsafe":4133,"èĥ½éĩı":4134,"istics":4135,"ä¹ĭåīį":4136,"Ġissue":4137,"å¤ļä¸ª":4138,"åĨ³çŃĸ":4139,"è¾¾åĪ°":4140,"æĹ©":4141,"ä¸įåı¯":4142,"ä¸ĢçĽ´":4143,"å·¨":4144,"æĦŁè°¢":4145,"ĠNew":4146,"ä¸Ģæ®µ":4147,"Ġmachines":4148,"å°Ĩåħ¶":4149,"ç»§ç»Ń":4150,"Ġword":4151,"çī¹åĪ«":4152,"Ġagriculture":4153,"æĢİ":4154,"éĢĲæ¸Ĳ":4155,"éĵ¾":4156,"è¯¾":4157,"Ġkind":4158,"å¢Ļ":4159,"è°¢è°¢":4160,"Ġalgorithm":4161,"è£ħé¥°":4162,"Ġalong":4163,"Ġeasy":4164,"äºĳ":4165,"è§£åĨ³æĸ¹æ¡Ī":4166,"Ġawareness":4167,"'ve":4168,"æĸ¹åĲĳ":4169,"Ġnever":4170,"Ġquickly":4171,"Ġrespect":4172,"çļĦæĻ":4173,"Ġamong":4174,"Ġaccountability":4175,"Ġlaw":4176,"ening":4177,"Ġdefin":4178,"Ġsurround":4179,"éĵģ":4180,"Ġpowerful":4181,"An":4182,"Ġcause":4183,"æ¥":4184,"æİĮæı¡":4185,"è¿ĺæĺ¯":4186,"Ġcreative":4187,"è¡Ģ":4188,"Ġlocated":4189,"unning":4190,"åľ°åĮº":4191,"éĿ¢ç§¯":4192,"éĽ¨":4193,"Ġnear":4194,"Ġiniti":4195,"ression":4196,"ä¸ĭæĿ¥":4197,"25":4198,"é©¶":4199,"¾çĹħ":4200,"ables":4201,"æľīè¶£":4202,"å¾ªçİ¯":4203,"çŃĶæ¡Ī":4204,"çł´":4205,"ication":4206,"éĻ¢":4207,"æ²»çĸĹ":4208,"Ġaddition":4209,"äºĭæĥħ":4210,"Ġbecause":4211,"åıĪ":4212,"èĤĮ":4213,"çºª":4214,"side":4215,"æĭħ":4216,"æ¹¿":4217,"åįĬ":4218,"é¡º":4219,"ĠAnd":4220,"Ġrestaurant":4221,"Ġvide":4222,"Ġproblem":4223,"azing":4224,"Ġmembers":4225,"Ġnut":4226,"Ġcou":4227,"æµª":4228,"Ġè¿Ļ":4229,"Ġhelping":4230,"ĠIs":4231,"æıĲåįĩ":4232,"ĠĠĠĠĠĠ":4233,"Ġsho":4234,"Ġrelev":4235,"Ġarg":4236,"Ġbalance":4237,"illed":4238,"æĺ¯ä»Ģä¹Ī":4239,"åĬĽéĩı":4240,"ired":4241,"å¤ľ":4242,"åı¯æĮģç»Ń":4243,"Ġperfect":4244,"**":4245,"ification":4246,"æ¶ī":4247,"Ġwildlife":4248,"ane":4249,"Ġrelated":4250,"å®¤åĨħ":4251,"åºľ":4252,"äº«åıĹ":4253,"ours":4254,"è·ĳ":4255,"åķĨä¸ļ":4256,"aching":4257,"Ġsun":4258,"Ġrecognition":4259,"elt":4260,"Ġorder":4261,"å¹³åĿĩ":4262,"ging":4263,"ä¸´":4264,"çĤ¼":4265,"Ġgoing":4266,"åĳ¼åĲ¸":4267,"Ġsoftware":4268,"Ġremot":4269,"èĳĹåĲį":4270,"å¹¸ç¦ı":4271,"Ġenhance":4272,"èĻļ":4273,"Ġnow":4274,"Ġthreat":4275,"Ġdest":4276,"åĿĩåĮĢ":4277,"Ġacad":4278,"åºĶå¯¹":4279,"çľĭåĪ°":4280,"cast":4281,"è¾Ĩ":4282,"ificial":4283,"Ġvery":4284,"ook":4285,"åĮºåŁŁ":4286,"¹ģ":4287,"æĪ¿éĹ´":4288,"æıĲä¾ĽäºĨ":4289,"Ġmotiv":4290,"Ġaccessible":4291,"åĨ³å®ļ":4292,"Ġhy":4293,"å®Ī":4294,"Ġflo":4295,"ug":4296,"Ġinformed":4297,"åĵģè´¨":4298,"çļĦçŁ":4299,"aves":4300,"arr":4301,"ĠWith":4302,"let":4303,"è§ĤçĤ¹":4304,"enge":4305,"è¡ĮåĬ¨":4306,"friend":4307,"ç³ķ":4308,"Ġfurther":4309,"ĠEns":4310,"ç§ģ":4311,"Ġado":4312,"Ġclean":4313,"çĽ¸åºĶ":4314,"Ġfre":4315,"pecially":4316,"èĹ":4317,"Ġcapt":4318,"çļĦçľ":4319,"Ġsomeone":4320,"Ġcell":4321,"æĶ¾åľ¨":4322,"æ¬¢è¿İ":4323,"ĠâĢ":4324,"Ġdevices":4325,"çļĦæĸ¹å¼ı":4326,"Ġjobs":4327,"augh":4328,"not":4329,"æľīäºĽ":4330,"åħ¬åħ±":4331,"gest":4332,"çļĦçĶŁæ´»":4333,"çľ¼":4334,"çļĦä¿¡æģ¯":4335,"ĠCons":4336,"æİĴåºı":4337,"Ġbenefit":4338,"rect":4339,"å¤ı":4340,"unte":4341,"ç¬¦åĲĪ":4342,"ä¸Ģä½į":4343,"åĨħéĥ¨":4344,"Ġlooking":4345,"ding":4346,"æĬĺ":4347,"è¾ĳ":4348,"è¿Ļä¸ªéĹ®é¢ĺ":4349,"Ġespecially":4350,"çľł":4351,"âĢĿãĢĤ":4352,"å¥ı":4353,"ray":4354,"è¿ĺåı¯ä»¥":4355,"åĪĽä½ľ":4356,"coming":4357,"Ġmultiple":4358,"éļĲ":4359,"æ³¡":4360,"æłĩåĩĨ":4361,"Ġmil":4362,"éľĢè¦ģæ³¨æĦı":4363,"Ġanxiety":4364,"æĶ¹è¿Ľ":4365,"å±ĭ":4366,"æ±¡æŁĵ":4367,"ç¼ĸç¨ĭ":4368,"è´¹çĶ¨":4369,"Ġevalu":4370,"imately":4371,"Ġliter":4372,"ograph":4373,"Ġsearch":4374,"16":4375,"enced":4376,"Ġmethods":4377,"çĥĪ":4378,"æ¨¡å¼ı":4379,"çĬ¶åĨµ":4380,"æĶ¹åĸĦ":4381,"å¤ļæł·":4382,"cer":4383,"å¥ĸ":4384,"Ġsatis":4385,"Ġwebsite":4386,"åĬŀ":4387,"åģ¥èº«":4388,"Ġglobal":4389,"Ġask":4390,"Ġplatforms":4391,"Ġdiseases":4392,"çİ°è±¡":4393,"tics":4394,"æ±ģ":4395,"åĪ¤æĸŃ":4396,"Ġconvers":4397,"Ġrelationship":4398,"è®¾ç½®":4399,"æ³ķå¾ĭ":4400,"Ġmindful":4401,"é¢Ħæµĭ":4402,"overy":4403,"åģľ":4404,"çĶµè§Ĩ":4405,"è§ĦåĪĻ":4406,"aken":4407,"Ġimplementing":4408,"ising":4409,"åıĤåĬł":4410,"æĥħç»ª":4411,"Ġprovided":4412,"æ·±åħ¥":4413,"Ġprogrammed":4414,"Ġrelevant":4415,"çļĦçĥ":4416,"çĸ¾çĹħ":4417,"åĮ»çĶŁ":4418,"åĪĽå»º":4419,"Ġgenerate":4420,"æĶ¶åħ¥":4421,"ä¼ĳ":4422,"izes":4423,"Ġtransform":4424,"éģµ":4425,"astic":4426,"åĳĪ":4427,"æ¯ıä¸ªäºº":4428,"è¿Ķ":4429,"iet":4430,"Ġvoice":4431,"éĢĶ":4432,"æĶ¾æĿ¾":4433,"åį´":4434,"èĥľ":4435,"Ġstructure":4436,"æĹ¶å°ļ":4437,"ĠQ":4438,"Ġelse":4439,"duc":4440,"Ġemp":4441,"èģļ":4442,"è´§":4443,"aches":4444,"ç§Ģ":4445,"anks":4446,"Ġnight":4447,"Ġprofessionals":4448,"Ġbas":4449,"è´µ":4450,"ec":4451,"Ġdiversity":4452,"ites":4453,"dr":4454,"åĽ°éļ¾":4455,"ĥåľ":4456,"åŀĥåľ":4457,"åŀĥåľ¾":4458,"Ġdrug":4459,"ç¢³":4460,"Ġname":4461,"åĮĸçļĦ":4462,"aid":4463,"æľĢå¤§":4464,"æĳĦ":4465,"ç®ĢåįķçļĦ":4466,"Ġwarm":4467,"Ġdone":4468,"Ġfunction":4469,"asc":4470,"å¼ºè°ĥ":4471,"Ġdemand":4472,"Ġvisual":4473,"Ġupd":4474,"æŃ£åľ¨":4475,"Ġsimilar":4476,"éĢĴ":4477,"æ¯Ľ":4478,"éĶ»":4479,"ently":4480,"Ġvaluable":4481,"Ġdisaster":4482,"ä¸ĢèĪ¬":4483,"æ´²":4484,"ĠReg":4485,"Ġdiscrimination":4486,"åĨĻä¸Ģç¯ĩ":4487,"Ġgovernment":4488,"Ġå¥½çļĦ":4489,"500":4490,"lying":4491,"Ġprev":4492,"Ġprepare":4493,"Ġproblems":4494,"è·³":4495,"Ġprom":4496,"åĨ²":4497,"å®īè£ħ":4498,"éĶ»çĤ¼":4499,"æµĵ":4500,"è¹":4501,"åºĶçĶ¨ç¨ĭåºı":4502,"ng":4503,"Ġcompet":4504,"åĪĨåĪ«":4505,"ological":4506,"å®¡":4507,"Ġtransl":4508,"Ġdirect":4509,"åīĤ":4510,"Ġsuggestions":4511,"Ġpaper":4512,"Ġrecognize":4513,"ton":4514,"Ġmitigate":4515,"è®¨è®º":4516,"äºĴåĬ¨":4517,"ĠEar":4518,"Ġamazing":4519,"cre":4520,"é¦Ī":4521,"Ġinvolved":4522,"face":4523,"æľīåħ³":4524,"))":4525,"Ġexce":4526,"Ġproductivity":4527,"èŃ":4528,"é¦Ĩ":4529,"Ġsounds":4530,"Ġidentifying":4531,"],":4532,"é¾Ļ":4533,"Ġfit":4534,"Ġcontribute":4535,"ths":4536,"friendly":4537,"ele":4538,"ified":4539,"iveness":4540,"itely":4541,"ĠX":4542,"Ġled":4543,"åĿı":4544,"Ġhistor":4545,"Ġdat":4546,"Ġjourney":4547,"Ġ}":4548,"Ġselect":4549,"æ¼«":4550,"Ġconduct":4551,"è¿Ľä¸ĢæŃ¥":4552,"ç»ĻæĪĳ":4553,"Ġlif":4554,"è£ħä¿®":4555,"ä¸ºä»Ģä¹Ī":4556,"äº¬":4557,"Ġnav":4558,"Ġwhole":4559,"ç¹ģ":4560,"åĨľ":4561,"æĶ»":4562,"Ġbreat":4563,"Ġmiss":4564,"é¾Ħ":4565,"tt":4566,"sw":4567,"Ġbar":4568,"è¯·éĹ®":4569,"èģĶç½ĳ":4570,"Ġattract":4571,"æĤ¨åı¯ä»¥":4572,"One":4573,"åħħåĪĨ":4574,"ring":4575,"Ġå½ĵçĦ¶":4576,"ream":4577,"Ġevol":4578,"Ġsn":4579,"ĠEm":4580,"mosp":4581,"Ġchoose":4582,"view":4583,"Ġarr":4584,"Ġsleep":4585,"ended":4586,"æŀ¶":4587,"Ġvehicles":4588,"Ġfresh":4589,"Ġorganization":4590,"è¿Ļæ®µ":4591,"æ±¤":4592,"ĠInt":4593,"Ġcontext":4594,"åı¦å¤ĸ":4595,"Ġocean":4596,"æĦŁåıĹ":4597,"Ġpollution":4598,"urb":4599,"æī§è¡Į":4600,"ersonal":4601,"ĠHealth":4602,"ä¼ĺçĤ¹":4603,"Ġattention":4604,"æľīçĿĢ":4605,"é£ŁæĿĲ":4606,"Ġerr":4607,"çļĦæĿ¥":4608,"çļĦçĪ":4609,"èŃ¦":4610,"è·Ł":4611,"æĹħè¡Į":4612,"èĴľ":4613,"çļĦæĢĿ":4614,"Ġchatbot":4615,"çļĦéľĢæ±Ĥ":4616,"çķ¥":4617,"Ġfeeling":4618,"Ġimplemented":4619,"ç¤¾åĮº":4620,"çļĦå»ºè®®":4621,"æĲħ":4622,"éĹ»":4623,"åıįé¦Ī":4624,"çĽ´æİ¥":4625,"æĺ¥":4626,"itable":4627,"æĪĳä¼ļ":4628,"åį±":4629,"èī¯å¥½":4630,"Ġliving":4631,"åıĺéĩı":4632,"ĠBut":4633,"Ġcomplete":4634,"Ġtrends":4635,"Ġmakes":4636,"ä»Ĭå¤©":4637,"Ġdistribut":4638,"Ġcommit":4639,"Ġatmosp":4640,"ä¼´":4641,"Ġsensors":4642,"Ġsw":4643,"æĹłè®º":4644,"omen":4645,"æĶ¿åºľ":4646,"Ġchallenge":4647,"Ġturn":4648,"çĲĨè®º":4649,"par":4650,"Ġwrite":4651,"ç»ıåħ¸":4652,"emember":4653,"é¥Ń":4654,"æĸ¹ä¾¿":4655,"Ġcu":4656,"Ġvalue":4657,"Ġfund":4658,"pose":4659,"è°ĥæŁ¥":4660,"çĿ¡":4661,"Ġcommunicate":4662,"Ġdisease":4663,"Ġresearc":4664,"Ġlack":4665,"arning":4666,"ĠPark":4667,"çĦ¦":4668,"é«ĺåº¦":4669,"Ġrather":4670,"å®£":4671,"çĪ¶":4672,"éĺ¶":4673,"è®¢":4674,"çĥ§":4675,"Ġhigher":4676,"Ġsummary":4677,"ĠAut":4678,"çļĦæ³":4679,"Ġele":4680,"isms":4681,"Ġreli":4682,"ä¹Łä¼ļ":4683,"fra":4684,"åĳĬè¯īæĪĳ":4685,"æĬ½":4686,"Ġsituations":4687,"Ġmarine":4688,"æĥ³è¦ģ":4689,"inci":4690,"inal":4691,"Ġgain":4692,"Ġdifference":4693,"æľºåĻ¨äºº":4694,"æµģç¨ĭ":4695,"ĠChat":4696,"ç½ĳç«Ļ":4697,"æľ«":4698,"Ġcolor":4699,"Ġaspect":4700,"ç½Ĺ":4701,"ĠEduc":4702,"Ġdeploy":4703,"Ġbeauty":4704,"æĤ£":4705,"ruction":4706,"itut":4707,"æĿŁ":4708,"è®©æĪĳä»¬":4709,"éķ¿åº¦":4710,"ules":4711,"æ¶īåıĬ":4712,"Ġdigital":4713,"Ġexisting":4714,"ĠOr":4715,"\\_\\_":4716,"Ġbackground":4717,"çĹĩ":4718,"æ¯ıå¤©":4719,"python":4720,"Ġfarmers":4721,"Ġcontinu":4722,"\":":4723,"Ġgiven":4724,"å°ıæĹ¶":4725,"Ġmoment":4726,"200":4727,"John":4728,"éĿ¢å¯¹":4729,"Ġintro":4730,"Ġtherapy":4731,"è¿ĶåĽŀ":4732,"å¹¶åľ¨":4733,"Ġz":4734,"Ġafford":4735,"ä¸Ŀ":4736,"å®½":4737,"ĠÃ":4738,"ĠNational":4739,"èĥ¡":4740,"Ġexercise":4741,"æĲħæĭĮ":4742,"æĶ¯ä»ĺ":4743,"éĺ³åħī":4744,"è¯ļ":4745,"Ġsect":4746,"ĠSu":4747,"å¢ŀéķ¿":4748,"ç¾İä¸½":4749,"Ġwa":4750,"ä»¥ä¸ĭæĺ¯ä¸ĢäºĽ":4751,"èĽĭç³ķ":4752,"Ġill":4753,"æ¸ħæĻ":4754,"etry":4755,"æ¢¦":4756,"ç¾İåĽ½":4757,"ä»į":4758,"oney":4759,"Ġecosystems":4760,"æĮĩå¯¼":4761,"def":4762,"99":4763,"æŁĶ":4764,"pped":4765,"Ġlimit":4766,"çİī":4767,"Ġacademic":4768,"Ġrestaurants":4769,"Ġhead":4770,"ä¿¡ä»»":4771,"asters":4772,"å²ģ":4773,"akers":4774,"14":4775,"As":4776,"æł¡":4777,"é«ĺæķĪ":4778,"phas":4779,"yn":4780,"ç¨ĭåº¦":4781,"è¾£":4782,"ä¸ĬéĿ¢":4783,"å®¶å±ħ":4784,"term":4785,"ç¾İé£Ł":4786,"Ġovers":4787,"å®ĺ":4788,"Ġindic":4789,"ĠYour":4790,"St":4791,"å½¢è±¡":4792,"è´¡":4793,"åºĬ":4794,"ĠSc":4795,"agra":4796,"çľŁæŃ£":4797,"oint":4798,"ids":4799,"arent":4800,"éĵ¶":4801,"èģĬ":4802,"Ġregular":4803,"ä¼ĺç§Ģ":4804,"Ġcolle":4805,"çĸĳ":4806,"Ġsubject":4807,"Ġgreater":4808,"Ġstore":4809,"åŁ¹è®Ń":4810,"Ġimag":4811,"Ġansw":4812,"ä½Ļ":4813,"Ġspot":4814,"åĪĨåŃĲ":4815,"Ġaudience":4816,"pet":4817,"Ġvers":4818,"Ġtrail":4819,"åĭĩ":4820,"erous":4821,"Ġguidance":4822,"Ġspeech":4823,"åĵ²":4824,"æĺ¯çĶ±":4825,"è´¡çĮ®":4826,"åĲĪéĢĤçļĦ":4827,"è®¾æĸ½":4828,"ä»ĸäºº":4829,"ensive":4830,"åĢ¾":4831,"aling":4832,"Ġprojects":4833,"å³":4834,"Ġtakes":4835,"ç»©":4836,"That":4837,"Ġbro":4838,"ived":4839,"Ġ&":4840,"åĿĲ":4841,"placement":4842,"è¿ŀæİ¥":4843,"çļĦç¤¾":4844,"ĠTra":4845,"Ġrelax":4846,"ufact":4847,"éģį":4848,"Ġsurv":4849,"åı£åĳ³":4850,"Ġcreativity":4851,"of":4852,"å¨ģ":4853,"çļĦçł":4854,"Ġbreath":4855,"Ġplaces":4856,"Ġdescrib":4857,"èĭ±è¯Ń":4858,"Ġdamage":4859,"oration":4860,"ä¸ºæĤ¨":4861,"ift":4862,"Ġcase":4863,"å¹´é¾Ħ":4864,"Ġpress":4865,"çĶľ":4866,"éĩİ":4867,"æĹħæ¸¸":4868,"Ġtaken":4869,"ined":4870,"Ġconcept":4871,"æĴŃ":4872,"Ġinteresting":4873,"è·µ":4874,"Ġsea":4875,"60":4876,"Ġfoot":4877,"ĠName":4878,"Ġresearchers":4879,"éĢģ":4880,"Ġwee":4881,");":4882,"çļĦåħ³éĶ®":4883,"ä¼½":4884,"elebr":4885,"å¡ĳ":4886,"We":4887,"ç»ıå¸¸":4888,"Ġpopulations":4889,"åħ¬å¼ı":4890,"orn":4891,"çĩĥ":4892,"äººçĶŁ":4893,"17":4894,"æİ¥åıĹ":4895,"Ġlocation":4896,"Ġinequ":4897,"Ġintervent":4898,"Ġinterested":4899,"Ġdefinitely":4900,"Ġassistance":4901,"è¿Ļä¸Ģ":4902,"åĲĪåĲĮ":4903,"ä¼ĺåĬ¿":4904,"çļĦå·¥ä½ľ":4905,"Ġ12":4906,"Ġmov":4907,"åģı":4908,"åŃĺåĤ¨":4909,"usive":4910,"æĹı":4911,"ï¼īï¼Į":4912,"Ġgas":4913,"Ġinterests":4914,"æ¸ħæĻ°":4915,"Ġgard":4916,"çĸ«":4917,"Ġsay":4918,"å¤«":4919,"ges":4920,"èĲ¨":4921,"ä¸ļåĬ¡":4922,"ä¸ªæĢ§":4923,"åĲ¯":4924,"Ġengagement":4925,"Ġbig":4926,"éľĢè¦ģèĢĥèĻĳ":4927,"Ġprinci":4928,"åĳ¨åĽ´":4929,"Ġopportunity":4930,"çģ¾":4931,"èĹı":4932,"rel":4933,"ç¼ºçĤ¹":4934,"Ġhappy":4935,"åĴĮåħ¶ä»ĸ":4936,"ava":4937,"Ġestablish":4938,"é¸¡èĽĭ":4939,"iking":4940,"ĠTrans":4941,"rastructure":4942,"forest":4943,"èİ·åıĸ":4944,"èĦļ":4945,"inally":4946,"èµı":4947,"Ġdelicious":4948,"Ġresults":4949,"è§Ĥå¯Ł":4950,"å®ŀè·µ":4951,"Ġlast":4952,"Ġpolit":4953,"æĢ§èĥ½":4954,"For":4955,"bi":4956,"çĽ¸ä¿¡":4957,"ffee":4958,"Ġphr":4959,"Ġforest":4960,"elling":4961,"æµģè¡Į":4962,"atic":4963,"å¤§å®¶":4964,"ĠInst":4965,"æķ°åŃ¦":4966,"æī©":4967,"å®Įåħ¨":4968,"å¼ķèµ·":4969,"ese":4970,"è½¬æį¢":4971,"Ġaffected":4972,"Ġrobotics":4973,"ç»¼ä¸Ĭ":4974,"Ġprop":4975,"è®©äºº":4976,"æ²³":4977,"ä¸ŃæľĢ":4978,"Ġautonomous":4979,"Ġhaving":4980,"Ġtrip":4981,"ury":4982,"Ġbiased":4983,"Ġconsiderations":4984,"Ġparticular":4985,"åįł":4986,"æİ¨å¹¿":4987,"Ġinitiatives":4988,"ials":4989,"åĳ³éģĵ":4990,"Ġtreatments":4991,"Ġemphas":4992,"çĭ¬çī¹çļĦ":4993,"Ġlay":4994,"æĶ¿çŃĸ":4995,"æĢİä¹Ī":4996,"ronic":4997,"play":4998,"Ġcook":4999,"è¿Ľåħ¥":5000,"è½®":5001,"Ġvolunte":5002,"Ġrain":5003,"ĠMon":5004,"Ġconsumption":5005,"èĽĭçĻ½":5006,"ĠSoc":5007,"å£¤":5008,"Ġroutine":5009,"Ġimproved":5010,"To":5011,"äººçī©":5012,"è¯»èĢħ":5013,"Ġgoal":5014,"å¹¿åĳĬ":5015,"éķ¿æľŁ":5016,"Ġey":5017,"He":5018,"Ġoutdo":5019,"Ġcuis":5020,"Ġaway":5021,"Ġbooks":5022,"Ġtopic":5023,"å¤§åĪ©":5024,"house":5025,"Ġones":5026,"ç§Ł":5027,"':":5028,"æĪ¿å±ĭ":5029,"ç§»åĬ¨":5030,"Ġdisasters":5031,"ests":5032,"illing":5033,"ç»¿èī²":5034,"åĵ²åŃ¦":5035,"æĪĲåĪĨ":5036,"Ġoccur":5037,"ľä¼½":5038,"åľŁå£¤":5039,"çļĦä¸»è¦ģ":5040,"çİ°å®ŀ":5041,"Ġanimal":5042,"é¢Ĩå¯¼":5043,"Ġviews":5044,"éĤ®":5045,"æ°§åĮĸ":5046,"athy":5047,"éģĵå¾·":5048,"ç¤¾äº¤åªĴä½ĵ":5049,"ĠPersonal":5050,"ĽåĽ´":5051,"Ġpurch":5052,"Ġcountry":5053,"Ġremind":5054,"å¯¸":5055,"Ġrights":5056,"çļĦçİ¯å¢ĥ":5057,"ĠPr":5058,"Ġline":5059,"ibr":5060,"é©¾":5061,"Ġmaj":5062,"Ġovercome":5063,"Ġnext":5064,"æīĢè¿°":5065,"è§Ħå®ļ":5066,"Ġinteractions":5067,"Ġconflic":5068,"Ġwhy":5069,"ç³»åĪĹ":5070,"å°¼":5071,"ibly":5072,"çīĽå¥¶":5073,"Ġresponses":5074,"ses":5075,"åŃ¦ä¼ļ":5076,"bol":5077,"Ġstandards":5078,"ulner":5079,"å¯¹è¯ĿåĨħå®¹":5080,"lished":5081,"çļĦæĢ§":5082,"çĶŁæĢģç³»ç»Ł":5083,"ann":5084,"æĥħåĨµä¸ĭ":5085,"å¯»æ±Ĥ":5086,"Ġhold":5087,"den":5088,"åįĥ":5089,"Ġmention":5090,"ĠMany":5091,"çĽ´åĪ°":5092,"éģĹ":5093,"hel":5094,"Ġbelieve":5095,"aries":5096,"æľīä¸Ģä¸ª":5097,"13":5098,"Ġatmosphere":5099,"Ġmor":5100,"æĹ¥æľŁ":5101,"ä¹ħ":5102,"ä½łå¥½":5103,"Ġaddressing":5104,"ĠâĢĵ":5105,"çļĦåľ°æĸ¹":5106,"ming":5107,"Ġcannot":5108,"Ġmanufact":5109,"Ġpie":5110,"icing":5111,"Ġstudies":5112,"ç¾İåĳ³":5113,"ĠAmerican":5114,"ĠNLP":5115,"Ġaccording":5116,"mselves":5117,"èĦĤ":5118,"èĩªä¿¡":5119,"æīĢéľĢ":5120,"Ġthemselves":5121,"Ġremote":5122,"åŁ¹åħ»":5123,"å®īæİĴ":5124,"ä½łéľĢè¦ģ":5125,"Ġregard":5126,"iring":5127,"è¯ĨåĪ«":5128,"Ġarticle":5129,"æģĴ":5130,"æĢ»çļĦæĿ¥":5131,"Ġalign":5132,"æ±ł":5133,"tenance":5134,"faction":5135,"åĬ¨ä½ľ":5136,"çļĦç©":5137,"ç¼©":5138,"æĢ¥":5139,"Ġ100":5140,"Ġtesting":5141,"åŃĹæ¯į":5142,"å¹´è½»":5143,"åĪ¶éĢł":5144,"Ġswe":5145,"å°º":5146,"hens":5147,"æ°´æŀľ":5148,"Ġinfrastructure":5149,"èī²å½©":5150,"æĢ»çļĦæĿ¥è¯´":5151,"æľīä»Ģä¹Ī":5152,"text":5153,"è½¦è¾Ĩ":5154,"Ġpay":5155,"rop":5156,"ĊĠĠ":5157,"Ġcaused":5158,"Ġcorrect":5159,"Ġì":5160,"èĥŀ":5161,"ĠMed":5162,"ç²¾ç¥ŀ":5163,"æ°ĶåĢĻåıĺåĮĸ":5164,"ĠRed":5165,"äºĴèģĶç½ĳ":5166,"Ġengage":5167,"åĪĨä¸º":5168,"ĠData":5169,"Ġfull":5170,"enc":5171,"éĩįæĸ°":5172,"æŃ£ç¡®çļĦ":5173,"çļĦæ°Ķ":5174,"åıĮæĸ¹":5175,"Ġcomes":5176,"åı¤ä»£":5177,"æŁĲäºĽ":5178,"åĳĪçİ°":5179,"Ġtoday":5180,"aged":5181,"æĪĳåı¯ä»¥":5182,"æĹ¥å¸¸":5183,"æ»ĳ":5184,"Ġclin":5185,"Ġ\\":5186,"Ġobs":5187,"Ġartificial":5188,"Ġexcell":5189,"çļĦç¬":5190,"alls":5191,"Ġproduce":5192,"ĠDes":5193,"oss":5194,"è¹Ī":5195,"Ġdraw":5196,"Ġletter":5197,"Ġadvice":5198,"Ġhighly":5199,"çĬ¯":5200,"ç»¼ä¸ĬæīĢè¿°":5201,"æ»¡æĦı":5202,"Ġprinciples":5203,"èĮĦ":5204,"Ġfeelings":5205,"çļĦæ´":5206,"Ġhom":5207,"Ġfail":5208,"Ġcrop":5209,"å§ľ":5210,"Ġquestion":5211,"Ġdisabilities":5212,"èĪŀè¹Ī":5213,"Ġimplications":5214,"ral":5215,"Ġsing":5216,"40":5217,"Ġfamil":5218,"Ġgovernments":5219,"Ġrecord":5220,"å½¢çĬ¶":5221,"Ġbegin":5222,"ises":5223,"çļĦæĥ³":5224,"achine":5225,"è°±":5226,"Ġvulner":5227,"Ġproper":5228,"Ġoversight":5229,"è´ŁéĿ¢":5230,"Ġemail":5231,"Ġnews":5232,"Ġexploring":5233,"Ġfavor":5234,"æ¥¼":5235,"å®ľ":5236,"Ġunivers":5237,"å·®å¼Ĥ":5238,"ï¼īãĢĤ":5239,"è§£åĨ³éĹ®é¢ĺ":5240,"Ġfamous":5241,"gn":5242,"Ġmessage":5243,"atitude":5244,"Ġcra":5245,"Ġcover":5246,"æ·±åĪ»":5247,"åı¯ä»¥éĢīæĭ©":5248,"çĶŁæ´»ä¸Ń":5249,"ç§įç±»":5250,"Ġsmart":5251,"onstr":5252,"vey":5253,"çĶ²":5254,"Ġregularly":5255,"ĠSm":5256,"æĦŁè§ī":5257,"Ġthought":5258,"Ġexh":5259,"cure":5260,"ç»ĺ":5261,"è®¤è¯Ĩ":5262,"Ġold":5263,"æĦī":5264,"ç§°ä¸º":5265,"Ġfields":5266,"Ġconsist":5267,"ãģ":5268,"ç»Ĩèĥŀ":5269,"Ġhours":5270,"80":5271,"alking":5272,"è§īå¾Ĺ":5273,"ç»Ŀ":5274,"ä½łä»¬":5275,"ĠEnglish":5276,"Ġsignificantly":5277,"Ġsource":5278,"Ġant":5279,"Ġeducational":5280,"Ġtask":5281,"Ġhandle":5282,"æĲľ":5283,"ĠSp":5284,"Ġcalled":5285,"Ġterms":5286,"æ²ī":5287,"Ġwin":5288,"duction":5289,"Ġmodern":5290,"Ġcuisine":5291,"å¥Ĺ":5292,"è§¦":5293,"olutely":5294,"ç«¥":5295,"pite":5296,"Ġfelt":5297,"Ġcompre":5298,"Ġwond":5299,"è¿Ĳè¡Į":5300,"Ġresil":5301,"çĽ¸ä¼¼":5302,"éĩĳèŀį":5303,"çĪ±æĥħ":5304,"ç¬Ķ":5305,"èĪª":5306,"è°Ī":5307,"åĬĽçļĦ":5308,"æľīæīĢ":5309,"æ½ľ":5310,"ulate":5311,"Ġdetection":5312,"å®£ä¼ł":5313,"Ġmatter":5314,"éĩıåŃĲ":5315,"Write":5316,"ç»ĵåĲĪ":5317,"ç»ıè¿ĩ":5318,"Ġdevelopers":5319,"èª":5320,"Ġ---":5321,"äººéĻħ":5322,"çŃ¾":5323,"ï¼ļâĢľ":5324,"Ġinnovative":5325,"ãĢĤâĢĿ":5326,"å½¼":5327,"é¥¼":5328,"è¿ĩåº¦":5329,"Ġplanet":5330,"åħ°":5331,"å¸ģ":5332,"æķ¬":5333,"Ġlegal":5334,"Ġlot":5335,"æĪĲä¸ºäºĨ":5336,"iate":5337,"Ġmis":5338,"åģĩè®¾":5339,"çļĦæĸĩç«ł":5340,"ĠCompan":5341,"Ġdoc":5342,"Ġcareful":5343,"Ġever":5344,"æĪĳä»¬å°Ĩ":5345,"ä¾ĭåŃĲ":5346,"ä¹³":5347,"ä½ľèĢħ":5348,"åĲ§":5349,"æļ´":5350,"Ġremember":5351,"çĽ®çļĦ":5352,"Ġput":5353,"å¸¸è§ģçļĦ":5354,"Ġfest":5355,"å»ºè®¾":5356,"å®ŀçĶ¨":5357,"Ġactive":5358,"çªĹ":5359,"outh":5360,"åİŁçĲĨ":5361,"Ġtrying":5362,"è¿·":5363,"çĽ¸åĲĮ":5364,"éħĴåºĹ":5365,"Another":5366,"æľĢä½³":5367,"Ġanalytics":5368,"Ġperpet":5369,"ipment":5370,"Ġå¦Ĥæŀľ":5371,"è§Ĥä¼Ĺ":5372,"Ġcelebr":5373,"Ġheav":5374,"Ġmeditation":5375,"å¤§æ°Ķ":5376,"And":5377,"ä¸įéĶĻ":5378,"Ġwhether":5379,"set":5380,"Ġdemonstr":5381,"ä¸Ģæ¬¾":5382,"æĶ¶éĽĨ":5383,"éĻĲåĪ¶":5384,"Ġing":5385,"Ġrevolution":5386,"çľģ":5387,"Ġscience":5388,"çĽ®åīį":5389,"Ġthinking":5390,"±ä¹Ĳ":5391,"è¯¾ç¨ĭ":5392,"Ġpack":5393,"Ġimage":5394,"loc":5395,"Ġstories":5396,"uck":5397,"Ġsatisfaction":5398,"Ġcollection":5399,"ho":5400,"èµŀ":5401,"éĿ¢ä¸´":5402,"Ġla":5403,"Ġsymbol":5404,"Ġemb":5405,"Ġhabitats":5406,"Ġlower":5407,"Ġcontinues":5408,"éľĩ":5409,"åĵĪ":5410,"ĠTake":5411,"Ġenvironments":5412,"Ġthree":5413,"Ġenc":5414,"ĠAcc":5415,"æĦıåĳ³":5416,"åİ¨":5417,"chan":5418,"ĠHum":5419,"Ġtrue":5420,"åĪĩæĪĲ":5421,"sing":5422,"âĢĶâĢĶ":5423,"åĩºæĿ¥":5424,"Ġregion":5425,"Ġinterpre":5426,"Ġdiagnosis":5427,"éŀ":5428,"Ġdoing":5429,"Ġrun":5430,"Ġcoffee":5431,"Ġmajor":5432,"Ġmindfulness":5433,"Ġaffordable":5434,"çĻ¾":5435,"Ġdetailed":5436,"éĿŀå¸¸éĩįè¦ģçļĦ":5437,"çļĦæ²ŁéĢļ":5438,"çļĦæķħ":5439,"åĢĴåħ¥":5440,"Ġthemes":5441,"Ġnetwork":5442,"ï¼īï¼ļ":5443,"ĠUnited":5444,"çļĦæĮĩ":5445,"orts":5446,"åį«çĶŁ":5447,"Ġplanning":5448,"æĥł":5449,"åīª":5450,"ĠProv":5451,"çļĦåºĶçĶ¨":5452,"Ġperi":5453,"Ġaccountable":5454,"çīĻ":5455,"çļĦçģ":5456,"Ġchoice":5457,"ĠComm":5458,"idents":5459,"çļĦå®īåħ¨":5460,"å¹¶ä¸į":5461,"å¤ªéĺ³ç³»":5462,"Ġreceive":5463,"Ġclose":5464,"çļĦæĹ¶åĢĻ":5465,"Ġchanging":5466,"ä»·åĢ¼è§Ĥ":5467,"Ġperpetu":5468,"Ġseason":5469,"Ġmen":5470,"Ġlearned":5471,"Ġsituation":5472,"Ġreplace":5473,"head":5474,"è®©æĪĳ":5475,"åľ¨ä¸Ģèµ·":5476,"çļĦç©º":5477,"éľ²":5478,"Ġenough":5479,"å±ķçİ°":5480,"Ġleaders":5481,"ancing":5482,"Ġtemperature":5483,"åı«":5484,"Ġ30":5485,"æĦıåĳ³çĿĢ":5486,"æ±ĩ":5487,"ĠGovern":5488,"Ġfocused":5489,"uro":5490,"Ġsimple":5491,"Ġhiking":5492,"æ¯Ĵ":5493,"Ġcomprehens":5494,"äºĪ":5495,"Ġcreated":5496,"cond":5497,"é¡µ":5498,"ĠWor":5499,"è¯ģæį®":5500,"Ġworkplace":5501,"Ġcharacters":5502,"çļĦè®¾è®¡":5503,"Ġmechan":5504,"ĠDis":5505,"ç¥ŀç§ĺ":5506,"å·ŀ":5507,"ĠOn":5508,"</":5509,"ç§įæ¤į":5510,"Ġpath":5511,"Ġlimited":5512,"Ġsolar":5513,"çļĦæı":5514,"22":5515,"Ġappreciate":5516,"å¿«ä¹Ĳ":5517,"æĦŁåıĹåĪ°":5518,"èĢĹ":5519,"med":5520,"icine":5521,"Ġnote":5522,"å½ĵåīį":5523,"æĪĳä»¬åºĶè¯¥":5524,"Ġseen":5525,"ä¸ĢåĲį":5526,"å°½åı¯èĥ½":5527,"è¿Ĳç®Ĺ":5528,"è§Ĵåº¦":5529,"Ġequipment":5530,"Ġspread":5531,"è¸":5532,"è®¿":5533,"åı¥è¯Ŀ":5534,"æĮ¥":5535,"Ġpurpose":5536,"è¯·ä½ł":5537,"Your":5538,"arian":5539,"ä»ª":5540,"Ġperspectives":5541,"åĩºäºĨ":5542,"å©ļç¤¼":5543,"Ġexcellent":5544,"ĠEnsuring":5545,"Ġreach":5546,"éĺ¶æ®µ":5547,"ä¿Ŀéļľ":5548,"Ġempathy":5549,"ĠMy":5550,"çĳľä¼½":5551,"Ġver":5552,"abel":5553,"ĠPredict":5554,"Ġmaintenance":5555,"è¯Ħä»·":5556,"Ġult":5557,"åĴ¨":5558,"ox":5559,"åĴ¨è¯¢":5560,"Ġshared":5561,"ina":5562,"list":5563,"Ġoutdoor":5564,"Ġthoughts":5565,"inating":5566,"éĴ±":5567,"Ġframe":5568,"éĺ¿":5569,"åĪ©æ¶¦":5570,"çļĦæİ¨":5571,"åįļ":5572,"Ġrecent":5573,"Ġaltern":5574,"ared":5575,"==":5576,"Ġroad":5577,"äºĭé¡¹":5578,"ged":5579,"ynt":5580,"Ġspend":5581,"ç½ª":5582,"åıĸå¾Ĺ":5583,"é¹":5584,"li":5585,"æĹ¶æľŁ":5586,"ä¸¥éĩį":5587,"å¿Ĩ":5588,"å©´":5589,"æİ¥ä¸ĭæĿ¥":5590,"ĠEarth":5591,"ĠChatbots":5592,"Ġsetting":5593,"ç¥Ŀ":5594,"éĶĢåĶ®é¢Ŀ":5595,"ä¼¦":5596,"Ġreading":5597,"æİ¢è®¨":5598,"aign":5599,"éŀĭ":5600,"Ġyoung":5601,"Ġcareer":5602,"Ġteachers":5603,"çļĦè´¨éĩı":5604,"å±ŀäºİ":5605,"Ġeasier":5606,"Ġscientific":5607,"ç¾İåħĥ":5608,"Ġspir":5609,"åĬ³":5610,"çļĦæĶ¯":5611,"rist":5612,"èµĦäº§":5613,"çĶŁåŃĺ":5614,"èĩ³å°ĳ":5615,"å§¿":5616,"Ġvideo":5617,"Ġaim":5618,"å®Ŀå®Ŀ":5619,"çĪ¶æ¯į":5620,"________________":5621,"alities":5622,"Ġbud":5623,"Ġstreet":5624,"Ġæĺ¯":5625,"æĸ¹ç¨ĭ":5626,"ä¸ĸçºª":5627,"ches":5628,"earch":5629,"æĴ°":5630,"Ġengine":5631,"Ġdisplacement":5632,"ĠRobots":5633,"ervised":5634,"é¡¶":5635,"oud":5636,"Ġwalk":5637,"Ġemergency":5638,"èģĺ":5639,"nal":5640,"Ġdatas":5641,"åĢº":5642,"åĲİçļĦ":5643,"å¾Īå¥½":5644,"Ġmyself":5645,"çļĦæīĭ":5646,"Ġusage":5647,"Ġshown":5648,"æ®Ĭ":5649,"Ġtypically":5650,"uly":5651,"æĸ°éĹ»":5652,"æĽ¿":5653,"Ġorig":5654,"è½»æĿ¾":5655,"æĺ¾ç¤º":5656,"Ġadopt":5657,"èĤ¡ç¥¨":5658,"Ġparent":5659,"aps":5660,"æĢĿæĥ³":5661,"Ġmarketing":5662,"èĻ«":5663,"éĥ¨éĹ¨":5664,"çļĦæķĪ":5665,"Ġcomfortable":5666,"åŃ¦ä¹łåĴĮ":5667,"Ġforecast":5668,"iction":5669,"Ġgetting":5670,"Ġtrees":5671,"aving":5672,"çļĦåŁºç¡Ģ":5673,"ready":5674,"æĸ°é²ľ":5675,"going":5676,"¹é¥":5677,"Ġevidence":5678,"¹é¥ª":5679,"ç§ĭ":5680,"æľīå¾Īå¤ļ":5681,"éĿ¢è¯ķ":5682,"éģĩåĪ°":5683,"ç»Ļå®ļ":5684,"irc":5685,"åı¯ä»¥æł¹æį®":5686,"é©¾é©¶":5687,"å·§åħĭ":5688,"Ġstunning":5689,"çļĦæ¦Ĥ":5690,"æ¡Į":5691,"ĠJohn":5692,"ulation":5693,"åıĤèĢĥ":5694,"Ġflex":5695,"çĦ¦èĻĳ":5696,"ymakers":5697,"Ġforms":5698,"sh":5699,"val":5700,"ĠSo":5701,"co":5702,"æİ¨åĬ¨":5703,"èħ¿":5704,"çī¹æ®Ĭ":5705,"Ġenab":5706,"å°Ĩä¼ļ":5707,"æĶ¯åĩº":5708,"åĿļæĮģ":5709,"çº¢èī²":5710,"Ġoption":5711,"Ġstarted":5712,"ration":5713,"Ġpoetry":5714,"Ġport":5715,"gen":5716,"èªī":5717,"Ġdeliv":5718,"çĶļ":5719,"éĢ»":5720,"éĢīé¡¹":5721,"Ġground":5722,"å½¼æŃ¤":5723,"ana":5724,"çļĦæĹ¥":5725,"åľ¨çº¿":5726,"Ġsecure":5727,"Ġæł¹æį®":5728,"é¥®æĸĻ":5729,"Ġgratitude":5730,"ç¬¬ä¸ī":5731,"Ġsong":5732,"Ġpoints":5733,"Ġalready":5734,"çļĦçĪ±":5735,"ĠTechn":5736,"Ġreality":5737,"çıŃ":5738,"Ġsince":5739,"Ġpopulation":5740,"yond":5741,"bor":5742,"ĠSocial":5743,"æıĲåıĸ":5744,"å·¥ç¨ĭ":5745,"aff":5746,"äº¤æĺĵ":5747,"Ġworth":5748,"å¡«":5749,"å¨±ä¹Ĳ":5750,"Ġdog":5751,"ĠArt":5752,"ç¡¬":5753,"æµ·æ´ĭ":5754,"åĨĴ":5755,"çīĪ":5756,"Ġprogramming":5757,"ĠAss":5758,"ĠMachine":5759,"åĢ¼å¾Ĺ":5760,"è¯·è¾ĵåħ¥":5761,"å£°éŁ³":5762,"Ġexercises":5763,"åħīçº¿":5764,"æ³ķåĴĮ":5765,"Ġfeature":5766,"eff":5767,"è¿ĽæŃ¥":5768,"å¥³æĢ§":5769,"Ġefficiently":5770,"çļĦæĬĢæľ¯":5771,"Ġgenetic":5772,"ä»¤äºº":5773,"è´¦":5774,"çļĦäº§åĵģ":5775,"åİļ":5776,"åĴĮæĸĩåĮĸ":5777,"éĻĦ":5778,"Ġmob":5779,"ç»¼åĲĪ":5780,"ters":5781,"æľīä¸Ģ":5782,"å¦Ĩ":5783,"åįĪ":5784,"Ġoutside":5785,"Ġpropert":5786,"éĤ®ä»¶":5787,"ä¸»ä¹ī":5788,"Ġpolicy":5789,"èĩªèº«":5790,"Ġnavigate":5791,"Ġsty":5792,"çĶµèĦĳ":5793,"Ġabilities":5794,"Ġfaced":5795,"çļĦç¼":5796,"çļĦå°ı":5797,"èķ":5798,"Ġtone":5799,"igation":5800,"åıĤæķ°":5801,"èĽĭçĻ½è´¨":5802,"ä½Ľ":5803,"çĶļèĩ³":5804,"Ġskin":5805,"èĴ¸":5806,"æĭĽ":5807,"éŃĶ":5808,"ashion":5809,"Ġingred":5810,"æĹĭ":5811,"Ġcampaign":5812,"Ġmount":5813,"Ġconsid":5814,"Ġmuse":5815,"nter":5816,"water":5817,"ä¼ļè®®":5818,"Ġprotection":5819,"ä¿ĿéĻ©":5820,"Ġcrops":5821,"ogle":5822,"éļıæĹ¶":5823,"æļĹ":5824,"ium":5825,"ä¹ı":5826,"Ġdiet":5827,"lies":5828,"çĶ¨æĿ¥":5829,"ĠEncoura":5830,"æĬĹ":5831,"apan":5832,"éĺ²æŃ¢":5833,"Wow":5834,"çļĦåŁºæľ¬":5835,"å¹³æĸ¹":5836,"Ġstep":5837,"åı¯éĿł":5838,"è¡¨æĺİ":5839,"Ġpredictions":5840,"Ġsympt":5841,"Ġdiagnoses":5842,"åħ¬åĽŃ":5843,"Ġsupply":5844,"Ġprevious":5845,"ç»ĦåĲĪ":5846,".,":5847,"çļĦè¿ĩç¨ĭ":5848,"æķı":5849,"su":5850,"aris":5851,"çķħ":5852,"ocol":5853,"æĲľç´¢":5854,"itle":5855,"éĨĴ":5856,"é¡¾å®¢":5857,"éĢ»è¾ĳ":5858,"éĿŀå¸¸éĩįè¦ģ":5859,"ĠBi":5860,"å·¦åı³":5861,"amm":5862,"Ġeverything":5863,"æĺł":5864,"Ġincred":5865,"Ġpeace":5866,"èľľ":5867,"Ġmuseum":5868,"çĭ¬ç«ĭ":5869,"Ġcomprehensive":5870,"Ġrates":5871,"//":5872,"Ġrad":5873,"åĦ¿ç«¥":5874,"çī¹èī²":5875,"ĠPredictive":5876,"å¼ķåĬĽ":5877,"ler":5878,"å°¤":5879,"icro":5880,"è¡¥":5881,"Ġdetermine":5882,"çļĦåĨħå®¹":5883,"Ġcompl":5884,"Ġgreenhouse":5885,"èħĲ":5886,"Ġhighlight":5887,"Ġpartners":5888,"Ġdoct":5889,"çļĦä½¿çĶ¨":5890,"æŃĮæĽ²":5891,"æĮĩåįĹ":5892,"ĠAf":5893,"æľºæŀĦ":5894,"éĢĢ":5895,"Ġpoems":5896,"å¿ĥåĴĮ":5897,"Ġattend":5898,"çļĦæ¸¸":5899,"Ġside":5900,"ales":5901,"Ġmentioned":5902,"ĠAbs":5903,"Ġhistorical":5904,"Ġleft":5905,"ä»¥ä¸ĭåĩłä¸ª":5906,"åıĹæ¬¢è¿İ":5907,"èıľåĵģ":5908,"Ġremain":5909,"æĩ":5910,"Ġtours":5911,"łéģĵ":5912,"Ġerrors":5913,"æľºåĪ¶":5914,"æ¦":5915,"æĤ£èĢħ":5916,"more":5917,"Ġexperts":5918,"çļĦçłĶç©¶":5919,"ç»ĵæĿŁ":5920,"Ġwritten":5921,"çłĶ":5922,"Ġet":5923,"input":5924,"æ°Ķä½ĵ":5925,"èļ":5926,"æĥĬ":5927,"Ġage":5928,"éĩįå¤į":5929,"å¼¹":5930,"åŃ¤":5931,"Ġsymptoms":5932,"Ġbelief":5933,"'d":5934,"iol":5935,"Ġ18":5936,"åħħè¶³":5937,"çıį":5938,"forcement":5939,"æĸĹ":5940,"ªèĮĦ":5941,"Ġ15":5942,"ä¸Ģä¸ªäºº":5943,"Ġapplic":5944,"è´¥":5945,"ä½įäºİ":5946,"éĻ¤äºĨ":5947,"=\"":5948,"ä¸īè§Ĵ":5949,"æĢĿç»´":5950,"åį·":5951,"Ġfru":5952,"ĠCollabor":5953,"Ġprim":5954,"Ġrequired":5955,"Ġwatch":5956,"è°ĥåĳ³":5957,"ç»ĵè®º":5958,"ony":5959,"Ġguide":5960,"Ġmax":5961,"ĠCould":5962,"Ġadvent":5963,"ĠOverall":5964,"çļĦæĬķ":5965,"Ġexper":5966,"åĺ":5967,"icial":5968,"oster":5969,"çļĦé¢ľèī²":5970,"Ġoperations":5971,"éĥģ":5972,"Ġmoney":5973,"ley":5974,"cling":5975,"Ġoil":5976,"çļ®èĤ¤":5977,"Ġge":5978,"Ġbat":5979,"ĠPh":5980,"Ġsche":5981,"Ġelectric":5982,"vest":5983,"Ġchain":5984,"Ġcapabilities":5985,"ird":5986,"è¯ģæĺİ":5987,"æľĢå¥½":5988,"ivil":5989,"Ġdepending":5990,"Ġsave":5991,"Ġpractical":5992,"Ġcultures":5993,"çĽ¸åºĶçļĦ":5994,"sy":5995,"çļĦç²":5996,"Ġbehind":5997,"æĹ¶éĹ´åĴĮ":5998,"å¹ħ":5999,"ĠAg":6000,"Ġeffectiveness":6001,"Ad":6002,"ĠOf":6003,"Ġanything":6004,"å·§åħĭåĬĽ":6005,"Ġmist":6006,"Ġlanguages":6007,"ĠMake":6008,"å«":6009,"æ£®":6010,"ĠCont":6011,"ĠAbsolutely":6012,"Ġinvestment":6013,"mat":6014,"çļĦæķħäºĭ":6015,"æ¬§":6016,"Ġspeed":6017,"çļĦæ¸©":6018,"Ġcities":6019,"åĨĻä½ľ":6020,"Thanks":6021,"Ġded":6022,"åĪĨéħį":6023,"Ġdark":6024,"Ġsupporting":6025,"å¹ķ":6026,"ĠKe":6027,"éĽ¶":6028,"Ġsharing":6029,"Ġhouse":6030,"è®¤çŁ¥":6031,"Ġsurrounding":6032,"Ġreduced":6033,"Ġfu":6034,"Ġstor":6035,"Ġabs":6036,"Tom":6037,"cent":6038,"ĠEducation":6039,"Ġthr":6040,"ott":6041,"ĠThat":6042,"Ġhear":6043,"ung":6044,"Ġbeyond":6045,"ĠCo":6046,"room":6047,"è¯ĹæŃĮ":6048,"reme":6049,"Ġlittle":6050,"Ġgames":6051,"ä¹ĭåĲİ":6052,"éĥ½ä¼ļ":6053,"è¯ŃéŁ³":6054,"ç¬ĳ":6055,"çī¹å®ļ":6056,"ç¬¬ä¸Ģ":6057,"Ġdepression":6058,"Ġinnovation":6059,"ĠFr":6060,"Ġcomputer":6061,"can":6062,"å³°":6063,"ç¼ĸåĨĻä¸Ģä¸ª":6064,"Ġinternational":6065,"Ġcancer":6066,"åŃ¦èĢħ":6067,"Ġdiscover":6068,"het":6069,"Ġcompos":6070,"Ġrecy":6071,"Ġ200":6072,"åĲ«æľī":6073,"çĹĽ":6074,"ç¼ĵè§£":6075,"Ġfrequ":6076,"çĶ³":6077,"ĠMar":6078,"çļĦéĢīæĭ©":6079,"Ġunt":6080,"Ġregions":6081,"Ġopin":6082,"ĠGovernments":6083,"æ¶Ĥ":6084,"åĨħå¿ĥ":6085,"ä¸ĬæľĢ":6086,"ä»įçĦ¶":6087,"lier":6088,"æ³³":6089,"äºĴçĽ¸":6090,"ĠStud":6091,"azon":6092,"Ġarch":6093,"Ġchem":6094,"çļĦèĥ½åĬĽ":6095,"çļĦä¸Ģä¸ª":6096,"Ġap":6097,"Ġred":6098,"Ġwomen":6099,"Ġprote":6100,"Ġfinding":6101,"å§»":6102,"éĢĤå½ĵçļĦ":6103,"Ġforward":6104,"å¯¹è±¡":6105,"Ġwait":6106,"Ġconsidered":6107,"dule":6108,"backs":6109,"Ġclinical":6110,"åħ·å¤ĩ":6111,"éº¦":6112,"Ġongoing":6113,"åĨĽ":6114,"Ġfar":6115,"åĴĮè°":6116,"XXX":6117,"Ġpolitical":6118,"Ġcamer":6119,"çļĦè¡Įä¸º":6120,"æĦıå¤§åĪ©":6121,"Ġapps":6122,"åĩıè½»":6123,"Ġreaders":6124,"å©ļå§»":6125,"æ°¸":6126,"ores":6127,"åħ¨éĿ¢":6128,"ĠAfric":6129,"Ġfavorite":6130,"Ġmill":6131,"Ġdang":6132,"ĠStates":6133,"åĢŁ":6134,"å¯¿":6135,"Ġlat":6136,"è¿ĩåİ»":6137,"Ġtruly":6138,"åĽŀçŃĶéĹ®é¢ĺ":6139,"Ġcogn":6140,"ä»°":6141,"ĠJapan":6142,"izz":6143,"çļĦæĿĲ":6144,"xx":6145,"é¢ĺçĽ®":6146,"ription":6147,"éĤ£äºĽ":6148,"Ġbudget":6149,"Ġvast":6150,"éļĲç§ģ":6151,"Ġpolicymakers":6152,"è¿ĺéľĢè¦ģ":6153,"å¹¶æıĲä¾Ľ":6154,"Ġsweet":6155,"Ġgeneral":6156,"æ»¤":6157,"Ġbirds":6158,"Ġplastic":6159,"Ċĉ":6160,"åĪº":6161,"mental":6162,"Ġinclusive":6163,"Ġtopics":6164,"Ġslow":6165,"ä½łèĥ½":6166,"è¶³å¤ŁçļĦ":6167,"è§Ĩè§ī":6168,"ww":6169,"Ġä½¿çĶ¨":6170,"æī¹":6171,"æ¦Ĥå¿µ":6172,"é£ŁçĶ¨":6173,"èĢ³":6174,"cks":6175,"Ġfraud":6176,"Ġingredients":6177,"Ġfasc":6178,"åĮĹäº¬":6179,"Ġfr":6180,"Ġmanufacturing":6181,"Ġä½ľä¸º":6182,"Ġbeach":6183,"é¡¿":6184,"erious":6185,"å¤ĸè§Ĥ":6186,"é¢Ħéĺ²":6187,"æĿ¥èĩª":6188,"èĤĮèĤī":6189,"Ġdays":6190,"Ġassign":6191,"Ġadvant":6192,"Ġteams":6193,"é¢Ĺ":6194,"nown":6195,"ĠPo":6196,"}{":6197,"Ġminut":6198,"itions":6199,"Ġeasily":6200,"ĠBl":6201,"name":6202,"åŃ¦æł¡":6203,"Ġresponsibility":6204,"åıĳæĮ¥":6205,"Ġsensitive":6206,"çŃīäºİ":6207,"cious":6208,"Ġsou":6209,"å±ı":6210,"Ġrich":6211,"å½ĵçĦ¶":6212,"man":6213,"Ġinterpret":6214,"24":6215,"Ġshows":6216,"èģĮåľº":6217,"Ġfall":6218,"è½½":6219,"ä¸°å¯ĮçļĦ":6220,"('":6221,"ä¿®æĶ¹":6222,"æĽ´æį¢":6223,"Al":6224,"åı¯èĥ½æĺ¯":6225,"Ġrate":6226,"Ġprotecting":6227,"fit":6228,"Ġ50":6229,"Ġmovement":6230,"è§Ī":6231,"Ġemployee":6232,"Ġdisord":6233,"åĪĽæĦı":6234,"äº§åĵģçļĦ":6235,"æľĿ":6236,"ĊĠĠĠĠĠĠĠĠĠĠĠĠĠĠĠ":6237,"Ġpred":6238,"Ġoffering":6239,"åįģåĪĨ":6240,"èĢĮä¸įæĺ¯":6241,"Thank":6242,"æĽ¾":6243,"Ġelements":6244,"ç²Ĵ":6245,"Ġcourses":6246,"Ġintegrated":6247,"ĠCar":6248,"agraph":6249,"åŁºåĽł":6250,"Ġinstead":6251,"èĦ±":6252,"åı¦ä¸Ģä¸ª":6253,"å¯Ĩçłģ":6254,"Ġallowed":6255,"éĿ¢åĮħ":6256,"çķªèĮĦ":6257,"åĴĮåıĳå±ķ":6258,"å°ģ":6259,"Ġconnection":6260,"åľ¨ä¸Ģä¸ª":6261,"Ġuseful":6262,"è¯Ńåı¥":6263,"åĪĨå¸ĥ":6264,"è¡¨æ¼Ķ":6265,"æľīæĹ¶":6266,"çļĦæĹħ":6267,"çļĦæĢ»":6268,"Ġfashion":6269,"èĭ¦":6270,"è¦ģæ³¨æĦı":6271,"çĶŁç´ł":6272,"Ġnutri":6273,"èĩªè¡Į":6274,"çļĦçĭ":6275,"çĲĨè§£åĴĮ":6276,"Ġcat":6277,"æľºåĻ¨åŃ¦ä¹ł":6278,"Ġexhib":6279,"åĴĮæľįåĬ¡":6280,"frac":6281,"epend":6282,"Ġimpacted":6283,"Ġut":6284,"æķ°ç»Ħ":6285,"ĠWorld":6286,"Ġanswer":6287,"erse":6288,"éª¨":6289,"Ġartists":6290,"åŃ©åŃĲçļĦ":6291,"ä»Ķ":6292,"çĻ»":6293,"ĠAre":6294,"Ġcool":6295,"Ġcognitive":6296,"åĲĦä¸ª":6297,"like":6298,"å©´åĦ¿":6299,"åĪĹåĩº":6300,"å¹»":6301,"ront":6302,"å®¶éķ¿":6303,"ç¼ºä¹ı":6304,"Ġcyber":6305,"ilt":6306,"Ġcapture":6307,"åĹ":6308,"åľ¨äºİ":6309,"Ġthreats":6310,"åĴĮç¤¾ä¼ļ":6311,"Ġcells":6312,"æ¸ħåįķ":6313,"ĠVis":6314,"æİī":6315,"Ġhol":6316,"åŃĲçļĦ":6317,"Ch":6318,"èĿ":6319,"Ġsaid":6320,"Ġdream":6321,"unch":6322,"une":6323,"ĠDon":6324,"å®¶äºº":6325,"ç±į":6326,"æĦŁåĴĮ":6327,"Ġexperienced":6328,"çļĦéĩįè¦ģæĢ§":6329,"å¼ĥ":6330,"ump":6331,"éĺĲ":6332,"Ġhabitat":6333,"è¢ĭ":6334,"Ġjo":6335,"ç®Ģæ´ģ":6336,"Ġbur":6337,"Ġvisitors":6338,"éĽħ":6339,"çļĦçŁ¥":6340,"Ġentire":6341,"è®²è¿°":6342,"äºĨä¸ĢäºĽ":6343,"åįıä½ľ":6344,"ĠBus":6345,"å°¾":6346,"çļĦæķĻ":6347,"olog":6348,"Ġsigns":6349,"Ġspeaker":6350,"çļĦéŁ³ä¹Ĳ":6351,"Ġnovel":6352,"å±ħæ°ĳ":6353,"çļĦåıĺåĮĸ":6354,"å°½éĩı":6355,"Ġspirit":6356,"å®Įç¾İ":6357,"è´·":6358,"å¿ħè¦ģçļĦ":6359,"ief":6360,"ç¤ºä¾ĭ":6361,"Ġdiv":6362,"æķ´æķ°":6363,"Ġeconomy":6364,"Ġethically":6365,"éĻĪ":6366,"Ġschools":6367,"Ġnetworks":6368,"Ġscientists":6369,"Ġlever":6370,"å½¢çļĦ":6371,"ĠApp":6372,"ä¸Ńæĸĩ":6373,"book":6374,"æĢ»æĺ¯":6375,"å°½ç®¡":6376,"Ġfamilies":6377,"ably":6378,"Ġmaintaining":6379,"ER":6380,"å¹´çļĦ":6381,"aught":6382,"Ġexpos":6383,"çģ°":6384,"Ġinstance":6385,"ç±»ä¼¼":6386,"atures":6387,"Ġpressure":6388,"æ¬£":6389,"Ġrent":6390,"çļĦæ¶":6391,"çĥ¹é¥ª":6392,"ots":6393,"afood":6394,"Ġimplementation":6395,"çī©çĲĨåŃ¦":6396,"æĶ»åĩ»":6397,"Ġrepl":6398,"ä¸¤ç§į":6399,"èĵĿèī²":6400,"å¼ºçĥĪ":6401,"ĠGod":6402,"Ġgrowing":6403,"éļıæľº":6404,"éĩĳå±ŀ":6405,"Ġaspects":6406,"otes":6407,"ĠPersonalized":6408,"çļĦçĽ®æłĩ":6409,"Ġoutput":6410,"çĿ¡çľł":6411,"å²Ľ":6412,"æķĳ":6413,"rics":6414,"éĶħä¸Ń":6415,"mit":6416,"çľĭèµ·æĿ¥":6417,"Ġyiel":6418,"å¿ĺ":6419,"ä¼ĳæģ¯":6420,"ä¾§":6421,"åľ¨å®¶":6422,"Ġplayers":6423,"çľŁå®ŀ":6424,"ĠAnaly":6425,"eling":6426,"ĠChrist":6427,"å¡Ķ":6428,"quality":6429,"çļĦçĥŃ":6430,"éģĵè·¯":6431,"Ġbuy":6432,"Ġ25":6433,"åĪĿåŃ¦èĢħ":6434,"éĩįéĩı":6435,"è½¨":6436,"ä¹Łæľī":6437,"ä¸Ģæł·":6438,"å¹¶å°Ĩ":6439,"Ġfitness":6440,"æĿ¥æºĲ":6441,"åķĬ":6442,"æĽ´æĸ°":6443,"ands":6444,"Ġincome":6445,"çļĦæ·":6446,"çĵ¶":6447,"éĽª":6448,"Ġperspective":6449,"ç¢İ":6450,"æµĭéĩı":6451,"Ġadvoc":6452,"Ġcand":6453,"éĿ©":6454,"è®ºæĸĩ":6455,"æıĴ":6456,"rupt":6457,"Ġcases":6458,"Ġautomate":6459,"èĻļæĭŁ":6460,"\".":6461,"iding":6462,"é»Ħèī²":6463,"Ġlimitations":6464,"éĿ¢ä¸Ĭ":6465,"Ġbird":6466,"éĴ¢":6467,"Ġadvancements":6468,"uild":6469,"ä¹İ":6470,"ĠBar":6471,"çļĦæ¯Ķ":6472,"«èĲ¨":6473,"è°ĥèĬĤ":6474,"ç»ĻäºĪ":6475,"è¿Ŀ":6476,"èĭ¹":6477,"Ġvegan":6478,"enty":6479,"åĪļ":6480,"äººéĻħåħ³ç³»":6481,"itect":6482,"Ġaccom":6483,"Ġgramm":6484,"Ġbra":6485,"çĶµæ±ł":6486,"èĭ¹æŀľ":6487,"Ġtechnical":6488,"èĭ±æĸĩ":6489,"åĮĻ":6490,"ĠãĢĬ":6491,"è¶ħè¿ĩ":6492,"è´Łè´£":6493,"Ġresilience":6494,"å°¤åħ¶":6495,"Ġbrand":6496,"ried":6497,"oga":6498,"æŃ»":6499,"ä»Ģä¹Īæĺ¯":6500,"èµĦéĩĳ":6501,"ma":6502,"æį·":6503,"AP":6504,"Ġearth":6505,"Ġvac":6506,"æ¸©æļĸ":6507,"Ġitems":6508,"ä»¥ä¸ĭæĺ¯ä¸Ģä¸ª":6509,"å®ŀæĸ½":6510,"åįĸ":6511,"Ġhost":6512,"Ġuntil":6513,"Ġextreme":6514,"é£ŀè¡Į":6515,"ĠHuman":6516,"urban":6517,"çļĦåĢ¼":6518,"hent":6519,"éĢīæĭ©éĢĤåĲĪ":6520,"Ġultimately":6521,"åľ°æĸ¹":6522,"Ġroom":6523,"éĹŃ":6524,"Ġrequirements":6525,"Ġcombination":6526,"Ġdocument":6527,"ĠGreat":6528,"åıĺå¾ĹæĽ´åĬł":6529,"Ġcirc":6530,"èĬĤå¥ı":6531,"Ġstrength":6532,"Ġice":6533,"æ¸łéģĵ":6534,"Ġphotos":6535,"lands":6536,"Ġabove":6537,"Con":6538,"amp":6539,"è¾ĥé«ĺ":6540,"çļĦæĦıä¹ī":6541,"åĽłä¸ºå®ĥ":6542,"ĠAdd":6543,"Ġshap":6544,"Ġdial":6545,"Ġinstitut":6546,"pons":6547,"æģĲ":6548,"è§Ħå¾ĭ":6549,"active":6550,"æ¡£":6551,"įçī©":6552,"çļĦæ±":6553,"çĪ±å¥½":6554,"åĳ¨æľŁ":6555,"Ġagree":6556,"Ġfully":6557,"Ġneigh":6558,"ĠRemember":6559,"å®«":6560,"æĪĲå°±":6561,"è¿Ļæĺ¯ä¸Ģä¸ª":6562,"Ġincreasingly":6563,"åıĳå¸ĥ":6564,"Ġexpertise":6565,"encies":6566,"æĤ¨éľĢè¦ģ":6567,"çļĦçī¹çĤ¹":6568,"Ġcode":6569,"ĠEthical":6570,"eria":6571,"Ġrely":6572,"çŃīæĸ¹å¼ı":6573,"ams":6574,"å»¶":6575,"Ġlandsc":6576,"æŃ£å¸¸":6577,"45":6578,"éī":6579,"Ġincorporating":6580,"ç»´çĶŁç´ł":6581,"oun":6582,"Ġrevolutionize":6583,"sych":6584,"Ġdelivery":6585,"çĶ¨çļĦ":6586,"åįıè°ĥ":6587,"Ġloved":6588,"ä¸įè¶³":6589,"Ġinse":6590,"éī´":6591,"Ġviol":6592,"cision":6593,"Ġbrain":6594,"ĠCommun":6595,"Ġblack":6596,"æľīæľº":6597,"éº»":6598,"æľĢé«ĺ":6599,"ĠConsider":6600,"ĠAmazon":6601,"Ġexciting":6602,"Ġâ":6603,"æľīæķĪåľ°":6604,"ĠSystem":6605,"å¥¥":6606,"å¼±":6607,"æ¶µ":6608,"Ġenabling":6609,"åħ¬éĩĮ":6610,"åĲĪçī©":6611,"Ġcontact":6612,"çĥ¤ç®±":6613,"olving":6614,"çĶµåĻ¨":6615,"ç¾İå¥½":6616,"è´Ŀ":6617,"Ġenable":6618,"Ġbuildings":6619,"inary":6620,"bre":6621,"æ·±åº¦":6622,"Ġcontain":6623,"æĽ´å®¹æĺĵ":6624,"Ġstyles":6625,"ID":6626,"çļĦç¬¬":6627,"æĹ¢":6628,"Ġeth":6629,"å¦Ļ":6630,"çļĦæ´»":6631,"åŃ£èĬĤ":6632,"biased":6633,"éļĶ":6634,"Ġtax":6635,"ä¼ĺæĥł":6636,"stac":6637,"istance":6638,"ara":6639,"ĠChe":6640,"æ´¾":6641,"ĠAt":6642,"éļ¾ä»¥":6643,"ls":6644,"äº¿":6645,"åıĬåħ¶":6646,"Ġaccessibility":6647,"å¸¸å¸¸":6648,"åį±éĻ©":6649,"è¿Ļç¯ĩ":6650,"å¼ĢæĶ¾":6651,"èĭı":6652,"Ġaccept":6653,"Ġtouch":6654,"atural":6655,"ĠAnother":6656,"çĨĬ":6657,"Ex":6658,"åĨĮ":6659,"Ġunbiased":6660,"Ġmovie":6661,"Ġinteraction":6662,"å®Įæķ´":6663,"èıĮ":6664,"å¾Ģå¾Ģ":6665}