{"<unk>":0,"<pad>":1,"<mask>":2,"<s>":3,"</s>":4,"!":5,"\"":6,"#":7,"$":8,"%":9,"&":10,"'":11,"(":12,")":13,"*":14,"+":15,",":16,"-":17,".":18,"/":19,"0":20,"1":21,"2":22,"3":23,"4":24,"5":25,"6":26,"7":27,"8":28,"9":29,":":30,";":31,"<":32,"=":33,">":34,"?":35,"@":36,"A":37,"B":38,"C":39,"D":40,"E":41,"F":42,"G":43,"H":44,"I":45,"J":46,"K":47,"L":48,"M":49,"N":50,"O":51,"P":52,"Q":53,"R":54,"S":55,"T":56,"U":57,"V":58,"W":59,"X":60,"Y":61,"Z":62,"[":63,"\\":64,"]":65,"^":66,"_":67,"`":68,"a":69,"b":70,"c":71,"d":72,"e":73,"f":74,"g":75,"h":76,"i":77,"j":78,"k":79,"l":80,"m":81,"n":82,"o":83,"p":84,"q":85,"r":86,"s":87,"t":88,"u":89,"v":90,"w":91,"x":92,"y":93,"z":94,"{":95,"|":96,"}":97,"~":98,"¡":99,"¢":100,"£":101,"¤":102,"¥":103,"¦":104,"§":105,"¨":106,"©":107,"ª":108,"«":109,"¬":110,"®":111,"¯":112,"°":113,"±":114,"²":115,"³":116,"´":117,"µ":118,"¶":119,"·":120,"¸":121,"¹":122,"º":123,"»":124,"¼":125,"½":126,"¾":127,"¿":128,"À":129,"Á":130,"Â":131,"Ã":132,"Ä":133,"Å":134,"Æ":135,"Ç":136,"È":137,"É":138,"Ê":139,"Ë":140,"Ì":141,"Í":142,"Î":143,"Ï":144,"Ð":145,"Ñ":146,"Ò":147,"Ó":148,"Ô":149,"Õ":150,"Ö":151,"×":152,"Ø":153,"Ù":154,"Ú":155,"Û":156,"Ü":157,"Ý":158,"Þ":159,"ß":160,"à":161,"á":162,"â":163,"ã":164,"ä":165,"å":166,"æ":167,"ç":168,"è":169,"é":170,"ê":171,"ë":172,"ì":173,"í":174,"î":175,"ï":176,"ð":177,"ñ":178,"ò":179,"ó":180,"ô":181,"õ":182,"ö":183,"÷":184,"ø":185,"ù":186,"ú":187,"û":188,"ü":189,"ý":190,"þ":191,"ÿ":192,"Ā":193,"ā":194,"Ă":195,"ă":196,"Ą":197,"ą":198,"Ć":199,"ć":200,"Ĉ":201,"ĉ":202,"Ċ":203,"ċ":204,"Č":205,"č":206,"Ď":207,"ď":208,"Đ":209,"đ":210,"Ē":211,"ē":212,"Ĕ":213,"ĕ":214,"Ė":215,"ė":216,"Ę":217,"ę":218,"Ě":219,"ě":220,"Ĝ":221,"ĝ":222,"Ğ":223,"ğ":224,"Ġ":225,"ġ":226,"Ģ":227,"ģ":228,"Ĥ":229,"ĥ":230,"Ħ":231,"ħ":232,"Ĩ":233,"ĩ":234,"Ī":235,"ī":236,"Ĭ":237,"ĭ":238,"Į":239,"į":240,"İ":241,"ı":242,"Ĳ":243,"ĳ":244,"Ĵ":245,"ĵ":246,"Ķ":247,"ķ":248,"ĸ":249,"Ĺ":250,"ĺ":251,"Ļ":252,"ļ":253,"Ľ":254,"ľ":255,"Ŀ":256,"ŀ":257,"Ł":258,"ł":259,"Ń":260,"Ġt":261,"Ġa":262,"in":263,"he":264,"re":265,"ï¼":266,"ä¸":267,"on":268,"at":269,"çļ":270,"çļĦ":271,"ï¼Į":272,"Ġs":273,"Ġc":274,"nd":275,"ãĢ":276,"er":277,"Ġthe":278,"es":279,"en":280,"or":281,"an":282,"Ġand":283,"ing":284,"Ġp":285,"it":286,"al":287,"ãĢĤ":288,"Ġo":289,"Ġw":290,"ä»":291,"Ġto":292,"is":293,"ou":294,"Ġm":295,"äº":296,"Ġin":297,"Ġf":298,"Ġb":299,"ed":300,"ion":301,"åı":302,"ic":303,"Ġd":304,"Ġof":305,"le":306,"ar":307,"ro":308,"ĠĠ":309,"åħ":310,"ent":311,"æľ":312,"Ġe":313,"åĴ":314,"è¿":315,"ä½":316,"åĴĮ":317,"æĪ":318,"å®":319,"åĪ":320,"ve":321,"us":322,"Ġre":323,"Ġh":324,"Ġth":325,"as":326,"ct":327,"çĶ":328,"om":329,"åľ":330,"å¤":331,"æĺ":332,"åĬ":333,"åĲ":334,"ä¸Ģ":335,"im":336,"è¯":337,"æĸ":338,"ation":339,"lo":340,"ç»":341,"Ġbe":342,"ãĢģ":343,"id":344,"Ġcan":345,"il":346,"æĺ¯":347,"ä¹":348,"è®":349,"ĠA":350,"Ġthat":351,"ĠT":352,"ä»¥":353,"ch":354,"Ġy":355,"ce":356,"ï¼ļ":357,"ot":358,"ers":359,"Ġn":360,"éĢ":361,"ra":362,"å°":363,"Ġg":364,"Ġyou":365,"åŃ":366,"Ġpro":367,"et":368,"åº":369,"åľ¨":370,"ly":371,"Ġis":372,"ä¸ª":373,"Ġl":374,"ur":375,"Ġfor":376,"åı¯":377,"éĩ":378,"st":379,"çļĦæ":380,"ut":381,"Ġhe":382,"if":383,"ĥ½":384,"ä¼":385,"ĠI":386,"è¡":387,"ir":388,"ith":389,"å¹":390,"Ġare":391,"ig":392,"Ġst":393,"el":394,"ol":395,"å¸":396,"ul":397,"æĿ":398,"æĪĳ":399,"Ġon":400,"è¦":401,"æľī":402,"æĹ":403,"å¯":404,"è§":405,"è¦ģ":406,"Ġus":407,"ay":408,"æķ":409,"çī":410,"ow":411,"ment":412,"çĶ¨":413,"ess":414,"ä¸Ń":415,"ä»¬":416,"äºº":417,"åĩ":418,"Ġex":419,"ĠĠĠĠ":420,"åĽ":421,"åĮ":422,"å¼":423,"Ġcon":424,"se":425,"èĥ½":426,"çİ":427,"Ġan":428,"Ġwith":429,"ä¸º":430,"ate":431,"iv":432,"am":433,"Ġas":434,"ure":435,"è¿Ļ":436,"åĨ":437,"çŃ":438,"Ġor":439,"å·":440,"Ġal":441,"ies":442,"ç§":443,"Ġim":444,"æĢ":445,"ver":446,"ab":447,"äºĨ":448,"Ġsu":449,"Ġde":450,"ge":451,"th":452,"åı¯ä»¥":453,"èĢ":454,"ä¸į":455,"å¾":456,"ĠAI":457,"Ġen":458,"éĹ":459,"æī":460,"ak":461,"ive":462,"Ġmo":463,"å¥":464,"éĿ":465,"çĽ":466,"ity":467,"ä¿":468,"un":469,"è´":470,"åį":471,"Ġit":472,"Ġimp":473,"ect":474,"æł":475,"å½":476,"èĩ":477,"é¢":478,"åĵ":479,"æ³":480,"ort":481,"ad":482,"æŀ":483,"em":484,"Ġcom":485,"å¦":486,"her":487,"ere":488,"ĠS":489,"ial":490,"ĠC":491,"ĠThe":492,"çĲ":493,"çĶŁ":494,"æĦ":495,"pp":496,"æŃ":497,"æĸ¹":498,"qu":499,"Ġwh":500,"å¦Ĥ":501,"éľ":502,"ant":503,"Ġle":504,"Ġv":505,"æĭ":506,"æĬ":507,"ust":508,"æĹ¶":509,"çŃī":510,"åĳ":511,"å¯¹":512,"ter":513,"ld":514,"è¡Į":515,"Ġch":516,"ud":517,"éľĢ":518,"æ°":519,"æĪĲ":520,"Ġ|":521,"ac":522,"ain":523,"iz":524,"æı":525,"ions":526,"Ġha":527,"æĽ":528,"--":529,"æĿ¥":530,"ome":531,"å¿":532,"'s":533,"Ġne":534,"est":535,"ä¾":536,"um":537,"åĪ°":538,"åľ°":539,"ist":540,"âĢ":541,"çī©":542,"ä¸Ģä¸ª":543,"lp":544,"æİ":545,"èĩª":546,"Ġhelp":547,"Ġtheir":548,"æĶ":549,"ä½ľ":550,"ä¼ļ":551,"æĮ":552,"æĪĳä»¬":553,"nt":554,"äºİ":555,"åĪĨ":556,"res":557,"pe":558,"åĩº":559,"ide":560,"æĥ":561,"ĠH":562,"è¾":563,"ĠM":564,"ff":565,"æ¯":566,"od":567,"ical":568,"Ġwor":569,"ä¸Ĭ":570,"are":571,"æĽ´":572,"Ġyour":573,"ä¸ĭ":574,"èµ":575,"ations":576,"æķ°":577,"Ġte":578,"åİ":579,"çĲĨ":580,"ĠTh":581,"è¿ĩ":582,"å¹¶":583,"du":584,"éĿ¢":585,"Ġad":586,"ill":587,"æµ":588,"å¥½":589,"oc":590,"act":591,"éľĢè¦ģ":592,"ä»ĸ":593,"å±":594,"Ġr":595,"Ġmore":596,"åŃ¦":597,"ç®":598,"igh":599,"äºĽ":600,"ĠB":601,"åĬ¨":602,"åĵģ":603,"èī":604,"ple":605,"Ġinc":606,"åĲĮ":607,"Ġexp":608,"ould":609,"ä½ł":610,"æį":611,"æıĲ":612,"å¤§":613,"çİ°":614,"pt":615,"ĠP":616,"all":617,"åĬł":618,"ç§į":619,"Ġse":620,"åĬĽ":621,"out":622,"Ġhave":623,"çº":624,"ä½ĵ":625,"Ġprov":626,"åĮĸ":627,"å¤ļ":628,"å®ļ":629,"Ġused":630,"éĢļ":631,"cc":632,"è¿Ľ":633,"æ´":634,"Ġsh":635,"Ġab":636,"os":637,"Ġres":638,"ĠThis":639,"ç¨":640,"æĢ§":641,"age":642,"ri":643,"æ¸":644,"able":645,"åŃĲ":646,"Ġby":647,"åıĳ":648,"éĩı":649,"åºĶ":650,"Ġlo":651,"ä½¿":652,"åħ¶":653,"é«":654,"éĻ":655,"é«ĺ":656,"åº¦":657,"è§£":658,"é£":659,"å°Ĩ":660,"æ³ķ":661,"and":662,"ä¿Ŀ":663,"ans":664,"for":665,"rom":666,"reat":667,"Ġpl":668,"çļĦç":669,"å¸¸":670,"è½":671,"Ġwe":672,"è¡¨":673,"ake":674,"æĪĸ":675,"é¢ĺ":676,"åŁ":677,"Ġme":678,"æĸĩ":679,"ther":680,"ke":681,"å®¶":682,"åĲĪ":683,"æľĢ":684,"ine":685,"Ġsome":686,"ç±":687,"éĩį":688,"æŀľ":689,"ĠW":690,"ĠE":691,"éĺ":692,"our":693,"rou":694,"çĤ":695,"æ±":696,"åħ³":697,"Ġint":698,"ance":699,"ä¹Ł":700,"éģ":701,"ĠĠĠ":702,"å®ĥ":703,"ag":704,"æ¬":705,"00":706,"è°":707,"ult":708,"yst":709,"éĹ´":710,"ç³":711,"Ġtr":712,"pl":713,"art":714,"æĦŁ":715,"æĤ":716,"ata":717,"ĠF":718,"form":719,"è®¡":720,"Ġfrom":721,"ĠD":722,"éĹ®":723,"ight":724,"ces":725,"æį®":726,"lop":727,"ä¹ĭ":728,"Ġfe":729,"åģ":730,"velop":731,"Ġ1":732,"åĽł":733,"ks":734,"æ²":735,"Ġu":736,"å°ı":737,"ystem":738,"Ġdis":739,"ĠR":740,"gy":741,"å·¥":742,"ç¨ĭ":743,"å¢":744,"ence":745,"èĤ":746,"ç¡":747,"Ġtra":748,"å»":749,"åħ¥":750,"ign":751,"alth":752,"Ġsuch":753,"ach":754,"æĻ":755,"arn":756,"Ġdata":757,"è¶":758,"å®ŀ":759,"so":760,"Ġdevelop":761,"ç¤":762,"Ġacc":763,"ast":764,"èĢĮ":765,"Ġ\"":766,"Ġother":767,"å»º":768,"Ġeff":769,"ç«":770,"Ġman":771,"åħ¬":772,"åĢ":773,"çĦ":774,"ms":775,"å¼ı":776,"èī²":777,"å¾Ĺ":778,"ific":779,"Ġj":780,"Ġro":781,"Ġhas":782,"chn":783,"olo":784,"åĪ¶":785,"èĬ":786,"ä½¿çĶ¨":787,"ous":788,"ual":789,"Ġat":790,"Ġem":791,"ell":792,"Ġsystem":793,"Ġhealth":794,"ities":795,"Ġexam":796,"ib":797,"éĶ":798,"Ġabout":799,"äº§":800,"åĲİ":801,"æĦı":802,"ç±»":803,"Ġpre":804,"æĤ¨":805,"Ġalso":806,"ents":807,"Ġind":808,"ind":809,"éĢĤ":810,"Ġtechn":811,"ress":812,"æĥħ":813,"éĹ®é¢ĺ":814,"Ġuse":815,"ï¼Ł":816,"Ġincl":817,"Ġspe":818,"ich":819,"ps":820,"æľº":821,"Ġthey":822,"ie":823,"Ġhow":824,"Ġwork":825,"ä¸ļ":826,"ç´":827,"Ġimpro":828,"Ġlearn":829,"æĸ°":830,"çĤ¹":831,"Ġcont":832,"ard":833,"çĦ¶":834,"æľ¬":835,"ç³»":836,"ç¡®":837,"è®¾":838,"åħ·":839,"éĢī":840,"èĢħ":841,"éħ":842,"gh":843,"__":844,"Ġnot":845,"çľ":846,"çĽ¸":847,"Ġprovide":848,"åī":849,"ional":850,"Ġens":851,"ä¸İ":852,"è´¨":853,"ential":854,"ç»ı":855,"å¿ĥ":856,"ang":857,"æŃ¤":858,"end":859,"Ġpo":860,"è¿Ľè¡Į":861,"ice":862,"Ġ-":863,"Ġway":864,"å·±":865,"Ġ2":866,"ime":867,"ç½":868,"èĩªå·±":869,"Ġun":870,"bot":871,"Ġinclud":872,"ated":873,"æ°´":874,"éķ":875,"æĮģ":876,"ä»£":877,"é¡":878,"æīĢ":879,"çĿ":880,"pport":881,"ood":882,"ike":883,"ru":884,"Ġcomm":885,"ĠL":886,"ä¿¡":887,"ĠG":888,"çŁ":889,"çĶµ":890,"Ġwas":891,"low":892,"erv":893,"åĮħ":894,"ĠĠĠĠĠĠĠĠ":895,"Ġwhe":896,"dit":897,"Ġwhich":898,"Ġcomp":899,"éª":900,"ore":901,"ç¾":902,"Ġ=":903,"çī¹":904,"iff":905,"ert":906,"æģ":907,"rit":908,"Ġrec":909,"åĨħ":910,"æĺİ":911,"ors":912,"Ġpat":913,"----":914,"æŁ":915,"Ġapp":916,"ns":917,"åĬ¡":918,"aly":919,"ace":920,"æ´»":921,"ä¾Ľ":922,"av":923,"ä¸»":924,"Ġpers":925,"çĥ":926,"è¯¥":927,"Ġmy":928,"ç©":929,"eri":930,"è®©":931,"æĬĢ":932,"éķ¿":933,"ack":934,"ĠN":935,"Ġdiff":936,"Ġthis":937,"åĿ":938,"Ġensure":939,"å½ĵ":940,"Ġout":941,"Ġcl":942,"Ġk":943,"é¦":944,"ount":945,"çİ¯":946,"åĬ©":947,"Ġtechnolo":948,"Ġthese":949,"ful":950,"éļ":951,"æ·":952,"ä¸ĢäºĽ":953,"Ġsoc":954,"å¼Ģ":955,"å¤©":956,"Ġev":957,"Ġredu":958,"Ġthem":959,"Ġ(":960,"éĥ½":961,"æĪ·":962,"è·":963,"åľº":964,"æ°Ķ":965,"ĠY":966,"è¯Ń":967,"éĢļè¿ĩ":968,"å±ķ":969,"Ġco":970,"å½±":971,"ç¬":972,"Ġanaly":973,"æ¯Ķ":974,"åħ¨":975,"Ġimprove":976,"ç»ĵ":977,"å¹´":978,"çķ":979,"çĿĢ":980,"Ġhum":981,"Ġqu":982,"ç®Ĺ":983,"ĠO":984,"é£Ł":985,"ility":986,"Ġsystems":987,"åıĺ":988,"ail":989,"ç¼":990,"çł":991,"è¿Ļä¸ª":992,"æıĲä¾Ľ":993,"ase":994,"åŀ":995,"ments":996,"Ġpot":997,"Ġany":998,"ä½Ĩ":999,"Ġcons":1000,"ĠIt":1001,"æł¼":1002,"Ġar":1003,"æľ¯":1004,"éĿŀ":1005,"Ġdo":1006,"Ġmay":1007,"æĭ©":1008,"ue":1009,"éĢīæĭ©":1010,"ry":1011,"éĥ":1012,"Ġlike":1013,"ong":1014,"èģ":1015,"``":1016,"ile":1017,"æ±Ĥ":1018,"Ġnew":1019,"ient":1020,"Ġimpact":1021,"è¿ĺ":1022,"æ³¨":1023,"ä¹Ī":1024,"çĽ®":1025,"âĢľ":1026,"âĢĿ":1027,"ef":1028,"ä¾ĭ":1029,"Ġpotential":1030,"ok":1031,"åı¯èĥ½":1032,"Ġtrans":1033,"Ġact":1034,"ï¼ī":1035,"Ġspec":1036,"æ¶":1037,"Ġwill":1038,"äº¤":1039,"ize":1040,"ç¾İ":1041,"å¸Ĥ":1042,"Ġstud":1043,"pon":1044,"èº":1045,"ä¸įåĲĮ":1046,"one":1047,"å¾Ī":1048,"åıĬ":1049,"å¦Ĥæŀľ":1050,"çĲĥ":1051,"ange":1052,"Ġneed":1053,"å¤ĸ":1054,"ety":1055,"aking":1056,"è¯·":1057,"ater":1058,"Ġperson":1059,"ident":1060,"Ġso":1061,"Ġmake":1062,"å¹³":1063,"å¤Ł":1064,"èº«":1065,"ï¼Ī":1066,"Ġinform":1067,"æ¡":1068,"äºĭ":1069,"åıĹ":1070,"ased":1071,"ild":1072,"Ġoff":1073,"Ġthere":1074,"cis":1075,"è¢":1076,"éĥ¨":1077,"æ¯ı":1078,"ract":1079,"ass":1080,"Ġlearning":1081,"åĸ":1082,"å½¢":1083,"ire":1084,"ä»İ":1085,"bots":1086,"èĻ":1087,"å¸®":1088,"Ġdes":1089,"ĠIn":1090,"cess":1091,"Ġpe":1092,"ify":1093,"Ġwho":1094,"ä¹ł":1095,"æľŁ":1096,"Ġexperi":1097,"éĤ":1098,"Ġsc":1099,"ep":1100,"ä½ķ":1101,"Ġtime":1102,"éĿŀå¸¸":1103,"æĭ¬":1104,"åķ":1105,"ä»¥ä¸ĭ":1106,"éģĵ":1107,"Ġcommun":1108,"Ġcould":1109,"ap":1110,"èĲ":1111,"è°ĥ":1112,"lic":1113,"duct":1114,"Ġits":1115,"cy":1116,"è¯´":1117,"Ġmed":1118,"Ġcol":1119,"ular":1120,"éĩįè¦ģ":1121,"Ġsp":1122,"åĪ©":1123,"èµ·":1124,"Ġprovid":1125,"ices":1126,"åĻ":1127,"æĸĻ":1128,"Ġimport":1129,"ural":1130,"åŃĹ":1131,"Ġund":1132,"int":1133,"Ġover":1134,"åı¸":1135,"æł¹":1136,"é¥":1137,"ples":1138,"ä»ĸä»¬":1139,"gra":1140,"uring":1141,"now":1142,"åįķ":1143,"è¿ĻäºĽ":1144,"åīį":1145,"å®ī":1146,"Ġpr":1147,"åĮħæĭ¬":1148,"ç»Ļ":1149,"The":1150,"ä½į":1151,"å§":1152,"ç´ł":1153,"åĳĺ":1154,"Ġident":1155,"åŀĭ":1156,"Ġadd":1157,"å¼º":1158,"æĺ¯ä¸Ģ":1159,"ip":1160,"gor":1161,"Ġsupport":1162,"ne":1163,"Ġdiffere":1164,"åħĥ":1165,"Ġass":1166,"åĨ³":1167,"éĽ":1168,"åĲį":1169,"Ġgo":1170,"Ġtechnology":1171,"æĢ»":1172,"è®®":1173,"Ġinter":1174,"Ġinv":1175,"Ġour":1176,"æķĪ":1177,"ustom":1178,"Ġrel":1179,"ife":1180,"åĻ¨":1181,"ings":1182,"ä»·":1183,"Ġpart":1184,"è¢«":1185,"æīĭ":1186,"ary":1187,"Ġrespon":1188,"ĊĠĠĠ":1189,"å¥½çļĦ":1190,"ative":1191,"å¸®åĬ©":1192,"ç»Ł":1193,"æĶ¾":1194,"ĠHere":1195,"çģ":1196,"Ġbut":1197,"æģ¯":1198,"æŃ£":1199,"ark":1200,"åħ¬åı¸":1201,"ory":1202,"å¢ĥ":1203,"lect":1204,"éŁ":1205,"æĥ³":1206,"é£İ":1207,"ating":1208,"Ġam":1209,"its":1210,"æ»":1211,"gorith":1212,"åĵį":1213,"ures":1214,"Ġeffect":1215,"Ġshould":1216,"Ġper":1217,"è±":1218,"ç²":1219,"ict":1220,"Ġalgorith":1221,"uc":1222,"rough":1223,"ä»»":1224,"ä»¶":1225,"Ġbet":1226,"ia":1227,"Ġanalyz":1228,"æł¹æį®":1229,"ized":1230,"æµģ":1231,"è§Ĥ":1232,"è£":1233,"æłĩ":1234,"iron":1235,"Ġcustom":1236,"Ġreg":1237,"Ġpersonal":1238,"èĥ½å¤Ł":1239,"ics":1240,"ivid":1241,"çĪ":1242,"èµĦ":1243,"æŃ¥":1244,"å®¹":1245,"åĪĽ":1246,"èĪ":1247,"ä¹Ĳ":1248,"å¯¼":1249,"gan":1250,"èĬĤ":1251,"Ġall":1252,"ens":1253,"ame":1254,"ness":1255,"Ġup":1256,"ĠU":1257,"èĢĥ":1258,"elf":1259,"åĢ¼":1260,"å°ĳ":1261,"æľį":1262,"ari":1263,"thical":1264,"viron":1265,"èĥ":1266,"ord":1267,"Ġsign":1268,"éĩĮ":1269,"ound":1270,"ople":1271,"åŁº":1272,"Ġinformation":1273,"Ġidentify":1274,"åĽŀ":1275,"Ġcre":1276,"éŁ³":1277,"ible":1278,"ub":1279,"è¿Ĳ":1280,"Ġlead":1281,"æ¸¸":1282,"æ¬¡":1283,"åĨĻ":1284,"éĤ£":1285,"get":1286,"èį":1287,"Ġexample":1288,"ä¼ĺ":1289,"å½±åĵį":1290,"ish":1291,"xt":1292,"æº":1293,"éªĮ":1294,"ob":1295,"å®¢":1296,"å¤ĩ":1297,"åģ¥":1298,"è½¦":1299,"ç¤¾":1300,"ividual":1301,"ered":1302,"les":1303,"Ġenviron":1304,"Ġpeople":1305,"æĺŁ":1306,"çĸ":1307,"çĭ":1308,"Ġdet":1309,"æĹł":1310,"Ġif":1311,"ose":1312,"ite":1313,"å¢ŀ":1314,"éĴ":1315,"åĲĮæĹ¶":1316,"è¿°":1317,"æĸ¹å¼ı":1318,"åĽ½":1319,"é»":1320,"å¤Ħ":1321,"Ġexamples":1322,"æ®":1323,"Ġinto":1324,"æĮĩ":1325,"Ġhuman":1326,"åĲĳ":1327,"ç¤º":1328,"æķ°æį®":1329,"Ġ3":1330,"ĠJ":1331,"èı":1332,"çİ¯å¢ĥ":1333,"als":1334,"erst":1335,"Ġethical":1336,"ç»Ħ":1337,"ä¼ł":1338,"Ġdifferent":1339,"Ġknow":1340,"åºı":1341,"Ġindividual":1342,"æıĲé«ĺ":1343,"round":1344,"å°±":1345,"åıĸ":1346,"åŃĺ":1347,"ä¸¤":1348,"çŁ¥":1349,"ources":1350,"ck":1351,"å£":1352,"ines":1353,"è¾¾":1354,"Ġmany":1355,"æķ´":1356,"æł·":1357,"ditional":1358,"omm":1359,"çĶ±":1360,"éĢł":1361,"å®ĥä»¬":1362,"ues":1363,"Ġment":1364,"Ġimportant":1365,"Ġopt":1366,"Ġloc":1367,"ph":1368,"Ġprocess":1369,"Ġalgorithms":1370,"è®¾è®¡":1371,"Ġsocial":1372,"very":1373,"åĪĻ":1374,"ä¾ĭå¦Ĥ":1375,"è®¤":1376,"Ġaut":1377,"Ġserv":1378,"gg":1379,"äº§åĵģ":1380,"è§Ħ":1381,"çľĭ":1382,"vel":1383,"æĸ¹æ³ķ":1384,"Ġben":1385,"åĽłæŃ¤":1386,"care":1387,"per":1388,"åĬŁ":1389,"å»ºè®®":1390,"Ġpos":1391,"æ¤":1392,"we":1393,"åĮº":1394,"iqu":1395,"Ġreal":1396,"æĹ¥":1397,"Ġreduce":1398,"af":1399,"angu":1400,"Ġsk":1401,"Ġed":1402,"erstand":1403,"åĨµ":1404,"mot":1405,"åħĪ":1406,"ç¥":1407,"åºĶè¯¥":1408,"Ġthrough":1409,"Ġconc":1410,"åıĳå±ķ":1411,"è¯ķ":1412,"æ¡Ī":1413,"Ġenvironment":1414,"åı£":1415,"Ġadv":1416,"åĪ«":1417,"Ġbenef":1418,"æ¸ħ":1419,"åĳ³":1420,"åħī":1421,"Ġdevelopment":1422,"eng":1423,"å¦Ĥä½ķ":1424,"ç®¡":1425,"ivers":1426,"åĲĦ":1427,"Ġris":1428,"row":1429,"ergy":1430,"è®¡ç®Ĺ":1431,"ä¿¡æģ¯":1432,"Ġproduct":1433,"è¾ĥ":1434,"è®º":1435,"èĩªå·±çļĦ":1436,"æĬ¤":1437,"åıį":1438,"åħ¶ä»ĸ":1439,"åĪĹ":1440,"ç»Ĩ":1441,"ç©º":1442,"Ġgreat":1443,"ear":1444,"æºĲ":1445,"ject":1446,"çĶŁæ´»":1447,"ä¸ŃçļĦ":1448,"Ġunderstand":1449,"èĭ":1450,"hat":1451,"Ġprogra":1452,"çĬ":1453,"éĩĳ":1454,"Ġincluding":1455,"Ġaccess":1456,"ĠĠĠĠĠĠĠ":1457,"è¯Ĩ":1458,"ç¦":1459,"og":1460,"è£ħ":1461,"Ġart":1462,"Ġwrit":1463,"Ġincre":1464,"Ġph":1465,"æĸ¹éĿ¢":1466,"Ġpract":1467,"Ġusing":1468,"é¡¹":1469,"æİ¥":1470,"Ġways":1471,"Ġlangu":1472,"æĶ¯":1473,"Ġchall":1474,"åİ»":1475,"____":1476,"imate":1477,"æĸŃ":1478,"è¨":1479,"Ġwell":1480,"ll":1481,"Ġpol":1482,"æĢģ":1483,"Ġra":1484,"Can":1485,"åİŁ":1486,"ber":1487,"è¨Ģ":1488,"ç«ĭ":1489,"Ġgen":1490,"éħį":1491,"æ·±":1492,"te":1493,"ä¸ī":1494,"ç§ĳ":1495,"ĠFor":1496,"çº¿":1497,"çħ":1498,"æ¼":1499,"åķĨ":1500,"æĿĲ":1501,"Ġsignific":1502,"Ġgu":1503,"Ġdecis":1504,"Ġtrain":1505,"Ġag":1506,"Ġcreat":1507,"å®Į":1508,"æĹ¶éĹ´":1509,"Ġone":1510,"èĦ":1511,"Ġnat":1512,"åŃ¦ä¹ł":1513,"çļĦæķ":1514,"ced":1515,"Ġwhen":1516,"Ġbi":1517,"èİ":1518,"æĽ´åĬł":1519,"ives":1520,"port":1521,"å·¥ä½ľ":1522,"ving":1523,"Ġbeen":1524,"æĻº":1525,"Ġlife":1526,"å¼ķ":1527,"arm":1528,"çİĩ":1529,"çĶ¨æĪ·":1530,"ä¹ī":1531,"ä»½":1532,"è¯Ŀ":1533,"iness":1534,"com":1535,"åº·":1536,"åĩı":1537,"ä»Ģ":1538,"è¾ĵ":1539,"Ġvari":1540,"con":1541,"Ġmod":1542,"ä»Ģä¹Ī":1543,"Ġenergy":1544,"æĬĢæľ¯":1545,"ertain":1546,"mm":1547,"verall":1548,"åĪĴ":1549,"Ġrobots":1550,"Ġorgan":1551,"æİ¨":1552,"ants":1553,"åĩĨ":1554,"ds":1555,"æŀģ":1556,"çĻ":1557,"Ġrequ":1558,"Ġess":1559,"ç®Ģ":1560,"ustain":1561,"æ¨":1562,"Ġstr":1563,"cing":1564,"ability":1565,"ree":1566,"Ġeduc":1567,"åİĨ":1568,"Ġcreate":1569,"åģ¥åº·":1570,"Ġdesign":1571,"ips":1572,"åģļ":1573,"èĬ±":1574,"ink":1575,"èıľ":1576,"æī¾":1577,"æ®µ":1578,"æµĭ":1579,"ĠV":1580,"ĠBy":1581,"åĶ":1582,"é¦ĸ":1583,"è¯į":1584,"Ġwhere":1585,"Ġdisc":1586,"äºĨè§£":1587,"ric":1588,"ä¸Ķ":1589,"è¶³":1590,"æĺ¯ä¸Ģä¸ª":1591,"arch":1592,"ç§¯":1593,"å¸¦":1594,"Ġwhile":1595,"Ġsignificant":1596,"çłģ":1597,"æĪ¿":1598,"Ġbeing":1599,"Ġlanguage":1600,"itive":1601,"20":1602,"Ġanalyze":1603,"æĻ¯":1604,"èĮ":1605,"rib":1606,"æ¨¡":1607,"ĠSt":1608,"è´¹":1609,"'t":1610,"Ġhealthcare":1611,"Ġexperience":1612,"Ġ5":1613,"ä¸ªäºº":1614,"ays":1615,"è±¡":1616,"plo":1617,"Ġwould":1618,"èĻĳ":1619,"æĶ¶":1620,"é¢Ħ":1621,"é¢Ĩ":1622,"ä¿ĿæĮģ":1623,"ences":1624,"åıª":1625,"èĩ´":1626,"æĪı":1627,"Ġmental":1628,"Ġfew":1629,"ates":1630,"è¿ĩç¨ĭ":1631,"å®īåħ¨":1632,"Ġsustain":1633,"Ġwere":1634,"å¤ª":1635,"çĮ":1636,"Ġspecific":1637,"Ġworld":1638,"çŃĶ":1639,"```":1640,"Ġtake":1641,"åħ»":1642,"éĢŁ":1643,"ever":1644,"SS":1645,"éĶĢ":1646,"Ġbo":1647,"hes":1648,"Ġmus":1649,"æľįåĬ¡":1650,"è§Ĵ":1651,"ten":1652,"æŀĲ":1653,"pow":1654,"dict":1655,"vent":1656,"10":1657,"çļĦæĹ":1658,"ĸçķ":1659,"Ġprot":1660,"ç½®":1661,"Ġhigh":1662,"Ġbus":1663,"Ġindust":1664,"åĲ¦":1665,"cial":1666,"äººä»¬":1667,"ĠAs":1668,"åĳĬ":1669,"ade":1670,"æĶ¹":1671,"çĹ":1672,"Ġhad":1673,"Ġher":1674,"Ġjust":1675,"ï¼Ľ":1676,"è´Ń":1677,"ç¬¬":1678,"éĵ":1679,"Ġwater":1680,"Ġfood":1681,"éĺŁ":1682,"aus":1683,"Ġchalleng":1684,"åħį":1685,"æĸĩåĮĸ":1686,"Ġmost":1687,"é¸":1688,"ç½ĳ":1689,"çĽ´":1690,"Ġsm":1691,"Ġactiv":1692,"ploy":1693,"Overall":1694,"å¿«":1695,"ruct":1696,"Ġindividuals":1697,"å§ĭ":1698,"gies":1699,"æŁ¥":1700,"çĪ±":1701,"iety":1702,"In":1703,"åĪĨæŀĲ":1704,"è§Ĩ":1705,"æ¸©":1706,"ç»´":1707,"olut":1708,"åŁŁ":1709,"ommend":1710,"Ġcomple":1711,"æķĻ":1712,"Ġbu":1713,"Ġeducation":1714,"ather":1715,"Ġ4":1716,"ting":1717,"Ġfind":1718,"æ²¡":1719,"Ġhis":1720,"ä¹ĭéĹ´":1721,"Ġeffective":1722,"Ġatt":1723,"Ġrese":1724,"èĥ½åĬĽ":1725,"åŁİ":1726,"Ġallow":1727,"Ġav":1728,"Ġpromot":1729,"æĻºèĥ½":1730,"æ»¡":1731,"åħ±":1732,"iew":1733,"come":1734,"ç³»ç»Ł":1735,"Ġrespons":1736,"äºĴ":1737,"Ġcult":1738,"powered":1739,"Ġrecommend":1740,"èĲ¥":1741,"OSS":1742,"Ġchange":1743,"è¯ģ":1744,"ved":1745,"æİĴ":1746,"è§£åĨ³":1747,"ici":1748,"ĠHow":1749,"Ġfeel":1750,"æľĪ":1751,"Ġwhat":1752,"ä»¥åıĬ":1753,"Ġsee":1754,"åŃ©":1755,"bs":1756,"Ġsur":1757,"æ£":1758,"ality":1759,"Ġvis":1760,"ç¡®ä¿Ŀ":1761,"pect":1762,"å®ŀçİ°":1763,"Ġcare":1764,"å¹¿":1765,"ills":1766,"åºŃ":1767,"ases":1768,"å¤į":1769,"åºĶçĶ¨":1770,"çļĦæĥ":1771,"ards":1772,"Ġaddress":1773,"Ġcompan":1774,"Ġinvol":1775,"Ġcustomer":1776,"åĽłä¸º":1777,"Ġstudents":1778,"Ġins":1779,"æ³¨æĦı":1780,"æŀĦ":1781,"æ¬¢":1782,"æµ·":1783,"åıĤ":1784,"èĩªçĦ¶":1785,"é©":1786,"ĠThese":1787,"wn":1788,"æĺĵ":1789,"çĬ¶":1790,"ren":1791,"Ġtreat":1792,"Ġbenefits":1793,"ĊĠĠĠĠĠĠĠ":1794,"å¯¹äºİ":1795,"æĢĿ":1796,"ider":1797,"ĠYes":1798,"ĠK":1799,"åĸľ":1800,"Ġke":1801,"Ġeng":1802,"Ġpop":1803,"ost":1804,"pare":1805,"Ġmon":1806,"æ¬¾":1807,"ĠMOSS":1808,"Ġemot":1809,"Ġac":1810,"ç¼ĸ":1811,"fore":1812,"åı¥":1813,"Ġval":1814,"ily":1815,"Ġiss":1816,"èĤī":1817,"èĩ³":1818,"æ¸¸æĪı":1819,"ween":1820,"Ġinclude":1821,"Ġprotect":1822,"åħ³ç³»":1823,"éĻ©":1824,"Ġsever":1825,"Ġthan":1826,"éľĢæ±Ĥ":1827,"ç»ĥ":1828,"ĠThey":1829,"iss":1830,"ys":1831,"Ġjob":1832,"éĺ³":1833,"æĲ":1834,"Ġbetween":1835,"Ġmach":1836,"--------":1837,"èĢĥèĻĳ":1838,"è´¨éĩı":1839,"Ġbusiness":1840,"wor":1841,"ick":1842,"eg":1843,"åħħ":1844,"ç¯":1845,"æĿ¡":1846,"ner":1847,"apt":1848,"Ġappro":1849,"Ġplay":1850,"æ²¡æľī":1851,"¤Ĳ":1852,"æľª":1853,"æĪĺ":1854,"å®¶åºŃ":1855,"ãĢĭ":1856,"ency":1857,"ĠCh":1858,"ãĢĬ":1859,"Ġproviding":1860,"Ġresources":1861,"âĢĻ":1862,"Ġassist":1863,"Ġnatural":1864,"è¯Ħ":1865,"ä¾¿":1866,"Ġsaf":1867,"åħ·æľī":1868,"è°¢":1869,"çĥŃ":1870,"ss":1871,"eth":1872,"old":1873,"Ġperform":1874,"Ġseveral":1875,"é¤Ĳ":1876,"Ġeach":1877,"è½¬":1878,"ci":1879,"Ġty":1880,"Ġpub":1881,"æ´»åĬ¨":1882,"ocus":1883,"çīĮ":1884,"è¶Ĭ":1885,"åĽ¢":1886,"è½»":1887,"è¯Ńè¨Ģ":1888,"Ġareas":1889,"éĩĩ":1890,"ft":1891,"riend":1892,"å·²":1893,"å¸Ĥåľº":1894,"ition":1895,"ients":1896,"ç®¡çĲĨ":1897,"è®¸":1898,"äººç±»":1899,"èº«ä½ĵ":1900,"ique":1901,"Ġpartic":1902,"ç»Ń":1903,"agement":1904,"ves":1905,"ç¬¦":1906,"line":1907,"çº¢":1908,"åĲ¸":1909,"Ġpatter":1910,"000":1911,"ç¤¾ä¼ļ":1912,"åĨħå®¹":1913,"Ġorganiz":1914,"ough":1915,"Ġve":1916,"åŃ©åŃĲ":1917,"æĸ½":1918,"æ¤į":1919,"åĩł":1920,"ä½Ĩæĺ¯":1921,"Ġaff":1922,"Ġnum":1923,"lement":1924,"èīº":1925,"èĳ":1926,"Ġcar":1927,"ages":1928,"abor":1929,"æĺ¯ä¸Ģç§į":1930,"Ġinst":1931,"èĽ":1932,"ä¹ĭä¸Ģ":1933,"è·¯":1934,"åį³":1935,"Ġmain":1936,"éļı":1937,"How":1938,"å¿ħ":1939,"ç¨ĭåºı":1940,"éŁ³ä¹Ĳ":1941,"red":1942,"æ²¹":1943,"Ġoffer":1944,"ets":1945,"ç¢":1946,"Ġduring":1947,"çļĦäºº":1948,"æĽ´å¤ļ":1949,"Ġdi":1950,"ä»£çłģ":1951,"èİ·":1952,"åħĭ":1953,"Ġguid":1954,"ä¸»è¦ģ":1955,"Ġfam":1956,"æİ§":1957,"éĢļå¸¸":1958,"ĠAd":1959,"å¤ĦçĲĨ":1960,"urn":1961,"ower":1962,"åĳ½":1963,"æıı":1964,"Ġskills":1965,"Ġtool":1966,"ware":1967,"æĸĩæľ¬":1968,"Ġpatterns":1969,"çĽ®æłĩ":1970,"acy":1971,"æīĵ":1972,"åŁİå¸Ĥ":1973,"Ġevery":1974,"ries":1975,"è¯»":1976,"éģ¿":1977,"çĻ½":1978,"éĢĤåĲĪ":1979,"Ġpatient":1980,"çľŁ":1981,"oth":1982,"å¥¹":1983,"åĶ®":1984,"ä¸Ģç§į":1985,"Ġmade":1986,"ä½İ":1987,"ise":1988,"Ġrem":1989,"æ¶Ī":1990,"åĲ«":1991,"air":1992,"Ġgener":1993,"oy":1994,"ç²¾":1995,"æĥħåĨµ":1996,"ights":1997,"Ġexpl":1998,"è§ģ":1999,"Ġpredict":2000,"ç±³":2001,"æĽ´å¥½":2002,"ä¿®":2003,"Ġclimate":2004,"Ġfocus":2005,"Ġgrow":2006,"å®¢æĪ·":2007,"ä¸įæĸŃ":2008,"itor":2009,"ĠEn":2010,"çº¦":2011,"æĺ¯åĲ¦":2012,"ä»ħ":2013,"æĪĳä»¬çļĦ":2014,"æľĽ":2015,"op":2016,"Ġmaking":2017,"yth":2018,"ccess":2019,"Ġown":2020,"ggest":2021,"Ġtas":2022,"uture":2023,"Ġmodel":2024,"put":2025,"Ġresearch":2026,"erest":2027,"éļ¾":2028,"Ġ[":2029,"iel":2030,"ational":2031,"Ġcommunic":2032,"ç¥ŀ":2033,"ç©¶":2034,"Ġrest":2035,"æĪĲä¸º":2036,"king":2037,"pr":2038,"åĮ»":2039,"cur":2040,"èĤ²":2041,"Ġ'":2042,"è¿Ļç§į":2043,"ç¯ĩ":2044,"Ġche":2045,"own":2046,"éĻħ":2047,"Ġfin":2048,"åĪ¶ä½ľ":2049,"Ġsuggest":2050,"å¢ŀåĬł":2051,"Ġmedia":2052,"ribut":2053,"çļĦæĥħ":2054,"åĬłåħ¥":2055,"Ġcle":2056,"åĳ¨":2057,"ç«ł":2058,"Ġthink":2059,"Ġlocal":2060,"pportun":2061,"ĠYou":2062,"Ġplan":2063,"Ġeven":2064,"éĽĨ":2065,"å·§":2066,"ax":2067,"Ġchallenges":2068,"Ġprof":2069,"ĠCan":2070,"Ġconcer":2071,"Ġfuture":2072,"åĬ¿":2073,"Ġref":2074,"èģĶ":2075,"Ġself":2076,"æĪĸèĢħ":2077,"ble":2078,"åĽ´":2079,"è¿ĲåĬ¨":2080,"Ġinf":2081,"éĩĬ":2082,"Ġsustainable":2083,"Ġtext":2084,"Ġgra":2085,"äºĮ":2086,"åĵģçīĮ":2087,"ä¸įåĲĮçļĦ":2088,"led":2089,"çĭ¬":2090,"Ġopportun":2091,"Ġcontin":2092,"ym":2093,"Ġget":2094,"å¯Ĩ":2095,"éĻ¤":2096,"æħ":2097,"éģ¿åħį":2098,"Ġ+":2099,"è§ī":2100,"Ġret":2101,"å¸ĥ":2102,"Ġinterest":2103,"Ġsociety":2104,"ç»ĵæŀľ":2105,"åĲ¬":2106,"é¦ĸåħĪ":2107,"Ġbre":2108,"Ġ20":2109,"ĠHowever":2110,"è®°":2111,"ons":2112,"è¿ĳ":2113,"å¼Ģå§ĭ":2114,"Ġbuild":2115,"Ġbeh":2116,"'m":2117,"vers":2118,"Ġgood":2119,"çĲĨè§£":2120,"resent":2121,"ç¦»":2122,"åĬŁèĥ½":2123,"Ġeffort":2124,"labor":2125,"é»ĳ":2126,"Ġbetter":2127,"Ġread":2128,"å¾ĭ":2129,"èĽĭ":2130,"hed":2131,"ä¹°":2132,"å¯¼èĩ´":2133,"Ġimplement":2134,"ç¿":2135,"äº«":2136,"å¤´":2137,"ense":2138,"Ġlong":2139,"other":2140,"é¥®":2141,"åŃĺåľ¨":2142,"çļĦæĦ":2143,"ä¸Ģä»½":2144,"ython":2145,"ning":2146,"åĩıå°ĳ":2147,"åĢĻ":2148,"ä¸ĵ":2149,"åĲĦç§į":2150,"èħ":2151,"å°½":2152,"åįĩ":2153,"æĬ¥":2154,"Ġpublic":2155,"Ġlar":2156,"ä½łçļĦ":2157,"aut":2158,"é¢ĨåŁŁ":2159,"æļ":2160,"ollow":2161,"èģĮ":2162,"Ġchang":2163,"Ġbest":2164,"hip":2165,"åĨį":2166,"akes":2167,"Ġchat":2168,"ited":2169,"Ġpower":2170,"ä¿ĿæĬ¤":2171,"ä¹¦":2172,"è®¡åĪĴ":2173,"éĩįè¦ģçļĦ":2174,"åıĺåĮĸ":2175,"ilities":2176,"Ġconsider":2177,"æĪĳä»¬åı¯ä»¥":2178,"éĤ£ä¹Ī":2179,"Ġide":2180,"æ¼Ķ":2181,"aging":2182,"Ġbased":2183,"å®Ŀ":2184,"Ġrange":2185,"Ġresult":2186,"Ġmem":2187,"çħ§":2188,"Ġlevel":2189,"cou":2190,"Ġbr":2191,"Th":2192,"ä¼ģ":2193,"å»ºç«ĭ":2194,"Ġunique":2195,"è®Ń":2196,"Ġmark":2197,"è®¸å¤ļ":2198,"è¡Įä¸º":2199,"Ķç©¶":2200,"çļĦæĬ":2201,"Ġset":2202,"éª¤":2203,"ts":2204,"Ġhist":2205,"Ġaround":2206,"Ġrev":2207,"åħ¶ä¸Ń":2208,"ï¼ģ":2209,"æııè¿°":2210,"æľĢåĲİ":2211,"Ġsim":2212,"nect":2213,"åĽŀçŃĶ":2214,"éĺ²":2215,"èī¯":2216,"åĪ°äºĨ":2217,"ä¸ĸçķ":2218,"æĸ¹æ¡Ī":2219,"æĿĲæĸĻ":2220,"ä¸ĸçķĮ":2221,"æĽ´å¥½åľ°":2222,"ä¸¤ä¸ª":2223,"Ġemploy":2224,"Ġtry":2225,"æĵ":2226,"Ġback":2227,"åĪĩ":2228,"Ġsuccess":2229,"Ġdecisions":2230,"Ġthose":2231,"å¯Į":2232,"Ġfact":2233,"æİ¢":2234,"è¶£":2235,"Ġpractices":2236,"åĲĹ":2237,"æīį":2238,"çİ©":2239,"ption":2240,"æĸĩç«ł":2241,"Ġfeat":2242,"Ġprevent":2243,"Ġwriting":2244,"çļĦæĢ":2245,"Ġno":2246,"ä»ĭ":2247,"éĹ¨":2248,"Ġdel":2249,"æĴ":2250,"Ġoptim":2251,"ination":2252,"ĠĊ":2253,"usion":2254,"Ġaccount":2255,"ling":2256,"Ġdivers":2257,".\"":2258,"ath":2259,"èĭ±":2260,"ä¼ģä¸ļ":2261,"Ġgrou":2262,"åľ°çĲĥ":2263,"å¤±":2264,"Ġpersonalized":2265,"ĠHe":2266,"è¡¨è¾¾":2267,"curity":2268,"Ġfollow":2269,"äº§çĶŁ":2270,"Ġear":2271,"åİĭ":2272,"vern":2273,"Ġissues":2274,"åĿĩ":2275,"é²":2276,"Ġdr":2277,"iving":2278,"Ġtraining":2279,"Ġrisk":2280,"åĩ½":2281,"åı²":2282,"æĳ":2283,"çļĦæĹ¶":2284,"ogn":2285,"Ġrequire":2286,"Ġenvironmental":2287,"back":2288,"éĶ®":2289,"çĸĹ":2290,"Ġinteract":2291,"åĽ¢éĺŁ":2292,"æ¯ıä¸ª":2293,"çĦ¶åĲİ":2294,"Ġdist":2295,"çĶ¨äºİ":2296,"è®¤ä¸º":2297,"åĩ½æķ°":2298,"Ġsent":2299,"ĊĠĠĠĠĠĠĠĠ":2300,"Ġreducing":2301,"å¹²":2302,"Ġrep":2303,"Ġcaus":2304,"Ġmusic":2305,"çª":2306,"Ġmonitor":2307,"Ġform":2308,"é¢ľ":2309,"çĹħ":2310,"é¦Ļ":2311,"Ġoften":2312,"åı¯èĥ½ä¼ļ":2313,"åĳĺå·¥":2314,"Ġhand":2315,"æĬķ":2316,"Ġneeds":2317,"æŃ¤å¤ĸ":2318,"åıĭ":2319,"ivity":2320,"Ġactivities":2321,"åĸľæ¬¢":2322,"Ġpur":2323,"ian":2324,"self":2325,"åĬ¨çī©":2326,"comes":2327,"å©":2328,"Ġpriv":2329,"az":2330,"Ġrelations":2331,"Ġmachine":2332,"çļĦæ°":2333,"ä»·æł¼":2334,"ä»·åĢ¼":2335,"ç´¢":2336,"Ġfeed":2337,"ä¸Ģä¸ĭ":2338,"Ġteam":2339,"Ġindustry":2340,"è´¢":2341,"ĠPro":2342,"Ġwant":2343,"ç§°":2344,"Ġclass":2345,"Ġlove":2346,"åħ³äºİ":2347,"è¾ĵåħ¥":2348,"Ġtransport":2349,"Ġcomplex":2350,"Ġyear":2351,"éĶĢåĶ®":2352,"å¯»":2353,"ience":2354,"ists":2355,"æĶ¯æĮģ":2356,"Ġmind":2357,"Ġfun":2358,"Ġchar":2359,"æĮī":2360,"Ġconcerns":2361,"conom":2362,"ç®Ģåįķ":2363,"ä»¥ä¸ĭæĺ¯":2364,"Ġstart":2365,"å¹¶ä¸Ķ":2366,"avi":2367,"ä¸ŃåĽ½":2368,"åħĥç´ł":2369,"Ġconf":2370,"Ġpositive":2371,"Ġcur":2372,"Ġcount":2373,"ery":2374,"å¡":2375,"å®¤":2376,"Ġcost":2377,"Ġequ":2378,"Ġpolic":2379,"aste":2380,"aw":2381,"éħĴ":2382,"coura":2383,"iven":2384,"place":2385,"chie":2386,"çļĦæķ°":2387,"åĽłç´ł":2388,"Ġfl":2389,"ism":2390,"Ġmedical":2391,"Ġhumans":2392,"Ġautom":2393,"ertainly":2394,"Ġ0":2395,"Ġoffers":2396,"Ġdetect":2397,"Ġ6":2398,"é£İæł¼":2399,"Ġshow":2400,"çģ«":2401,"Ġanim":2402,"é¢ľèī²":2403,"lease":2404,"ave":2405,"åĵª":2406,"ĠThere":2407,"ä»¥ä¸Ĭ":2408,"æľªæĿ¥":2409,"XX":2410,"çīĩ":2411,"uch":2412,"Ġtasks":2413,"åħ·ä½ĵ":2414,"æ¤įçī©":2415,"Ġmin":2416,"èīºæľ¯":2417,"icult":2418,"Ġexperiences":2419,"æİ§åĪ¶":2420,"be":2421,"Ġpatients":2422,"å²":2423,"ĠWe":2424,"Ġrecogn":2425,"çĥ¤":2426,"Ġsmall":2427,"åĿĹ":2428,"åĦ":2429,"å¤ªéĺ³":2430,"ction":2431,"Ġent":2432,"æį¢":2433,"Ġbefore":2434,"Ġbecome":2435,"å·²ç»ı":2436,"è¡¨çİ°":2437,"Ġexplo":2438,"Ġachie":2439,"ä»»åĬ¡":2440,"å¤§çļĦ":2441,"Ġday":2442,"Ġfound":2443,"å±±":2444,"ond":2445,"Ġtreatment":2446,"pend":2447,"hen":2448,"Ġcondit":2449,"ç¡®å®ļ":2450,"Ġbusinesses":2451,"ĠWh":2452,"æīĢæľī":2453,"Ġdeveloped":2454,"ç»Ī":2455,"æŃ¥éª¤":2456,"Ġdifficult":2457,"åı·":2458,"ĠRe":2459,"éĶĻ":2460,"Ġcho":2461,"Ġquest":2462,"Ġtranspare":2463,"Ġproject":2464,"Ġcommunity":2465,"ov":2466,"å¸Ī":2467,"å¼ł":2468,"åĪĨç±»":2469,"äººçļĦ":2470,"sis":2471,"çĽĬ":2472,"oid":2473,"ĠAn":2474,"ways":2475,"Ġeas":2476,"Ġaffect":2477,"Ġothers":2478,"Ġregul":2479,"æĢ§åĴĮ":2480,"åĸĦ":2481,"agn":2482,"ä½ľä¸º":2483,"åı¯ä»¥å¸®åĬ©":2484,"åĦ¿":2485,"Ġorganizations":2486,"é¸¡":2487,"åħ´":2488,"Ġfriend":2489,"Ġ$":2490,"Ġdetail":2491,"Ġtraditional":2492,"Ġdesigned":2493,"è´Ńä¹°":2494,"ä½ĵéªĮ":2495,"ç»į":2496,"erm":2497,"Ġconnect":2498,"è¿Ļæł·":2499,"Ġrecommendations":2500,"Ġboth":2501,"ŁéĢļ":2502,"æ¯į":2503,"Ġsit":2504,"ä½ľçĶ¨":2505,"ä»ĭç»į":2506,"Ġste":2507,"ĠSure":2508,"åı°":2509,"æĤ¨çļĦ":2510,"Ġshe":2511,"Ġmanagement":2512,"joy":2513,"è´Ł":2514,"Ġpromote":2515,"Ġvarious":2516,"(\"":2517,"por":2518,"Ġsens":2519,"Ġessential":2520,"gether":2521,"ularly":2522,"äºī":2523,"irst":2524,"Ġop":2525,"Ġspecies":2526,"çİ°åľ¨":2527,"cho":2528,"Ġbehavi":2529,"çŃĳ":2530,"å¥³":2531,"Ġquality":2532,"Ġext":2533,"è¥":2534,"å®ĮæĪĲ":2535,"æĢ»ä¹ĭ":2536,"éĥ¨åĪĨ":2537,"ä»İèĢĮ":2538,"åĽ¾":2539,"Ġtyp":2540,"Ġstrate":2541,"è¥¿":2542,"Ġhere":2543,"ars":2544,"å¸Į":2545,"çļĦæĿ":2546,"å°Ŀ":2547,"ee":2548,"ier":2549,"Ġec":2550,"ically":2551,"ering":2552,"å¿µ":2553,"ĠDe":2554,"Ġneg":2555,"å»ºçŃĳ":2556,"Ġservices":2557,"Ġable":2558,"imes":2559,"Ġoptions":2560,"çĽ¸åħ³":2561,"Ġsub":2562,"Ġdecision":2563,"ĠCertainly":2564,"Ġåľ¨":2565,"æ¢":2566,"Ġservice":2567,"):":2568,"å¸¦æĿ¥":2569,"Ġchild":2570,"è§£éĩĬ":2571,"irt":2572,"çĨ":2573,"ä¸įä»ħ":2574,"æĿ¾":2575,"ç§¯æŀģ":2576,"ron":2577,"åı¤":2578,"çłĶç©¶":2579,"ç²ī":2580,"hor":2581,"Ġprofess":2582,"çļĦéĹ®é¢ĺ":2583,"Ġopportunities":2584,"åİĨåı²":2585,"Ġdef":2586,"ĠAm":2587,"Ġgr":2588,"aur":2589,"å±Ĥ":2590,"çŃĸ":2591,"Ġpopular":2592,"æ´ģ":2593,"åıĳçİ°":2594,"Ġpoem":2595,"èµĽ":2596,"Ġob":2597,"Ġdon":2598,"Ġsound":2599,"Ġtransportation":2600,"ious":2601,"åı¦":2602,"Ġrole":2603,"Ġfiel":2604,"ç§ĳåŃ¦":2605,"èĢģ":2606,"reen":2607,"æľīæķĪ":2608,"Ġcor":2609,"Ġfeedback":2610,"Ġtechnologies":2611,"äº¤éĢļ":2612,"Ġadapt":2613,"'re":2614,"ervation":2615,"Ġcommunities":2616,"çİ°ä»£":2617,"Ġlook":2618,"Ġfac":2619,"çĶµå½±":2620,"Ġcollect":2621,"å¾ĹåĪ°":2622,"hips":2623,"Ġavail":2624,"eren":2625,"ä¸Ģèµ·":2626,"çīĽ":2627,"Ġposs":2628,"Ġweather":2629,"Ġefforts":2630,"¿Ģ":2631,"æĹħ":2632,"oh":2633,"Ġcollabor":2634,"æĭ¥":2635,"æĪĲåĬŁ":2636,"èİ·å¾Ĺ":2637,"å±ħ":2638,"Ġtre":2639,"Ġsources":2640,"Ġstudy":2641,"Ġprograms":2642,"éĻĲ":2643,"Ġtips":2644,"Ġmarket":2645,"ally":2646,"å®³":2647,"wards":2648,"æ£Ģ":2649,"ä¸Ģç¯ĩ":2650,"rior":2651,"Ġtop":2652,"Ġend":2653,"åĭ":2654,"Ġlarge":2655,"iciency":2656,"Ġdec":2657,"å®ļçļĦ":2658,"icient":2659,"è¿ĩç¨ĭä¸Ń":2660,"lications":2661,"ç¼º":2662,"Ġtour":2663,"Ġtogether":2664,"äººå·¥":2665,"Ġtools":2666,"æĸ¯":2667,"æ°ĳ":2668,"æĬĬ":2669,"ä¹ĭéĹ´çļĦ":2670,"çī¹çĤ¹":2671,"Ġbel":2672,"ditionally":2673,"åĪ©çĶ¨":2674,"è¾¹":2675,"éĻį":2676,"ĠIf":2677,"é¢Ŀ":2678,"åįı":2679,"å¾Ģ":2680,"lish":2681,"è¯ī":2682,"ins":2683,"å¥¶":2684,"Ġeconom":2685,"Ġinvest":2686,"ĠDo":2687,"tain":2688,"åĩºçİ°":2689,"çļĦå½±åĵį":2690,"aterial":2691,"Ġsure":2692,"Ġpass":2693,"çĶ»":2694,"è´£":2695,"ç»ĵæŀĦ":2696,"æķħ":2697,"æĥħæĦŁ":2698,"æ¿Ģ":2699,"ellig":2700,"ä¼Ĺ":2701,"æ¯Ķè¾ĥ":2702,"tern":2703,"Ġoutcomes":2704,"up":2705,"Ġbeaut":2706,"read":2707,"çĶŁæĪĲ":2708,"æķ°åŃĹ":2709,"Ġdem":2710,"ires":2711,"åı¯ä»¥éĢļè¿ĩ":2712,"æĸ°çļĦ":2713,"Ġdeep":2714,"å¨":2715,"çĭĹ":2716,"åħ³æ³¨":2717,"çĶŁåĳ½":2718,"ä¼łç»Ł":2719,"Ġstay":2720,"æŃĮ":2721,"åħ³éĶ®":2722,"Ġplace":2723,"ä¸»é¢ĺ":2724,"å¾Īå¤ļ":2725,"èĪĴ":2726,"Ġprofessional":2727,"yle":2728,"æĽ²":2729,"19":2730,"Ġessay":2731,"Ġgive":2732,"ç³ĸ":2733,"Ġonly":2734,"æŁĲ":2735,"Ġphys":2736,"å¯¹è¯Ŀ":2737,"Ġcontro":2738,"Ġamount":2739,"cept":2740,"ization":2741,"ç¼ĸåĨĻ":2742,"åıĹåĪ°":2743,"Ġalways":2744,"æ¯Ķå¦Ĥ":2745,"Ġprivacy":2746,"au":2747,"________":2748,"Ġresponsible":2749,"()":2750,"çŃīçŃī":2751,"Ġmaterial":2752,"Ġonline":2753,"é¼":2754,"æĶ¿":2755,"åĽĽ":2756,"Ġenjoy":2757,"åľŁ":2758,"Ġsafety":2759,"Ġtw":2760,"Ġcommunication":2761,"ä¸½":2762,"æĺ¾":2763,"olution":2764,"erg":2765,"įä½ľ":2766,"Ġuser":2767,"Ġemotional":2768,"time":2769,"é¾":2770,"Ġsecurity":2771,"Ġsense":2772,"elines":2773,"åĬ±":2774,"çī©è´¨":2775,"ura":2776,"Ġshare":2777,"Ġanalyzing":2778,"ital":2779,"é±":2780,"irtual":2781,"Ġvisit":2782,"bers":2783,"Ġcour":2784,"Ġproble":2785,"è®¾å¤ĩ":2786,"atch":2787,"land":2788,"é±¼":2789,"æĪĳä»¬éľĢè¦ģ":2790,"ç¨³":2791,"ibility":2792,"Ġefficiency":2793,"å£°":2794,"èĴ":2795,"æľºåĻ¨":2796,"Ġclear":2797,"åĪ¶å®ļ":2798,"izing":2799,"Ġconditions":2800,"lusion":2801,"Ġlow":2802,"Ġlim":2803,"hers":2804,"Ġrisks":2805,"ç¿»":2806,"Ġlet":2807,"åĴĸ":2808,"å¿ĥçĲĨ":2809,"è¿ľ":2810,"print":2811,"Ġchanges":2812,"Ġmeas":2813,"Ġimproving":2814,"Ġcrit":2815,"50":2816,"å¸ĮæľĽ":2817,"Ġaud":2818,"åįĹ":2819,"æĹłæ³ķ":2820,"Ġnegative":2821,"é¡¹çĽ®":2822,"und":2823,"ats":2824,"Ġcompanies":2825,"æī¾åĪ°":2826,"Ġcontribut":2827,"æŃ£ç¡®":2828,"é»Ħ":2829,"å±ŀ":2830,"Ġunderstanding":2831,"Ġmult":2832,"Ġclo":2833,"å¾ģ":2834,"Ġprior":2835,"rim":2836,"äººå·¥æĻºèĥ½":2837,"Ġvariety":2838,"Ġtaking":2839,"åĤ":2840,"aster":2841,"ody":2842,"Ġ{":2843,"çļĦéĩįè¦ģ":2844,"Ġfore":2845,"èµĦæºĲ":2846,"è¦ģæ±Ĥ":2847,"Ġfeatures":2848,"èįī":2849,"me":2850,"èĮĥ":2851,"Ġoper":2852,"çº§":2853,"é²ľ":2854,"æĬĢå·§":2855,"ĳæĪĺ":2856,"ç±»åŀĭ":2857,"æĿ¿":2858,"è½¯":2859,"ew":2860,"Ġrestaur":2861,"Ġwithout":2862,"ructure":2863,"çļĦæĺ¯":2864,"çı":2865,"Ġlist":2866,"urate":2867,"Ġbook":2868,"äº²":2869,"åºĹ":2870,"ä¹Łæĺ¯":2871,"ä»»ä½ķ":2872,"Ġcam":2873,"ĠBe":2874,"Ġgovern":2875,"Ġbehavior":2876,"è®Ńç»ĥ":2877,"Ġfamily":2878,"æĿĤ":2879,"Ġcity":2880,"Ġapproach":2881,"Ġaccurate":2882,"Ġsom":2883,"Ġel":2884,"èĪŀ":2885,"èŀ":2886,"åŁºæľ¬":2887,"Ġdise":2888,"Ġencoura":2889,"ĠWhat":2890,"åĥ":2891,"è¯¦":2892,"¦Ĥ":2893,"å·¥åħ·":2894,"åķ¡":2895,"Ġstill":2896,"chool":2897,"æĦŁåĪ°":2898,"çĶŁçī©":2899,"åĴĸåķ¡":2900,"åĩĨå¤ĩ":2901,"Ġwaste":2902,"Ġevents":2903,"æķĻèĤ²":2904,"Ġ8":2905,"Ġmust":2906,"ied":2907,"asing":2908,"å½¢æĪĲ":2909,"Ġproducts":2910,"åħ¸":2911,"è®²":2912,"fter":2913,"å·®":2914,"less":2915,"Ġcro":2916,"Ġfinan":2917,"åıįåºĶ":2918,"åĪĽéĢł":2919,"Ġguidelines":2920,"åĪ¤":2921,"ä½ľåĵģ":2922,"è¡¨ç¤º":2923,"å¼Ĥ":2924,"Ġknown":2925,"Ġtest":2926,"è¯¯":2927,"ope":2928,"Ġusers":2929,"AI":2930,"å¾·":2931,"new":2932,"è¿½":2933,"iques":2934,"æ¨¡åŀĭ":2935,"åĬĽåĴĮ":2936,"Ġhistory":2937,"ĠAl":2938,"æĬķèµĦ":2939,"å°Ŀè¯ķ":2940,"ank":2941,"Ġhome":2942,"éĴŁ":2943,"ä¸°":2944,"èĪĴéĢĤ":2945,"Ġincrease":2946,"Ġhab":2947,"åĪ»":2948,"è¾ĵåĩº":2949,"Ġleading":2950,"Ġ7":2951,"é£İéĻ©":2952,"Ġperformance":2953,"Ġhapp":2954,"åŃ£":2955,"Ġstand":2956,"ty":2957,"ç¦ı":2958,"Ġcustomers":2959,"åįİ":2960,"Ġbelie":2961,"Ġcompany":2962,"å½ķ":2963,"é£Łçī©":2964,"ĠUn":2965,"Ġsumm":2966,"rent":2967,"ĠCon":2968,"éĢĤéĩı":2969,"anced":2970,"Ġi":2971,"Ġlight":2972,"Ġanalysis":2973,"å°Ĭ":2974,"ĠUse":2975,"ouse":2976,"ted":2977,"Ġcharact":2978,"Ġ#":2979,"to":2980,"ç»ľ":2981,"ä¸įæĺ¯":2982,"Ġdeveloping":2983,"åŁ¹":2984,"Ġstrategies":2985,"Ġmight":2986,"çŁŃ":2987,"çļĦæİ":2988,"Ġfirst":2989,"èĥĮ":2990,"çĮ«":2991,"Ġincludes":2992,"åĽŃ":2993,"Ġdiagn":2994,"Ġgrowth":2995,"ä¸ĵä¸ļ":2996,"Ġdoes":2997,"12":2998,"ç»¿":2999,"Ġkeep":3000,"è¯¦ç»Ĩ":3001,"åĥı":3002,"åıĳçĶŁ":3003,"fact":3004,"åı¯ä»¥åľ¨":3005,"ç«Ļ":3006,"æĭī":3007,"æµİ":3008,"Ġchatbots":3009,"Ġbreak":3010,"è¡¡":3011,"çŁ³":3012,"æĮģç»Ń":3013,"life":3014,"Ġ10":3015,"æ´Ĺ":3016,"ĠAdditionally":3017,"å£«":3018,"ember":3019,"Ġgoals":3020,"å¾®":3021,"Ġview":3022,"Â·":3023,"ove":3024,"åŁºç¡":3025,"Ġoptimize":3026,"Ġtem":3027,"Ġdown":3028,"åŁºç¡Ģ":3029,"è¶ħ":3030,"ercis":3031,"Ġless":3032,"ees":3033,"æĿĥ":3034,"Ġkey":3035,"Ġworks":3036,"è®¨":3037,"åı¥åŃĲ":3038,"Ġrobot":3039,"uss":3040,"åħ¨çĲĥ":3041,"ç»ıæµİ":3042,"æīįèĥ½":3043,"egr":3044,"ä»ĸä»¬çļĦ":3045,"äºĶ":3046,"èµ·æĿ¥":3047,"çĵ":3048,"Ġfactors":3049,"Ġcultural":3050,"æľ¨":3051,"Ġworking":3052,"ä¼¼":3053,"èĲ½":3054,"éĢŁåº¦":3055,"ä½ı":3056,"Ġeffects":3057,"å©ļ":3058,"br":3059,"åİħ":3060,"rain":3061,"\")":3062,"åŃ¦çĶŁ":3063,"\",":3064,"Ġpar":3065,"atform":3066,"Ġensuring":3067,"çĶ±äºİ":3068,"Ġmuch":3069,"Ġwords":3070,"Ġmar":3071,"ç»ıéªĮ":3072,"ä¸ºäºĨ":3073,"åĲĪä½ľ":3074,"ven":3075,"Ġ/":3076,"Ġfinancial":3077,"work":3078,"ories":3079,"æ²»":3080,"Ġtechniques":3081,"æĭ¥æľī":3082,"rap":3083,"å°Ķ":3084,"Ġest":3085,"Ġavailable":3086,"Ġlit":3087,"æ¹":3088,"Ġefficient":3089,"els":3090,"over":3091,"Ġland":3092,"Ġarea":3093,"Ġintellig":3094,"Ġpref":3095,"ature":3096,"çŁ¥è¯Ĩ":3097,"æĵįä½ľ":3098,"å¾ħ":3099,"igate":3100,"çļĦæĶ":3101,"Ġmean":3102,"bo":3103,"Ġcontrol":3104,"éĩĩçĶ¨":3105,"ricult":3106,"Ġprogramm":3107,"Ġtowards":3108,"thing":3109,"ä¸įè¦ģ":3110,"Ġthough":3111,"å½©":3112,"Ġcertain":3113,"Ġwild":3114,"ä»Ĭ":3115,"Ġconservation":3116,"çŁ¥éģĵ":3117,"Ġreally":3118,"çļĦåľ°":3119,"io":3120,"é¥°":3121,"Ġful":3122,"çİ¯ä¿Ŀ":3123,"Ġexplore":3124,"çļĦæ¸":3125,"Ġdiverse":3126,"åĬłå¼º":3127,"çļ®":3128,"Ġemotions":3129,"Ġavoid":3130,"'ll":3131,"çļĦæī":3132,"åį¡":3133,"Ġplatform":3134,"ances":3135,"Ġsitu":3136,"ä»ĺ":3137,"ä½įç½®":3138,"oring":3139,"çĽĲ":3140,"ä¸ĩ":3141,"Ġdev":3142,"nov":3143,"ash":3144,"Ġtwo":3145,"å®ł":3146,"bon":3147,"èµ°":3148,"åĪĹè¡¨":3149,"Ġcy":3150,"èįĲ":3151,"ĠSome":3152,"Ġexplain":3153,"Ġaware":3154,"ç¤¾äº¤":3155,"day":3156,"åıĮ":3157,"æ²ŁéĢļ":3158,"æ°§":3159,"å¼Ģåıĳ":3160,"åħ¬åı¸çļĦ":3161,"Ġair":3162,"åĩ»":3163,"aring":3164,"éĥ½æĺ¯":3165,"Ġlevels":3166,"ods":3167,"Ġsteps":3168,"Ġcap":3169,"æ´ŀ":3170,"é©¬":3171,"Ġreturn":3172,"Ġmet":3173,"çĶŁæĢģ":3174,"ä¸°å¯Į":3175,"æŁĵ":3176,"æīĢä»¥":3177,"é¡»":3178,"Ġer":3179,"Ġfra":3180,"30":3181,"èĵ":3182,"âĢĶ":3183,"Ġå½ĵ":3184,"ah":3185,"ä¿ĥ":3186,"Ġlikely":3187,"ĠĠĠĠĠĠĠĠĠĠĠĠĠĠĠĠ":3188,"åĪĿ":3189,"Ġcreating":3190,"Ġfarm":3191,"Ġbal":3192,"Ġlives":3193,"å®ĥçļĦ":3194,"Ġability":3195,"ä¸ĬçļĦ":3196,"Ġsentence":3197,"åĤ¨":3198,"Ġrout":3199,"Ġprovides":3200,"Ġagain":3201,"å®łçī©":3202,"éĢĲ":3203,"Ġyears":3204,"èŀį":3205,"Ġphysical":3206,"Python":3207,"ĠEx":3208,"iting":3209,"è°ĥæķ´":3210,"ç½ĳç»ľ":3211,"æħ¢":3212,"ç©ºéĹ´":3213,"åĽ°":3214,"è±Ĩ":3215,"æĽ´å¤ļçļĦ":3216,"ĠAr":3217,"Ġmaintain":3218,"å®ŀéĻħ":3219,"Ġtravel":3220,"Ġsat":3221,"pro":3222,"çĶµåŃĲ":3223,"æ±½":3224,"ex":3225,"åģĩ":3226,"æĲŃ":3227,"éļıçĿĢ":3228,"è¿ĺæľī":3229,"ç¤¼":3230,"ale":3231,"Ġconsum":3232,"ĊĠ":3233,"ncy":3234,"Ġquestions":3235,"fort":3236,"making":3237,"Ġdesc":3238,"15":3239,"Ġinvolves":3240,"Ġstress":3241,"åŃĹç¬¦":3242,"here":3243,"Ġimpacts":3244,"Ġexercis":3245,"åĿļ":3246,"ledge":3247,"ç§ĳæĬĢ":3248,"oci":3249,"Ġeffectively":3250,"æ¶Īè´¹":3251,"Ġconclusion":3252,"éĺħ":3253,"Ġstre":3254,"issions":3255,"æ·»":3256,"It":3257,"éĿĻ":3258,"Ġvirtual":3259,"è¡£":3260,"Ġachieve":3261,"ource":3262,"è¿ŀ":3263,"acks":3264,"è¡¨æł¼":3265,"Ġimportance":3266,"èĩªæĪĳ":3267,"These":3268,"num":3269,"çļĦæł":3270,"Ġrelationships":3271,"Ġworkers":3272,"gical":3273,"orpor":3274,"erson":3275,"åĳ¢":3276,"nds":3277,"æİ¨èįĲ":3278,"ohn":3279,"å¿ħé¡»":3280,"å®¹æĺĵ":3281,"ĠGo":3282,"Ġtell":3283,"ĠRes":3284,"onom":3285,"Ġbec":3286,"æ³Ľ":3287,"pos":3288,"Ġmove":3289,"Ġstory":3290,"æŃ¢":3291,"Ġpriorit":3292,"Ġindustries":3293,"èľ":3294,"Ġpossible":3295,"ĠMan":3296,"Ġexpress":3297,"abilities":3298,"Ġintegr":3299,"ä»£è¡¨":3300,"Ġrespond":3301,"åĪĨéĴŁ":3302,"æľºä¼ļ":3303,"Ġthings":3304,"äº¤æµģ":3305,"Ġmeth":3306,"urther":3307,"Ġwide":3308,"èĳĹ":3309,"æĪĳçļĦ":3310,"ĸçķ¥":3311,"ides":3312,"ething":3313,"ĠWhile":3314,"pan":3315,"çŃĸçķ¥":3316,"Ġcent":3317,"Ġplease":3318,"ology":3319,"uracy":3320,"å¾ª":3321,"ward":3322,"nce":3323,"Ġthen":3324,"çªģ":3325,"å¥ĩ":3326,"Ġblo":3327,"ai":3328,"æŀĹ":3329,"ç®Ĺæ³ķ":3330,"ç»¼":3331,"Ġprint":3332,"aces":3333,"lu":3334,"ªæĸ½":3335,"pre":3336,"çļĦæĦı":3337,"Ġsol":3338,"Ġoverall":3339,"hold":3340,"Ġes":3341,"çļĦä¸Ģ":3342,"éģĩ":3343,"Ġpopul":3344,"å°ıè¯´":3345,"æ³¢":3346,"åįģ":3347,"ä¹Łåı¯ä»¥":3348,"é£Łåĵģ":3349,"Ġcontent":3350,"å°Ħ":3351,"Ġrequires":3352,"æ£ĢæŁ¥":3353,"ĊĠĠĠĠĠĠĠĠĠĠĠ":3354,"Ġgroups":3355,"Ġfair":3356,"Ġbl":3357,"å®ŀéªĮ":3358,"æĮīçħ§":3359,"osp":3360,"str":3361,"ä¸įèĥ½":3362,"Ġharm":3363,"Ġprodu":3364,"çļĦæĬĢ":3365,"çĩ":3366,"tle":3367,"Ġanimals":3368,"è§Ĵèī²":3369,"lev":3370,"æ¸Ĳ":3371,"å¤įæĿĤ":3372,"Ġdepend":3373,"æĮĳæĪĺ":3374,"åĮħåĲ«":3375,"Ġhelps":3376,"Ġopen":3377,"Ġnet":3378,"ĠĠĠĠĠ":3379,"Ġstrong":3380,"Ġjour":3381,"å¹¿æ³Ľ":3382,"æķ´ä¸ª":3383,"Ġelect":3384,"Ġresponse":3385,"åįķè¯į":3386,"æľĭ":3387,"Ġ<":3388,"åĮĸåŃ¦":3389,"éĴĪ":3390,"Ġquick":3391,"ually":3392,"Ġsomething":3393,"Ġtrack":3394,"åº¦åĴĮ":3395,"erences":3396,"æłĳ":3397,"Ġaccuracy":3398,"Ġexc":3399,"é£ŀ":3400,"Ġfield":3401,"å¯»æī¾":3402,"éħ¸":3403,"Ġhope":3404,"çĳ":3405,"Ġinnov":3406,"ç»ª":3407,"alk":3408,"Ġtypes":3409,"Ġdid":3410,"åĬª":3411,"Ġcall":3412,"è¯Ĺ":3413,"Ġearly":3414,"ĠOne":3415,"app":3416,"Ġcommon":3417,"æľĢç»Ī":3418,"Ġcheck":3419,"Ġsym":3420,"çĤĴ":3421,"æĬĢèĥ½":3422,"Ġenh":3423,"Ġagricult":3424,"Ġimm":3425,"ç»ĩ":3426,"æ»¡è¶³":3427,"Ġschool":3428,"bal":3429,"Ġfollowing":3430,"based":3431,"Ġwebs":3432,"Ġculture":3433,"ĠCom":3434,"way":3435,"ä¸Ģå®ļ":3436,"åķĨåĵģ":3437,"ude":3438,"çļĦåıĳå±ķ":3439,"çĶŁäº§":3440,"osystem":3441,"Ġplant":3442,"åı¶":3443,"åĲĥ":3444,"ä»ĸçļĦ":3445,"der":3446,"è¯¢":3447,"å®¶åħ·":3448,"Ġfree":3449,"ç§»":3450,"æİĮ":3451,"Ġbody":3452,"Ġpresent":3453,"Ġparticularly":3454,"Ġchildren":3455,"Ġstudent":3456,").":3457,"çī¹å¾ģ":3458,"èĶ":3459,"éĺħè¯»":3460,"æķĪçİĩ":3461,"Ġprogram":3462,"éħ±":3463,"åıĺå¾Ĺ":3464,"ix":3465,"Ġcome":3466,"çļĦæ²":3467,"ĠTe":3468,"ĠTo":3469,"åħ±åĲĮ":3470,"Ġemployees":3471,"è¯´æĺİ":3472,"Ġheart":3473,"Ġmot":3474,"æľĭåıĭ":3475,"eric":3476,"è¯ĳ":3477,"Ġcurrent":3478,"æĪĲæľ¬":3479,"Ġtoo":3480,"çİ©å®¶":3481,"åĪĽæĸ°":3482,"Ġecosystem":3483,"å¸¸è§ģ":3484,"ä¸ĢæŃ¥":3485,"Ġpres":3486,"Ġmulti":3487,"åĳĬè¯ī":3488,"ä¸¥":3489,"Ġmit":3490,"Ġaction":3491,"çĨŁ":3492,"Ġhabit":3493,"åı£æĦŁ":3494,"ç®±":3495,"Ġuses":3496,"å¢ŀå¼º":3497,"ç»Ļåĩº":3498,"Ġ9":3499,"Ġdep":3500,"Ġeconomic":3501,"æĢ§çļĦ":3502,"18":3503,"åĨ°":3504,"Ġhelped":3505,"åĲ¸å¼ķ":3506,"çİĭ":3507,"Ġdiagnos":3508,"åł":3509,"èģĶç³»":3510,"ç¾¤":3511,"ç»ĥä¹ł":3512,"æĪĲéķ¿":3513,"Ġpoint":3514,"å®ļæľŁ":3515,"åĳ¼":3516,"èį¯":3517,"æĿ¯":3518,"æ¤Ĵ":3519,"æķĪæŀľ":3520,"Ġspecial":3521,"æ··":3522,"åĩłä¸ª":3523,"ause":3524,"éĨ":3525,"æ¯ĶèµĽ":3526,"è·Ŀ":3527,"What":3528,"Ġtimes":3529,"icles":3530,"Ġ*":3531,"ç´§":3532,"å¦Ĥæŀľä½ł":3533,"çĭ¬çī¹":3534,"çģµ":3535,"ç¨İ":3536,"Ġcarbon":3537,"Ġbias":3538,"åĬ©äºİ":3539,"Ġconst":3540,"èĩªçĶ±":3541,"æĿ¥è¯´":3542,"å°±æĺ¯":3543,"åį°":3544,"Ġmeet":3545,"è§ĦåĪĴ":3546,"çļĦç¾":3547,"èĲ¥åħ»":3548,"ators":3549,"ç¨³å®ļ":3550,"ode":3551,"çħ®":3552,"Ġassoci":3553,"å¿Ĺ":3554,"è¡ĮæĺŁ":3555,"æĿİ":3556,"Ġreview":3557,"åĩĢ":3558,"ĠRo":3559,"Ġknowledge":3560,"ä»¥ä¾¿":3561,"æµĭè¯ķ":3562,"åĲĪéĢĤ":3563,"sc":3564,"å½¢å¼ı":3565,"Ġfriends":3566,"Ġnature":3567,"Ġcritical":3568,"æ´ĭ":3569,"Ġafter":3570,"erve":3571,"Ġrece":3572,"çļĦæŃ":3573,"æ±½è½¦":3574,"çķĮ":3575,"Ġloss":3576,"Ġapplications":3577,"å¤ļç§į":3578,"éĶħ":3579,"ä¸²":3580,"Ġinsp":3581,"---":3582,"ĠSh":3583,"Ġvol":3584,"lut":3585,"oks":3586,"sequ":3587,"Ġbir":3588,"åĲĪçĲĨ":3589,"Ġnecess":3590,"æĪĳæĥ³":3591,"çŃīæĸ¹éĿ¢":3592,"é¼ĵ":3593,"Ġsoft":3594,"Ġlive":3595,"å°ıæĺİ":3596,"ĠInd":3597,"Ġbring":3598,"æĺ¯æĮĩ":3599,"Ġsoil":3600,"ilar":3601,"ä¸ľ":3602,"æĿ¡ä»¶":3603,"Ġtri":3604,"äº®":3605,"Ġmom":3606,"æı¡":3607,"ä¼°":3608,"ŀäºī":3609,"çĽĳ":3610,"èĤ¤":3611,"è´¢åĬ¡":3612,"æ·»åĬł":3613,"é¥®é£Ł":3614,"Ġallowing":3615,"åºķ":3616,"Ġright":3617,"Ġexpert":3618,"Ġsupp":3619,"Ġinit":3620,"çļĦæµ":3621,"arget":3622,"Ġexpect":3623,"Ġ19":3624,"Ġmeasures":3625,"olutions":3626,"just":3627,"arc":3628,"å°ļ":3629,"Ġpractice":3630,"æľīåĬ©äºİ":3631,"å¤§éĩı":3632,"',":3633,"iment":3634,"Ġcontinue":3635,"Ġdiscuss":3636,"100":3637,"éļľ":3638,"çļĦæĦŁ":3639,"Ġreflect":3640,"itation":3641,"åį«":3642,"äºĨä¸Ģ":3643,"ney":3644,"ĠLe":3645,"ised":3646,"è¶ĭ":3647,"äºĨä¸Ģä¸ª":3648,"Ġincreasing":3649,"çļĦæĮ":3650,"Ġstru":3651,"æĢ»ç»ĵ":3652,"ely":3653,"å®ĩ":3654,"Ġauthor":3655,"è¡¨éĿ¢":3656,"Ġx":3657,"æķħäºĭ":3658,"emic":3659,"Ġrepresent":3660,"ger":3661,"Ġincreased":3662,"ones":3663,"ains":3664,"Ġtrained":3665,"Ġfish":3666,"Ġstate":3667,"åĨ·":3668,"çĶŁéķ¿":3669,"Ġrenew":3670,"ording":3671,"åĮĹ":3672,"æİªæĸ½":3673,"å¹³è¡¡":3674,"Ġsuccessful":3675,"ä¸ĭéĿ¢":3676,"Ġactivity":3677,"èĮ¶":3678,"éĢĤåºĶ":3679,"èĦĳ":3680,"æİ¢ç´¢":3681,"ffic":3682,"ç»ĦæĪĲ":3683,"atives":3684,"äºļ":3685,"Ġscen":3686,"æ²Ļ":3687,"gress":3688,"ä½¿å¾Ĺ":3689,"æī¿":3690,"Ġdiscrim":3691,"Ġassistants":3692,"Ġexist":3693,"çķĻ":3694,"Ġspace":3695,"æľĢè¿ĳ":3696,"Ġideas":3697,"éĩĩåıĸ":3698,"light":3699,"æ³¨éĩį":3700,"çļĦæĹ¶éĹ´":3701,"è¿İ":3702,"Ġcomb":3703,"éĢĤå½ĵ":3704,"Ġyourself":3705,"rite":3706,"ason":3707,"åĮĢ":3708,"åı¯ä»¥ä½¿çĶ¨":3709,"åħħæ»¡":3710,"Ġvalues":3711,"æ½":3712,"Ġbiases":3713,"ä¿ĥè¿Ľ":3714,"åľºæĻ¯":3715,"ross":3716,"åį³åı¯":3717,"Ġcru":3718,"Ġnumber":3719,"Ġtype":3720,"rast":3721,"åĩĨç¡®":3722,"This":3723,"Ġpast":3724,"çģ¯":3725,"å®ļä¹ī":3726,"Ġsolutions":3727,"Ġter":3728,"ä¿Ŀè¯ģ":3729,"èĶ¬":3730,"å¹¸":3731,"åī§":3732,"åħ´è¶£":3733,"åª":3734,"ention":3735,"avor":3736,"Ġscient":3737,"åĬªåĬĽ":3738,"Ġproviders":3739,"Ġpolicies":3740,"alu":3741,"ĠIm":3742,"Ġallows":3743,"Ġintelligence":3744,"çļĦæĸ¹æ³ķ":3745,"è¿Ļæĺ¯":3746,"Ġ`":3747,"Ġemissions":3748,"Ġå°Ĩ":3749,"Ġmeaning":3750,"Ġstyle":3751,"åİŁåĽł":3752,"Ġstrugg":3753,"çļĦç¾İ":3754,"iful":3755,"dition":3756,"éĥ½æľī":3757,"ç©ºæ°Ķ":3758,"å®ĥä»¬çļĦ":3759,"ä¼ĺåĮĸ":3760,"Ġinflu":3761,"åŁºäºİ":3762,"Ġdetails":3763,"Ġtransparency":3764,"Ġmess":3765,"ĠCl":3766,"Ġgame":3767,"pri":3768,"è¶ĭåĬ¿":3769,"å½Ĵ":3770,"ç¿»è¯ĳ":3771,"æķ£":3772,"By":3773,"éŃ":3774,"ĠAmeric":3775,"Ġproduction":3776,"Ġincorpor":3777,"æĻļ":3778,"Ġinvolve":3779,"Ġhot":3780,"æĻ®":3781,"by":3782,"Ġflow":3783,"Ġemerg":3784,"åº§":3785,"Ġidea":3786,"åİĭåĬĽ":3787,"éĿĴ":3788,"oms":3789,"èģĮä¸ļ":3790,"Ġreport":3791,"Ġpap":3792,"Ġtherap":3793,"Ġsal":3794,"åıĤä¸İ":3795,"æĸĩåŃ¦":3796,"æĲŃéħį":3797,"oot":3798,"),":3799,"Ġcr":3800,"Ġprocesses":3801,"gin":3802,"å¹³åı°":3803,"å¯Ł":3804,"Ġpromoting":3805,"æļĸ":3806,"akehold":3807,"ç»§":3808,"iver":3809,"æ¦Ĥ":3810,"Ġmodels":3811,"Ġdra":3812,"èĸ":3813,"Ġgroup":3814,"è¶³å¤Ł":3815,"Ġgreen":3816,"Ġhealthy":3817,"Ġcomfort":3818,"Ġadditional":3819,"ä¸Ģæ¬¡":3820,"é¤Ĳåİħ":3821,"Ġmaterials":3822,"Ġmanage":3823,"çļĦæ¯":3824,"ä¼¤":3825,"åıĬæĹ¶":3826,"Ġglo":3827,"Ġstat":3828,"å¿«éĢŁ":3829,"Ġmonitoring":3830,"aily":3831,"rand":3832,"oice":3833,"resh":3834,"ç»Ħç»ĩ":3835,"Ġunder":3836,"Ġnecessary":3837,"Ġhelpful":3838,"ĠCol":3839,"é»ĳæ´ŀ":3840,"åģļåĩº":3841,"Ġcourse":3842,"Ġmat":3843,"Ġleg":3844,"Ġface":3845,"ä»¤":3846,"èī¯å¥½çļĦ":3847,"ock":3848,"åĮ»çĸĹ":3849,"çĽĸ":3850,"idence":3851,"Ġassociated":3852,"Ġprogress":3853,"åľĨ":3854,"Ġeveryone":3855,"ç¼ĵ":3856,"ĠEng":3857,"word":3858,"èĵĿ":3859,"å¤©æ°Ķ":3860,"Ġactions":3861,"ems":3862,"ĠPl":3863,"å®Ļ":3864,"ush":3865,"é¡¾":3866,"Ġcosts":3867,"ator":3868,"ç©¿":3869,"Ġamounts":3870,"èĶ¬èıľ":3871,"..":3872,"Ġmanner":3873,"Ġconsequ":3874,"æ°ĶåĢĻ":3875,"Ġinsights":3876,"being":3877,"atory":3878,"ener":3879,"lex":3880,"Ġmeans":3881,"Ġcollaboration":3882,"Ġperspect":3883,"orm":3884,"priate":3885,"å°Ĭéĩį":3886,"Ġtarget":3887,"è®°å½ķ":3888,"åĢĴ":3889,"Ġrenewable":3890,"æĦ¿":3891,"èĥ½æºĲ":3892,"Ġinput":3893,"å®ĩå®Ļ":3894,"ape":3895,"Ġadjust":3896,"eries":3897,"Ġdire":3898,"ä¾Ŀ":3899,"ustr":3900,"fect":3901,"Ġbeautiful":3902,"Ġdue":3903,"reci":3904,"çĮ®":3905,"èĥĮæĻ¯":3906,"èĤ¡":3907,"Ġdam":3908,"ik":3909,"Ġadvanced":3910,"çĽ¸å¯¹":3911,"åĲįç§°":3912,"Ġshort":3913,"Ġobject":3914,"è¿ĻéĩĮ":3915,"éĢłæĪĲ":3916,"èĲ¥éĶĢ":3917,"çļĦæĥħæĦŁ":3918,"ç¥¨":3919,"Ġcountries":3920,"ining":3921,"istic":3922,"Ġplans":3923,"è´£ä»»":3924,"Ġstakehold":3925,"the":3926,"Ġassess":3927,"æĢĿèĢĥ":3928,"ech":3929,"æĪĲåĳĺ":3930,"21":3931,"Ġdaily":3932,"Ġcomput":3933,"çļĦæĥħåĨµ":3934,"æıĲåĩº":3935,"ĠâĢľ":3936,"åªĴ":3937,"ä¸Ńå¿ĥ":3938,"ished":3939,"ĠSe":3940,"onomous":3941,"ern":3942,"ç»´æĬ¤":3943,"ames":3944,"Ġprioritize":3945,"çº¸":3946,"èĤ¥":3947,"Ġtemper":3948,"æ¸ħæ´ģ":3949,"use":3950,"æ±¡":3951,"Ġminim":3952,"æĺ¯åľ¨":3953,"å¤§å°ı":3954,"åĵªäºĽ":3955,"Ġappreci":3956,"reng":3957,"Ġregulations":3958,"ĠZ":3959,"éĶĻè¯¯":3960,"rans":3961,"èĢĮä¸Ķ":3962,"èĪ¬":3963,"èĳ±":3964,"èĨ":3965,"æ°´å¹³":3966,"è´Ńçī©":3967,"åŃĹç¬¦ä¸²":3968,"å¯¹æĸ¹":3969,"Ġhim":3970,"Ġconsequences":3971,"å·´":3972,"é¼ĵåĬ±":3973,"Ġfil":3974,"äººåĳĺ":3975,"è·Ŀç¦»":3976,"ĠWhen":3977,"çļĦæ°´":3978,"çī©çĲĨ":3979,"åĲĮæĹ¶ä¹Ł":3980,"åľ¨è¿Ļä¸ª":3981,"åħ¶æ¬¡":3982,",\"":3983,"æ¶²":3984,"çĶ·":3985,"ival":3986,"åı¯ä»¥è®©":3987,"æĥ¯":3988,"Ġadvance":3989,"Ġveh":3990,"å¦ĤæŀľæĤ¨":3991,"Ġestab":3992,"ript":3993,"ç«¯":3994,"ä¸įä¼ļ":3995,"Ġtransparent":3996,"æķ°éĩı":3997,"çĽĺ":3998,"Ġspeak":3999,"Ġpark":4000,"Ġstakeholders":4001,"éº":4002,"Ġevent":4003,"çļĦæķ°æį®":4004,"èĩªåĬ¨":4005,"ç»ĨèĬĤ":4006,"è¯Ħä¼°":4007,"æ¶¦":4008,"Ġpreferences":4009,"Ġveget":4010,"æįŁ":4011,"equ":4012,"Ġgl":4013,"Ġpain":4014,"ogra":4015,"Ġtraffic":4016,"Ġoce":4017,"ä¹ĺ":4018,"ext":4019,"âĢĿï¼Į":4020,"Ġanother":4021,"å¤ļå°ĳ":4022,"Ġagainst":4023,"ç»ıåİĨ":4024,"è®¡ç®Ĺæľº":4025,"èĢĲ":4026,"è½¯ä»¶":4027,"ĠPre":4028,"Ġplants":4029,"çĽ¸äºĴ":4030,"é¢ĳ":4031,"\\_":4032,"Ġsame":4033,"rug":4034,"Ġvalu":4035,"Ġocc":4036,"çļĦç¤":4037,"Ġsustainability":4038,"ĠShe":4039,"de":4040,"ote":4041,"Ġdig":4042,"NA":4043,"Ġcrucial":4044,"æī§":4045,"å±Ģ":4046,"æĭŁ":4047,"æĭĮ":4048,"Ġnon":4049,"Ġengaging":4050,"Ġintern":4051,"LP":4052,"æ¸©åº¦":4053,"æł¸":4054,"æĬ¥åĳĬ":4055,"æĿ¥è¶Ĭ":4056,"hood":4057,"ä¸īä¸ª":4058,"å¦Ĥä¸ĭ":4059,"çī©ä½ĵ":4060,"force":4061,"Ġneeded":4062,"Ġimages":4063,"Ġbuilding":4064,"icious":4065,"ĠæĪĳ":4066,"è¶ĬæĿ¥è¶Ĭ":4067,"æĶ¾åħ¥":4068,"go":4069,"éĻįä½İ":4070,"å½ĵåľ°":4071,"æ¶Īè´¹èĢħ":4072,"ç£":4073,"iversity":4074,"é¢Ħç®Ĺ":4075,"icle":4076,"æ··åĲĪ":4077,"Ġparticip":4078,"Ġdishes":4079,"Ġthroughout":4080,"Ġwithin":4081,"åı³":4082,"é«ĺçļĦ":4083,"Ġphot":4084,"Ġtrust":4085,"æĦıè¯Ĩ":4086,"ä»¥ç¡®ä¿Ŀ":4087,"çĬ¶æĢģ":4088,"Ġautomation":4089,"11":4090,"Ġpost":4091,"æīĭæľº":4092,"works":4093,"éĢı":4094,"åºĵ":4095,"Ġwind":4096,"Ġ==":4097,"Ġprocessing":4098,"èĮĥåĽ´":4099,"æĦıä¹ī":4100,"è¿½æ±Ĥ":4101,"Ã©":4102,"å¾Ħ":4103,"éĿł":4104,"ä¸ĸ":4105,"èĻ½":4106,"ç«ŀäºī":4107,"Ġappropriate":4108,"æĽ´å¥½çļĦ":4109,"Ġcharacter":4110,"cl":4111,"ç§ĺ":4112,"itude":4113,"Ġteac":4114,"leep":4115,"ĠDevelop":4116,"ince":4117,"å·¦":4118,"ground":4119,"è¡Įä¸ļ":4120,"éĴĪå¯¹":4121,"å¿ħè¦ģ":4122,"Ġdeterm":4123,"----------------":4124,"Ġstreng":4125,"do":4126,"Ġchallenging":4127,"ork":4128,"Ġanx":4129,"èī²çļĦ":4130,"Ġhard":4131,"æĺİç¡®":4132,"åĪĨäº«":4133,"æĶ¹åıĺ":4134,"ä½³":4135,"åıªæľī":4136,"å±ķç¤º":4137,"Ġcamp":4138,"çº³":4139,"aj":4140,"etic":4141,"ument":4142,"ä½łåı¯ä»¥":4143,"Ġpollut":4144,"Ġhig":4145,"pping":4146,"ead":4147,"çĦ¶èĢĮ":4148,"ç¬¬äºĮ":4149,"é¸Ł":4150,"çī©åĵģ":4151,"ä¸¾":4152,"Ġencourage":4153,"pecial":4154,"Ġacross":4155,"elves":4156,"äºĭä»¶":4157,"cle":4158,"æ©":4159,"åªĴä½ĵ":4160,"ners":4161,"Ġcal":4162,"èĻ½çĦ¶":4163,"åĽº":4164,"ä¹łæĥ¯":4165,"Ġsafe":4166,"èĥ½éĩı":4167,"istics":4168,"ä¹ĭåīį":4169,"Ġissue":4170,"å¤ļä¸ª":4171,"åĨ³çŃĸ":4172,"è¾¾åĪ°":4173,"æĹ©":4174,"ä¸įåı¯":4175,"ä¸ĢçĽ´":4176,"å·¨":4177,"æĦŁè°¢":4178,"ĠNew":4179,"ä¸Ģæ®µ":4180,"Ġmachines":4181,"å°Ĩåħ¶":4182,"ç»§ç»Ń":4183,"Ġword":4184,"çī¹åĪ«":4185,"Ġagriculture":4186,"æĢİ":4187,"éĢĲæ¸Ĳ":4188,"éĵ¾":4189,"è¯¾":4190,"Ġkind":4191,"å¢Ļ":4192,"è°¢è°¢":4193,"Ġalgorithm":4194,"è£ħé¥°":4195,"Ġalong":4196,"Ġeasy":4197,"äºĳ":4198,"è§£åĨ³æĸ¹æ¡Ī":4199,"Ġawareness":4200,"'ve":4201,"æĸ¹åĲĳ":4202,"Ġnever":4203,"Ġquickly":4204,"Ġrespect":4205,"çļĦæĻ":4206,"Ġamong":4207,"Ġaccountability":4208,"Ġlaw":4209,"ening":4210,"Ġdefin":4211,"Ġsurround":4212,"éĵģ":4213,"Ġpowerful":4214,"An":4215,"Ġcause":4216,"æ¥":4217,"æİĮæı¡":4218,"è¿ĺæĺ¯":4219,"Ġcreative":4220,"è¡Ģ":4221,"Ġlocated":4222,"unning":4223,"åľ°åĮº":4224,"éĿ¢ç§¯":4225,"éĽ¨":4226,"Ġnear":4227,"Ġiniti":4228,"ression":4229,"ä¸ĭæĿ¥":4230,"25":4231,"é©¶":4232,"¾çĹħ":4233,"ables":4234,"æľīè¶£":4235,"å¾ªçİ¯":4236,"çŃĶæ¡Ī":4237,"çł´":4238,"ication":4239,"éĻ¢":4240,"æ²»çĸĹ":4241,"Ġaddition":4242,"äºĭæĥħ":4243,"Ġbecause":4244,"åıĪ":4245,"èĤĮ":4246,"çºª":4247,"side":4248,"æĭħ":4249,"æ¹¿":4250,"åįĬ":4251,"é¡º":4252,"ĠAnd":4253,"Ġrestaurant":4254,"Ġvide":4255,"Ġproblem":4256,"azing":4257,"Ġmembers":4258,"Ġnut":4259,"Ġcou":4260,"æµª":4261,"Ġè¿Ļ":4262,"Ġhelping":4263,"ĠIs":4264,"æıĲåįĩ":4265,"ĠĠĠĠĠĠ":4266,"Ġsho":4267,"Ġrelev":4268,"Ġarg":4269,"Ġbalance":4270,"illed":4271,"æĺ¯ä»Ģä¹Ī":4272,"åĬĽéĩı":4273,"ired":4274,"å¤ľ":4275,"åı¯æĮģç»Ń":4276,"Ġperfect":4277,"**":4278,"ification":4279,"æ¶ī":4280,"Ġwildlife":4281,"ane":4282,"Ġrelated":4283,"å®¤åĨħ":4284,"åºľ":4285,"äº«åıĹ":4286,"ours":4287,"è·ĳ":4288,"åķĨä¸ļ":4289,"aching":4290,"Ġsun":4291,"Ġrecognition":4292,"elt":4293,"Ġorder":4294,"å¹³åĿĩ":4295,"ging":4296,"ä¸´":4297,"çĤ¼":4298,"Ġgoing":4299,"åĳ¼åĲ¸":4300,"Ġsoftware":4301,"Ġremot":4302,"èĳĹåĲį":4303,"å¹¸ç¦ı":4304,"Ġenhance":4305,"èĻļ":4306,"Ġnow":4307,"Ġthreat":4308,"Ġdest":4309,"åĿĩåĮĢ":4310,"Ġacad":4311,"åºĶå¯¹":4312,"çľĭåĪ°":4313,"cast":4314,"è¾Ĩ":4315,"ificial":4316,"Ġvery":4317,"ook":4318,"åĮºåŁŁ":4319,"¹ģ":4320,"æĪ¿éĹ´":4321,"æıĲä¾ĽäºĨ":4322,"Ġmotiv":4323,"Ġaccessible":4324,"åĨ³å®ļ":4325,"Ġhy":4326,"å®Ī":4327,"Ġflo":4328,"ug":4329,"Ġinformed":4330,"åĵģè´¨":4331,"çļĦçŁ":4332,"aves":4333,"arr":4334,"ĠWith":4335,"let":4336,"è§ĤçĤ¹":4337,"enge":4338,"è¡ĮåĬ¨":4339,"friend":4340,"ç³ķ":4341,"Ġfurther":4342,"ĠEns":4343,"ç§ģ":4344,"Ġado":4345,"Ġclean":4346,"çĽ¸åºĶ":4347,"Ġfre":4348,"pecially":4349,"èĹ":4350,"Ġcapt":4351,"çļĦçľ":4352,"Ġsomeone":4353,"Ġcell":4354,"æĶ¾åľ¨":4355,"æ¬¢è¿İ":4356,"ĠâĢ":4357,"Ġdevices":4358,"çļĦæĸ¹å¼ı":4359,"Ġjobs":4360,"augh":4361,"not":4362,"æľīäºĽ":4363,"åħ¬åħ±":4364,"gest":4365,"çļĦçĶŁæ´»":4366,"çľ¼":4367,"çļĦä¿¡æģ¯":4368,"ĠCons":4369,"æİĴåºı":4370,"Ġbenefit":4371,"rect":4372,"å¤ı":4373,"unte":4374,"ç¬¦åĲĪ":4375,"ä¸Ģä½į":4376,"åĨħéĥ¨":4377,"Ġlooking":4378,"ding":4379,"æĬĺ":4380,"è¾ĳ":4381,"è¿Ļä¸ªéĹ®é¢ĺ":4382,"Ġespecially":4383,"çľł":4384,"âĢĿãĢĤ":4385,"å¥ı":4386,"ray":4387,"è¿ĺåı¯ä»¥":4388,"åĪĽä½ľ":4389,"coming":4390,"Ġmultiple":4391,"éļĲ":4392,"æ³¡":4393,"æłĩåĩĨ":4394,"Ġmil":4395,"éľĢè¦ģæ³¨æĦı":4396,"Ġanxiety":4397,"æĶ¹è¿Ľ":4398,"å±ĭ":4399,"æ±¡æŁĵ":4400,"ç¼ĸç¨ĭ":4401,"è´¹çĶ¨":4402,"Ġevalu":4403,"imately":4404,"Ġliter":4405,"ograph":4406,"Ġsearch":4407,"16":4408,"enced":4409,"Ġmethods":4410,"çĥĪ":4411,"æ¨¡å¼ı":4412,"çĬ¶åĨµ":4413,"æĶ¹åĸĦ":4414,"å¤ļæł·":4415,"cer":4416,"å¥ĸ":4417,"Ġsatis":4418,"Ġwebsite":4419,"åĬŀ":4420,"åģ¥èº«":4421,"Ġglobal":4422,"Ġask":4423,"Ġplatforms":4424,"Ġdiseases":4425,"çİ°è±¡":4426,"tics":4427,"æ±ģ":4428,"åĪ¤æĸŃ":4429,"Ġconvers":4430,"Ġrelationship":4431,"è®¾ç½®":4432,"æ³ķå¾ĭ":4433,"Ġmindful":4434,"é¢Ħæµĭ":4435,"overy":4436,"åģľ":4437,"çĶµè§Ĩ":4438,"è§ĦåĪĻ":4439,"aken":4440,"Ġimplementing":4441,"ising":4442,"åıĤåĬł":4443,"æĥħç»ª":4444,"Ġprovided":4445,"æ·±åħ¥":4446,"Ġprogrammed":4447,"Ġrelevant":4448,"çļĦçĥ":4449,"çĸ¾çĹħ":4450,"åĮ»çĶŁ":4451,"åĪĽå»º":4452,"Ġgenerate":4453,"æĶ¶åħ¥":4454,"ä¼ĳ":4455,"izes":4456,"Ġtransform":4457,"éģµ":4458,"astic":4459,"åĳĪ":4460,"æ¯ıä¸ªäºº":4461,"è¿Ķ":4462,"iet":4463,"Ġvoice":4464,"éĢĶ":4465,"æĶ¾æĿ¾":4466,"åį´":4467,"èĥľ":4468,"Ġstructure":4469,"æĹ¶å°ļ":4470,"ĠQ":4471,"Ġelse":4472,"duc":4473,"Ġemp":4474,"èģļ":4475,"è´§":4476,"aches":4477,"ç§Ģ":4478,"anks":4479,"Ġnight":4480,"Ġprofessionals":4481,"Ġbas":4482,"è´µ":4483,"ec":4484,"Ġdiversity":4485,"ites":4486,"dr":4487,"åĽ°éļ¾":4488,"ĥåľ":4489,"åŀĥåľ":4490,"åŀĥåľ¾":4491,"Ġdrug":4492,"ç¢³":4493,"Ġname":4494,"åĮĸçļĦ":4495,"aid":4496,"æľĢå¤§":4497,"æĳĦ":4498,"ç®ĢåįķçļĦ":4499,"Ġwarm":4500,"Ġdone":4501,"Ġfunction":4502,"asc":4503,"å¼ºè°ĥ":4504,"Ġdemand":4505,"Ġvisual":4506,"Ġupd":4507,"æŃ£åľ¨":4508,"Ġsimilar":4509,"éĢĴ":4510,"æ¯Ľ":4511,"éĶ»":4512,"ently":4513,"Ġvaluable":4514,"Ġdisaster":4515,"ä¸ĢèĪ¬":4516,"æ´²":4517,"ĠReg":4518,"Ġdiscrimination":4519,"åĨĻä¸Ģç¯ĩ":4520,"Ġgovernment":4521,"Ġå¥½çļĦ":4522,"500":4523,"lying":4524,"Ġprev":4525,"Ġprepare":4526,"Ġproblems":4527,"è·³":4528,"Ġprom":4529,"åĨ²":4530,"å®īè£ħ":4531,"éĶ»çĤ¼":4532,"æµĵ":4533,"è¹":4534,"åºĶçĶ¨ç¨ĭåºı":4535,"ng":4536,"Ġcompet":4537,"åĪĨåĪ«":4538,"ological":4539,"å®¡":4540,"Ġtransl":4541,"Ġdirect":4542,"åīĤ":4543,"Ġsuggestions":4544,"Ġpaper":4545,"Ġrecognize":4546,"ton":4547,"Ġmitigate":4548,"è®¨è®º":4549,"äºĴåĬ¨":4550,"ĠEar":4551,"Ġamazing":4552,"cre":4553,"é¦Ī":4554,"Ġinvolved":4555,"face":4556,"æľīåħ³":4557,"))":4558,"Ġexce":4559,"Ġproductivity":4560,"èŃ":4561,"é¦Ĩ":4562,"Ġsounds":4563,"Ġidentifying":4564,"],":4565,"é¾Ļ":4566,"Ġfit":4567,"Ġcontribute":4568,"ths":4569,"friendly":4570,"ele":4571,"ified":4572,"iveness":4573,"itely":4574,"ĠX":4575,"Ġled":4576,"åĿı":4577,"Ġhistor":4578,"Ġdat":4579,"Ġjourney":4580,"Ġ}":4581,"Ġselect":4582,"æ¼«":4583,"Ġconduct":4584,"è¿Ľä¸ĢæŃ¥":4585,"ç»ĻæĪĳ":4586,"Ġlif":4587,"è£ħä¿®":4588,"ä¸ºä»Ģä¹Ī":4589,"äº¬":4590,"Ġnav":4591,"Ġwhole":4592,"ç¹ģ":4593,"åĨľ":4594,"æĶ»":4595,"Ġbreat":4596,"Ġmiss":4597,"é¾Ħ":4598,"tt":4599,"sw":4600,"Ġbar":4601,"è¯·éĹ®":4602,"èģĶç½ĳ":4603,"Ġattract":4604,"æĤ¨åı¯ä»¥":4605,"One":4606,"åħħåĪĨ":4607,"ring":4608,"Ġå½ĵçĦ¶":4609,"ream":4610,"Ġevol":4611,"Ġsn":4612,"ĠEm":4613,"mosp":4614,"Ġchoose":4615,"view":4616,"Ġarr":4617,"Ġsleep":4618,"ended":4619,"æŀ¶":4620,"Ġvehicles":4621,"Ġfresh":4622,"Ġorganization":4623,"è¿Ļæ®µ":4624,"æ±¤":4625,"ĠInt":4626,"Ġcontext":4627,"åı¦å¤ĸ":4628,"Ġocean":4629,"æĦŁåıĹ":4630,"Ġpollution":4631,"urb":4632,"æī§è¡Į":4633,"ersonal":4634,"ĠHealth":4635,"ä¼ĺçĤ¹":4636,"Ġattention":4637,"æľīçĿĢ":4638,"é£ŁæĿĲ":4639,"Ġerr":4640,"çļĦæĿ¥":4641,"çļĦçĪ":4642,"èŃ¦":4643,"è·Ł":4644,"æĹħè¡Į":4645,"èĴľ":4646,"çļĦæĢĿ":4647,"Ġchatbot":4648,"çļĦéľĢæ±Ĥ":4649,"çķ¥":4650,"Ġfeeling":4651,"Ġimplemented":4652,"ç¤¾åĮº":4653,"çļĦå»ºè®®":4654,"æĲħ":4655,"éĹ»":4656,"åıįé¦Ī":4657,"çĽ´æİ¥":4658,"æĺ¥":4659,"itable":4660,"æĪĳä¼ļ":4661,"åį±":4662,"èī¯å¥½":4663,"Ġliving":4664,"åıĺéĩı":4665,"ĠBut":4666,"Ġcomplete":4667,"Ġtrends":4668,"Ġmakes":4669,"ä»Ĭå¤©":4670,"Ġdistribut":4671,"Ġcommit":4672,"Ġatmosp":4673,"ä¼´":4674,"Ġsensors":4675,"Ġsw":4676,"æĹłè®º":4677,"omen":4678,"æĶ¿åºľ":4679,"Ġchallenge":4680,"Ġturn":4681,"çĲĨè®º":4682,"par":4683,"Ġwrite":4684,"ç»ıåħ¸":4685,"emember":4686,"é¥Ń":4687,"æĸ¹ä¾¿":4688,"Ġcu":4689,"Ġvalue":4690,"Ġfund":4691,"pose":4692,"è°ĥæŁ¥":4693,"çĿ¡":4694,"Ġcommunicate":4695,"Ġdisease":4696,"Ġresearc":4697,"Ġlack":4698,"arning":4699,"ĠPark":4700,"çĦ¦":4701,"é«ĺåº¦":4702,"Ġrather":4703,"å®£":4704,"çĪ¶":4705,"éĺ¶":4706,"è®¢":4707,"çĥ§":4708,"Ġhigher":4709,"Ġsummary":4710,"ĠAut":4711,"çļĦæ³":4712,"Ġele":4713,"isms":4714,"Ġreli":4715,"ä¹Łä¼ļ":4716,"fra":4717,"åĳĬè¯īæĪĳ":4718,"æĬ½":4719,"Ġsituations":4720,"Ġmarine":4721,"æĥ³è¦ģ":4722,"inci":4723,"inal":4724,"Ġgain":4725,"Ġdifference":4726,"æľºåĻ¨äºº":4727,"æµģç¨ĭ":4728,"ĠChat":4729,"ç½ĳç«Ļ":4730,"æľ«":4731,"Ġcolor":4732,"Ġaspect":4733,"ç½Ĺ":4734,"ĠEduc":4735,"Ġdeploy":4736,"Ġbeauty":4737,"æĤ£":4738,"ruction":4739,"itut":4740,"æĿŁ":4741,"è®©æĪĳä»¬":4742,"éķ¿åº¦":4743,"ules":4744,"æ¶īåıĬ":4745,"Ġdigital":4746,"Ġexisting":4747,"ĠOr":4748,"\\_\\_":4749,"Ġbackground":4750,"çĹĩ":4751,"æ¯ıå¤©":4752,"python":4753,"Ġfarmers":4754,"Ġcontinu":4755,"\":":4756,"Ġgiven":4757,"å°ıæĹ¶":4758,"Ġmoment":4759,"200":4760,"John":4761,"éĿ¢å¯¹":4762,"Ġintro":4763,"Ġtherapy":4764,"è¿ĶåĽŀ":4765,"å¹¶åľ¨":4766,"Ġz":4767,"Ġafford":4768,"ä¸Ŀ":4769,"å®½":4770,"ĠÃ":4771,"ĠNational":4772,"èĥ¡":4773,"Ġexercise":4774,"æĲħæĭĮ":4775,"æĶ¯ä»ĺ":4776,"éĺ³åħī":4777,"è¯ļ":4778,"Ġsect":4779,"ĠSu":4780,"å¢ŀéķ¿":4781,"ç¾İä¸½":4782,"Ġwa":4783,"ä»¥ä¸ĭæĺ¯ä¸ĢäºĽ":4784,"èĽĭç³ķ":4785,"Ġill":4786,"æ¸ħæĻ":4787,"etry":4788,"æ¢¦":4789,"ç¾İåĽ½":4790,"ä»į":4791,"oney":4792,"Ġecosystems":4793,"æĮĩå¯¼":4794,"def":4795,"99":4796,"æŁĶ":4797,"pped":4798,"Ġlimit":4799,"çİī":4800,"Ġacademic":4801,"Ġrestaurants":4802,"Ġhead":4803,"ä¿¡ä»»":4804,"asters":4805,"å²ģ":4806,"akers":4807,"14":4808,"As":4809,"æł¡":4810,"é«ĺæķĪ":4811,"phas":4812,"yn":4813,"ç¨ĭåº¦":4814,"è¾£":4815,"ä¸ĬéĿ¢":4816,"å®¶å±ħ":4817,"term":4818,"ç¾İé£Ł":4819,"Ġovers":4820,"å®ĺ":4821,"Ġindic":4822,"ĠYour":4823,"St":4824,"å½¢è±¡":4825,"è´¡":4826,"åºĬ":4827,"ĠSc":4828,"agra":4829,"çľŁæŃ£":4830,"oint":4831,"ids":4832,"arent":4833,"éĵ¶":4834,"èģĬ":4835,"Ġregular":4836,"ä¼ĺç§Ģ":4837,"Ġcolle":4838,"çĸĳ":4839,"Ġsubject":4840,"Ġgreater":4841,"Ġstore":4842,"åŁ¹è®Ń":4843,"Ġimag":4844,"Ġansw":4845,"ä½Ļ":4846,"Ġspot":4847,"åĪĨåŃĲ":4848,"Ġaudience":4849,"pet":4850,"Ġvers":4851,"Ġtrail":4852,"åĭĩ":4853,"erous":4854,"Ġguidance":4855,"Ġspeech":4856,"åĵ²":4857,"æĺ¯çĶ±":4858,"è´¡çĮ®":4859,"åĲĪéĢĤçļĦ":4860,"è®¾æĸ½":4861,"ä»ĸäºº":4862,"ensive":4863,"åĢ¾":4864,"aling":4865,"Ġprojects":4866,"å³":4867,"Ġtakes":4868,"ç»©":4869,"That":4870,"Ġbro":4871,"ived":4872,"Ġ&":4873,"åĿĲ":4874,"placement":4875,"è¿ŀæİ¥":4876,"çļĦç¤¾":4877,"ĠTra":4878,"Ġrelax":4879,"ufact":4880,"éģį":4881,"Ġsurv":4882,"åı£åĳ³":4883,"Ġcreativity":4884,"of":4885,"å¨ģ":4886,"çļĦçł":4887,"Ġbreath":4888,"Ġplaces":4889,"Ġdescrib":4890,"èĭ±è¯Ń":4891,"Ġdamage":4892,"oration":4893,"ä¸ºæĤ¨":4894,"ift":4895,"Ġcase":4896,"å¹´é¾Ħ":4897,"Ġpress":4898,"çĶľ":4899,"éĩİ":4900,"æĹħæ¸¸":4901,"Ġtaken":4902,"ined":4903,"Ġconcept":4904,"æĴŃ":4905,"Ġinteresting":4906,"è·µ":4907,"Ġsea":4908,"60":4909,"Ġfoot":4910,"ĠName":4911,"Ġresearchers":4912,"éĢģ":4913,"Ġwee":4914,");":4915,"çļĦåħ³éĶ®":4916,"ä¼½":4917,"elebr":4918,"å¡ĳ":4919,"We":4920,"ç»ıå¸¸":4921,"Ġpopulations":4922,"åħ¬å¼ı":4923,"orn":4924,"çĩĥ":4925,"äººçĶŁ":4926,"17":4927,"æİ¥åıĹ":4928,"Ġlocation":4929,"Ġinequ":4930,"Ġintervent":4931,"Ġinterested":4932,"Ġdefinitely":4933,"Ġassistance":4934,"è¿Ļä¸Ģ":4935,"åĲĪåĲĮ":4936,"ä¼ĺåĬ¿":4937,"çļĦå·¥ä½ľ":4938,"Ġ12":4939,"Ġmov":4940,"åģı":4941,"åŃĺåĤ¨":4942,"usive":4943,"æĹı":4944,"ï¼īï¼Į":4945,"Ġgas":4946,"Ġinterests":4947,"æ¸ħæĻ°":4948,"Ġgard":4949,"çĸ«":4950,"Ġsay":4951,"å¤«":4952,"ges":4953,"èĲ¨":4954,"ä¸ļåĬ¡":4955,"ä¸ªæĢ§":4956,"åĲ¯":4957,"Ġengagement":4958,"Ġbig":4959,"éľĢè¦ģèĢĥèĻĳ":4960,"Ġprinci":4961,"åĳ¨åĽ´":4962,"Ġopportunity":4963,"çģ¾":4964,"èĹı":4965,"rel":4966,"ç¼ºçĤ¹":4967,"Ġhappy":4968,"åĴĮåħ¶ä»ĸ":4969,"ava":4970,"Ġestablish":4971,"é¸¡èĽĭ":4972,"iking":4973,"ĠTrans":4974,"rastructure":4975,"forest":4976,"èİ·åıĸ":4977,"èĦļ":4978,"inally":4979,"èµı":4980,"Ġdelicious":4981,"Ġresults":4982,"è§Ĥå¯Ł":4983,"å®ŀè·µ":4984,"Ġlast":4985,"Ġpolit":4986,"æĢ§èĥ½":4987,"For":4988,"bi":4989,"çĽ¸ä¿¡":4990,"ffee":4991,"Ġphr":4992,"Ġforest":4993,"elling":4994,"æµģè¡Į":4995,"atic":4996,"å¤§å®¶":4997,"ĠInst":4998,"æķ°åŃ¦":4999,"æī©":5000,"å®Įåħ¨":5001,"å¼ķèµ·":5002,"ese":5003,"è½¬æį¢":5004,"Ġaffected":5005,"Ġrobotics":5006,"ç»¼ä¸Ĭ":5007,"Ġprop":5008,"è®©äºº":5009,"æ²³":5010,"ä¸ŃæľĢ":5011,"Ġautonomous":5012,"Ġhaving":5013,"Ġtrip":5014,"ury":5015,"Ġbiased":5016,"Ġconsiderations":5017,"Ġparticular":5018,"åįł":5019,"æİ¨å¹¿":5020,"Ġinitiatives":5021,"ials":5022,"åĳ³éģĵ":5023,"Ġtreatments":5024,"Ġemphas":5025,"çĭ¬çī¹çļĦ":5026,"Ġlay":5027,"æĶ¿çŃĸ":5028,"æĢİä¹Ī":5029,"ronic":5030,"play":5031,"Ġcook":5032,"è¿Ľåħ¥":5033,"è½®":5034,"Ġvolunte":5035,"Ġrain":5036,"ĠMon":5037,"Ġconsumption":5038,"èĽĭçĻ½":5039,"ĠSoc":5040,"å£¤":5041,"Ġroutine":5042,"Ġimproved":5043,"To":5044,"äººçī©":5045,"è¯»èĢħ":5046,"Ġgoal":5047,"å¹¿åĳĬ":5048,"éķ¿æľŁ":5049,"Ġey":5050,"He":5051,"Ġoutdo":5052,"Ġcuis":5053,"Ġaway":5054,"Ġbooks":5055,"Ġtopic":5056,"å¤§åĪ©":5057,"house":5058,"Ġones":5059,"ç§Ł":5060,"':":5061,"æĪ¿å±ĭ":5062,"ç§»åĬ¨":5063,"Ġdisasters":5064,"ests":5065,"illing":5066,"ç»¿èī²":5067,"åĵ²åŃ¦":5068,"æĪĲåĪĨ":5069,"Ġoccur":5070,"ľä¼½":5071,"åľŁå£¤":5072,"çļĦä¸»è¦ģ":5073,"çİ°å®ŀ":5074,"Ġanimal":5075,"é¢Ĩå¯¼":5076,"Ġviews":5077,"éĤ®":5078,"æ°§åĮĸ":5079,"athy":5080,"éģĵå¾·":5081,"ç¤¾äº¤åªĴä½ĵ":5082,"ĠPersonal":5083,"ĽåĽ´":5084,"Ġpurch":5085,"Ġcountry":5086,"Ġremind":5087,"å¯¸":5088,"Ġrights":5089,"çļĦçİ¯å¢ĥ":5090,"ĠPr":5091,"Ġline":5092,"ibr":5093,"é©¾":5094,"Ġmaj":5095,"Ġovercome":5096,"Ġnext":5097,"æīĢè¿°":5098,"è§Ħå®ļ":5099,"Ġinteractions":5100,"Ġconflic":5101,"Ġwhy":5102,"ç³»åĪĹ":5103,"å°¼":5104,"ibly":5105,"çīĽå¥¶":5106,"Ġresponses":5107,"ses":5108,"åŃ¦ä¼ļ":5109,"bol":5110,"Ġstandards":5111,"ulner":5112,"å¯¹è¯ĿåĨħå®¹":5113,"lished":5114,"çļĦæĢ§":5115,"çĶŁæĢģç³»ç»Ł":5116,"ann":5117,"æĥħåĨµä¸ĭ":5118,"å¯»æ±Ĥ":5119,"Ġhold":5120,"den":5121,"åįĥ":5122,"Ġmention":5123,"ĠMany":5124,"çĽ´åĪ°":5125,"éģĹ":5126,"hel":5127,"Ġbelieve":5128,"aries":5129,"æľīä¸Ģä¸ª":5130,"13":5131,"Ġatmosphere":5132,"Ġmor":5133,"æĹ¥æľŁ":5134,"ä¹ħ":5135,"ä½łå¥½":5136,"Ġaddressing":5137,"ĠâĢĵ":5138,"çļĦåľ°æĸ¹":5139,"ming":5140,"Ġcannot":5141,"Ġmanufact":5142,"Ġpie":5143,"icing":5144,"Ġstudies":5145,"ç¾İåĳ³":5146,"ĠAmerican":5147,"ĠNLP":5148,"Ġaccording":5149,"mselves":5150,"èĦĤ":5151,"èĩªä¿¡":5152,"æīĢéľĢ":5153,"Ġthemselves":5154,"Ġremote":5155,"åŁ¹åħ»":5156,"å®īæİĴ":5157,"ä½łéľĢè¦ģ":5158,"Ġregard":5159,"iring":5160,"è¯ĨåĪ«":5161,"Ġarticle":5162,"æģĴ":5163,"æĢ»çļĦæĿ¥":5164,"Ġalign":5165,"æ±ł":5166,"tenance":5167,"faction":5168,"åĬ¨ä½ľ":5169,"çļĦç©":5170,"ç¼©":5171,"æĢ¥":5172,"Ġ100":5173,"Ġtesting":5174,"åŃĹæ¯į":5175,"å¹´è½»":5176,"åĪ¶éĢł":5177,"Ġswe":5178,"å°º":5179,"hens":5180,"æ°´æŀľ":5181,"Ġinfrastructure":5182,"èī²å½©":5183,"æĢ»çļĦæĿ¥è¯´":5184,"æľīä»Ģä¹Ī":5185,"text":5186,"è½¦è¾Ĩ":5187,"Ġpay":5188,"rop":5189,"ĊĠĠ":5190,"Ġcaused":5191,"Ġcorrect":5192,"Ġì":5193,"èĥŀ":5194,"ĠMed":5195,"ç²¾ç¥ŀ":5196,"æ°ĶåĢĻåıĺåĮĸ":5197,"ĠRed":5198,"äºĴèģĶç½ĳ":5199,"Ġengage":5200,"åĪĨä¸º":5201,"ĠData":5202,"Ġfull":5203,"enc":5204,"éĩįæĸ°":5205,"æŃ£ç¡®çļĦ":5206,"çļĦæ°Ķ":5207,"åıĮæĸ¹":5208,"Ġcomes":5209,"åı¤ä»£":5210,"æŁĲäºĽ":5211,"åĳĪçİ°":5212,"Ġtoday":5213,"aged":5214,"æĪĳåı¯ä»¥":5215,"æĹ¥å¸¸":5216,"æ»ĳ":5217,"Ġclin":5218,"Ġ\\":5219,"Ġobs":5220,"Ġartificial":5221,"Ġexcell":5222,"çļĦç¬":5223,"alls":5224,"Ġproduce":5225,"ĠDes":5226,"oss":5227,"è¹Ī":5228,"Ġdraw":5229,"Ġletter":5230,"Ġadvice":5231,"Ġhighly":5232,"çĬ¯":5233,"ç»¼ä¸ĬæīĢè¿°":5234,"æ»¡æĦı":5235,"Ġprinciples":5236,"èĮĦ":5237,"Ġfeelings":5238,"çļĦæ´":5239,"Ġhom":5240,"Ġfail":5241,"Ġcrop":5242,"å§ľ":5243,"Ġquestion":5244,"Ġdisabilities":5245,"èĪŀè¹Ī":5246,"Ġimplications":5247,"ral":5248,"Ġsing":5249,"40":5250,"Ġfamil":5251,"Ġgovernments":5252,"Ġrecord":5253,"å½¢çĬ¶":5254,"Ġbegin":5255,"ises":5256,"çļĦæĥ³":5257,"achine":5258,"è°±":5259,"Ġvulner":5260,"Ġproper":5261,"Ġoversight":5262,"è´ŁéĿ¢":5263,"Ġemail":5264,"Ġnews":5265,"Ġexploring":5266,"Ġfavor":5267,"æ¥¼":5268,"å®ľ":5269,"Ġunivers":5270,"å·®å¼Ĥ":5271,"ï¼īãĢĤ":5272,"è§£åĨ³éĹ®é¢ĺ":5273,"Ġfamous":5274,"gn":5275,"Ġmessage":5276,"atitude":5277,"Ġcra":5278,"Ġcover":5279,"æ·±åĪ»":5280,"åı¯ä»¥éĢīæĭ©":5281,"çĶŁæ´»ä¸Ń":5282,"ç§įç±»":5283,"Ġsmart":5284,"onstr":5285,"vey":5286,"çĶ²":5287,"Ġregularly":5288,"ĠSm":5289,"æĦŁè§ī":5290,"Ġthought":5291,"Ġexh":5292,"cure":5293,"ç»ĺ":5294,"è®¤è¯Ĩ":5295,"Ġold":5296,"æĦī":5297,"ç§°ä¸º":5298,"Ġfields":5299,"Ġconsist":5300,"ãģ":5301,"ç»Ĩèĥŀ":5302,"Ġhours":5303,"80":5304,"alking":5305,"è§īå¾Ĺ":5306,"ç»Ŀ":5307,"ä½łä»¬":5308,"ĠEnglish":5309,"Ġsignificantly":5310,"Ġsource":5311,"Ġant":5312,"Ġeducational":5313,"Ġtask":5314,"Ġhandle":5315,"æĲľ":5316,"ĠSp":5317,"Ġcalled":5318,"Ġterms":5319,"æ²ī":5320,"Ġwin":5321,"duction":5322,"Ġmodern":5323,"Ġcuisine":5324,"å¥Ĺ":5325,"è§¦":5326,"olutely":5327,"ç«¥":5328,"pite":5329,"Ġfelt":5330,"Ġcompre":5331,"Ġwond":5332,"è¿Ĳè¡Į":5333,"Ġresil":5334,"çĽ¸ä¼¼":5335,"éĩĳèŀį":5336,"çĪ±æĥħ":5337,"ç¬Ķ":5338,"èĪª":5339,"è°Ī":5340,"åĬĽçļĦ":5341,"æľīæīĢ":5342,"æ½ľ":5343,"ulate":5344,"Ġdetection":5345,"å®£ä¼ł":5346,"Ġmatter":5347,"éĩıåŃĲ":5348,"Write":5349,"ç»ĵåĲĪ":5350,"ç»ıè¿ĩ":5351,"Ġdevelopers":5352,"èª":5353,"Ġ---":5354,"äººéĻħ":5355,"çŃ¾":5356,"ï¼ļâĢľ":5357,"Ġinnovative":5358,"ãĢĤâĢĿ":5359,"å½¼":5360,"é¥¼":5361,"è¿ĩåº¦":5362,"Ġplanet":5363,"åħ°":5364,"å¸ģ":5365,"æķ¬":5366,"Ġlegal":5367,"Ġlot":5368,"æĪĲä¸ºäºĨ":5369,"iate":5370,"Ġmis":5371,"åģĩè®¾":5372,"çļĦæĸĩç«ł":5373,"ĠCompan":5374,"Ġdoc":5375,"Ġcareful":5376,"Ġever":5377,"æĪĳä»¬å°Ĩ":5378,"ä¾ĭåŃĲ":5379,"ä¹³":5380,"ä½ľèĢħ":5381,"åĲ§":5382,"æļ´":5383,"Ġremember":5384,"çĽ®çļĦ":5385,"Ġput":5386,"å¸¸è§ģçļĦ":5387,"Ġfest":5388,"å»ºè®¾":5389,"å®ŀçĶ¨":5390,"Ġactive":5391,"çªĹ":5392,"outh":5393,"åİŁçĲĨ":5394,"Ġtrying":5395,"è¿·":5396,"çĽ¸åĲĮ":5397,"éħĴåºĹ":5398,"Another":5399,"æľĢä½³":5400,"Ġanalytics":5401,"Ġperpet":5402,"ipment":5403,"Ġå¦Ĥæŀľ":5404,"è§Ĥä¼Ĺ":5405,"Ġcelebr":5406,"Ġheav":5407,"Ġmeditation":5408,"å¤§æ°Ķ":5409,"And":5410,"ä¸įéĶĻ":5411,"Ġwhether":5412,"set":5413,"Ġdemonstr":5414,"ä¸Ģæ¬¾":5415,"æĶ¶éĽĨ":5416,"éĻĲåĪ¶":5417,"Ġing":5418,"Ġrevolution":5419,"çľģ":5420,"Ġscience":5421,"çĽ®åīį":5422,"Ġthinking":5423,"±ä¹Ĳ":5424,"è¯¾ç¨ĭ":5425,"Ġpack":5426,"Ġimage":5427,"loc":5428,"Ġstories":5429,"uck":5430,"Ġsatisfaction":5431,"Ġcollection":5432,"ho":5433,"èµŀ":5434,"éĿ¢ä¸´":5435,"Ġla":5436,"Ġsymbol":5437,"Ġemb":5438,"Ġhabitats":5439,"Ġlower":5440,"Ġcontinues":5441,"éľĩ":5442,"åĵĪ":5443,"ĠTake":5444,"Ġenvironments":5445,"Ġthree":5446,"Ġenc":5447,"ĠAcc":5448,"æĦıåĳ³":5449,"åİ¨":5450,"chan":5451,"ĠHum":5452,"Ġtrue":5453,"åĪĩæĪĲ":5454,"sing":5455,"âĢĶâĢĶ":5456,"åĩºæĿ¥":5457,"Ġregion":5458,"Ġinterpre":5459,"Ġdiagnosis":5460,"éŀ":5461,"Ġdoing":5462,"Ġrun":5463,"Ġcoffee":5464,"Ġmajor":5465,"Ġmindfulness":5466,"Ġaffordable":5467,"çĻ¾":5468,"Ġdetailed":5469,"éĿŀå¸¸éĩįè¦ģçļĦ":5470,"çļĦæ²ŁéĢļ":5471,"çļĦæķħ":5472,"åĢĴåħ¥":5473,"Ġthemes":5474,"Ġnetwork":5475,"ï¼īï¼ļ":5476,"ĠUnited":5477,"çļĦæĮĩ":5478,"orts":5479,"åį«çĶŁ":5480,"Ġplanning":5481,"æĥł":5482,"åīª":5483,"ĠProv":5484,"çļĦåºĶçĶ¨":5485,"Ġperi":5486,"Ġaccountable":5487,"çīĻ":5488,"çļĦçģ":5489,"Ġchoice":5490,"ĠComm":5491,"idents":5492,"çļĦå®īåħ¨":5493,"å¹¶ä¸į":5494,"å¤ªéĺ³ç³»":5495,"Ġreceive":5496,"Ġclose":5497,"çļĦæĹ¶åĢĻ":5498,"Ġchanging":5499,"ä»·åĢ¼è§Ĥ":5500,"Ġperpetu":5501,"Ġseason":5502,"Ġmen":5503,"Ġlearned":5504,"Ġsituation":5505,"Ġreplace":5506,"head":5507,"è®©æĪĳ":5508,"åľ¨ä¸Ģèµ·":5509,"çļĦç©º":5510,"éľ²":5511,"Ġenough":5512,"å±ķçİ°":5513,"Ġleaders":5514,"ancing":5515,"Ġtemperature":5516,"åı«":5517,"Ġ30":5518,"æĦıåĳ³çĿĢ":5519,"æ±ĩ":5520,"ĠGovern":5521,"Ġfocused":5522,"uro":5523,"Ġsimple":5524,"Ġhiking":5525,"æ¯Ĵ":5526,"Ġcomprehens":5527,"äºĪ":5528,"Ġcreated":5529,"cond":5530,"é¡µ":5531,"ĠWor":5532,"è¯ģæį®":5533,"Ġworkplace":5534,"Ġcharacters":5535,"çļĦè®¾è®¡":5536,"Ġmechan":5537,"ĠDis":5538,"ç¥ŀç§ĺ":5539,"å·ŀ":5540,"ĠOn":5541,"</":5542,"ç§įæ¤į":5543,"Ġpath":5544,"Ġlimited":5545,"Ġsolar":5546,"çļĦæı":5547,"22":5548,"Ġappreciate":5549,"å¿«ä¹Ĳ":5550,"æĦŁåıĹåĪ°":5551,"èĢĹ":5552,"med":5553,"icine":5554,"Ġnote":5555,"å½ĵåīį":5556,"æĪĳä»¬åºĶè¯¥":5557,"Ġseen":5558,"ä¸ĢåĲį":5559,"å°½åı¯èĥ½":5560,"è¿Ĳç®Ĺ":5561,"è§Ĵåº¦":5562,"Ġequipment":5563,"Ġspread":5564,"è¸":5565,"è®¿":5566,"åı¥è¯Ŀ":5567,"æĮ¥":5568,"Ġpurpose":5569,"è¯·ä½ł":5570,"Your":5571,"arian":5572,"ä»ª":5573,"Ġperspectives":5574,"åĩºäºĨ":5575,"å©ļç¤¼":5576,"Ġexcellent":5577,"ĠEnsuring":5578,"Ġreach":5579,"éĺ¶æ®µ":5580,"ä¿Ŀéļľ":5581,"Ġempathy":5582,"ĠMy":5583,"çĳľä¼½":5584,"Ġver":5585,"abel":5586,"ĠPredict":5587,"Ġmaintenance":5588,"è¯Ħä»·":5589,"Ġult":5590,"åĴ¨":5591,"ox":5592,"åĴ¨è¯¢":5593,"Ġshared":5594,"ina":5595,"list":5596,"Ġoutdoor":5597,"Ġthoughts":5598,"inating":5599,"éĴ±":5600,"Ġframe":5601,"éĺ¿":5602,"åĪ©æ¶¦":5603,"çļĦæİ¨":5604,"åįļ":5605,"Ġrecent":5606,"Ġaltern":5607,"ared":5608,"==":5609,"Ġroad":5610,"äºĭé¡¹":5611,"ged":5612,"ynt":5613,"Ġspend":5614,"ç½ª":5615,"åıĸå¾Ĺ":5616,"é¹":5617,"li":5618,"æĹ¶æľŁ":5619,"ä¸¥éĩį":5620,"å¿Ĩ":5621,"å©´":5622,"æİ¥ä¸ĭæĿ¥":5623,"ĠEarth":5624,"ĠChatbots":5625,"Ġsetting":5626,"ç¥Ŀ":5627,"éĶĢåĶ®é¢Ŀ":5628,"ä¼¦":5629,"Ġreading":5630,"æİ¢è®¨":5631,"aign":5632,"éŀĭ":5633,"Ġyoung":5634,"Ġcareer":5635,"Ġteachers":5636,"çļĦè´¨éĩı":5637,"å±ŀäºİ":5638,"Ġeasier":5639,"Ġscientific":5640,"ç¾İåħĥ":5641,"Ġspir":5642,"åĬ³":5643,"çļĦæĶ¯":5644,"rist":5645,"èµĦäº§":5646,"çĶŁåŃĺ":5647,"èĩ³å°ĳ":5648,"å§¿":5649,"Ġvideo":5650,"Ġaim":5651,"å®Ŀå®Ŀ":5652,"çĪ¶æ¯į":5653,"________________":5654,"alities":5655,"Ġbud":5656,"Ġstreet":5657,"Ġæĺ¯":5658,"æĸ¹ç¨ĭ":5659,"ä¸ĸçºª":5660,"ches":5661,"earch":5662,"æĴ°":5663,"Ġengine":5664,"Ġdisplacement":5665,"ĠRobots":5666,"ervised":5667,"é¡¶":5668,"oud":5669,"Ġwalk":5670,"Ġemergency":5671,"èģĺ":5672,"nal":5673,"Ġdatas":5674,"åĢº":5675,"åĲİçļĦ":5676,"å¾Īå¥½":5677,"Ġmyself":5678,"çļĦæīĭ":5679,"Ġusage":5680,"Ġshown":5681,"æ®Ĭ":5682,"Ġtypically":5683,"uly":5684,"æĸ°éĹ»":5685,"æĽ¿":5686,"Ġorig":5687,"è½»æĿ¾":5688,"æĺ¾ç¤º":5689,"Ġadopt":5690,"èĤ¡ç¥¨":5691,"Ġparent":5692,"aps":5693,"æĢĿæĥ³":5694,"Ġmarketing":5695,"èĻ«":5696,"éĥ¨éĹ¨":5697,"çļĦæķĪ":5698,"Ġcomfortable":5699,"åŃ¦ä¹łåĴĮ":5700,"Ġforecast":5701,"iction":5702,"Ġgetting":5703,"Ġtrees":5704,"aving":5705,"çļĦåŁºç¡Ģ":5706,"ready":5707,"æĸ°é²ľ":5708,"going":5709,"¹é¥":5710,"Ġevidence":5711,"¹é¥ª":5712,"ç§ĭ":5713,"æľīå¾Īå¤ļ":5714,"éĿ¢è¯ķ":5715,"éģĩåĪ°":5716,"ç»Ļå®ļ":5717,"irc":5718,"åı¯ä»¥æł¹æį®":5719,"é©¾é©¶":5720,"å·§åħĭ":5721,"Ġstunning":5722,"çļĦæ¦Ĥ":5723,"æ¡Į":5724,"ĠJohn":5725,"ulation":5726,"åıĤèĢĥ":5727,"Ġflex":5728,"çĦ¦èĻĳ":5729,"ymakers":5730,"Ġforms":5731,"sh":5732,"val":5733,"ĠSo":5734,"co":5735,"æİ¨åĬ¨":5736,"èħ¿":5737,"çī¹æ®Ĭ":5738,"Ġenab":5739,"å°Ĩä¼ļ":5740,"æĶ¯åĩº":5741,"åĿļæĮģ":5742,"çº¢èī²":5743,"Ġoption":5744,"Ġstarted":5745,"ration":5746,"Ġpoetry":5747,"Ġport":5748,"gen":5749,"èªī":5750,"Ġdeliv":5751,"çĶļ":5752,"éĢ»":5753,"éĢīé¡¹":5754,"Ġground":5755,"å½¼æŃ¤":5756,"ana":5757,"çļĦæĹ¥":5758,"åľ¨çº¿":5759,"Ġsecure":5760,"Ġæł¹æį®":5761,"é¥®æĸĻ":5762,"Ġgratitude":5763,"ç¬¬ä¸ī":5764,"Ġsong":5765,"Ġpoints":5766,"Ġalready":5767,"çļĦçĪ±":5768,"ĠTechn":5769,"Ġreality":5770,"çıŃ":5771,"Ġsince":5772,"Ġpopulation":5773,"yond":5774,"bor":5775,"ĠSocial":5776,"æıĲåıĸ":5777,"å·¥ç¨ĭ":5778,"aff":5779,"äº¤æĺĵ":5780,"Ġworth":5781,"å¡«":5782,"å¨±ä¹Ĳ":5783,"Ġdog":5784,"ĠArt":5785,"ç¡¬":5786,"æµ·æ´ĭ":5787,"åĨĴ":5788,"çīĪ":5789,"Ġprogramming":5790,"ĠAss":5791,"ĠMachine":5792,"åĢ¼å¾Ĺ":5793,"è¯·è¾ĵåħ¥":5794,"å£°éŁ³":5795,"Ġexercises":5796,"åħīçº¿":5797,"æ³ķåĴĮ":5798,"Ġfeature":5799,"eff":5800,"è¿ĽæŃ¥":5801,"å¥³æĢ§":5802,"Ġefficiently":5803,"çļĦæĬĢæľ¯":5804,"Ġgenetic":5805,"ä»¤äºº":5806,"è´¦":5807,"çļĦäº§åĵģ":5808,"åİļ":5809,"åĴĮæĸĩåĮĸ":5810,"éĻĦ":5811,"Ġmob":5812,"ç»¼åĲĪ":5813,"ters":5814,"æľīä¸Ģ":5815,"å¦Ĩ":5816,"åįĪ":5817,"Ġoutside":5818,"Ġpropert":5819,"éĤ®ä»¶":5820,"ä¸»ä¹ī":5821,"Ġpolicy":5822,"èĩªèº«":5823,"Ġnavigate":5824,"Ġsty":5825,"çĶµèĦĳ":5826,"Ġabilities":5827,"Ġfaced":5828,"çļĦç¼":5829,"çļĦå°ı":5830,"èķ":5831,"Ġtone":5832,"igation":5833,"åıĤæķ°":5834,"èĽĭçĻ½è´¨":5835,"ä½Ľ":5836,"çĶļèĩ³":5837,"Ġskin":5838,"èĴ¸":5839,"æĭĽ":5840,"éŃĶ":5841,"ashion":5842,"Ġingred":5843,"æĹĭ":5844,"Ġcampaign":5845,"Ġmount":5846,"Ġconsid":5847,"Ġmuse":5848,"nter":5849,"water":5850,"ä¼ļè®®":5851,"Ġprotection":5852,"ä¿ĿéĻ©":5853,"Ġcrops":5854,"ogle":5855,"éļıæĹ¶":5856,"æļĹ":5857,"ium":5858,"ä¹ı":5859,"Ġdiet":5860,"lies":5861,"çĶ¨æĿ¥":5862,"ĠEncoura":5863,"æĬĹ":5864,"apan":5865,"éĺ²æŃ¢":5866,"Wow":5867,"çļĦåŁºæľ¬":5868,"å¹³æĸ¹":5869,"Ġstep":5870,"åı¯éĿł":5871,"è¡¨æĺİ":5872,"Ġpredictions":5873,"Ġsympt":5874,"Ġdiagnoses":5875,"åħ¬åĽŃ":5876,"Ġsupply":5877,"Ġprevious":5878,"ç»ĦåĲĪ":5879,".,":5880,"çļĦè¿ĩç¨ĭ":5881,"æķı":5882,"su":5883,"aris":5884,"çķħ":5885,"ocol":5886,"æĲľç´¢":5887,"itle":5888,"éĨĴ":5889,"é¡¾å®¢":5890,"éĢ»è¾ĳ":5891,"éĿŀå¸¸éĩįè¦ģ":5892,"ĠBi":5893,"å·¦åı³":5894,"amm":5895,"Ġeverything":5896,"æĺł":5897,"Ġincred":5898,"Ġpeace":5899,"èľľ":5900,"Ġmuseum":5901,"çĭ¬ç«ĭ":5902,"Ġcomprehensive":5903,"Ġrates":5904,"//":5905,"Ġrad":5906,"åĦ¿ç«¥":5907,"çī¹èī²":5908,"ĠPredictive":5909,"å¼ķåĬĽ":5910,"ler":5911,"å°¤":5912,"icro":5913,"è¡¥":5914,"Ġdetermine":5915,"çļĦåĨħå®¹":5916,"Ġcompl":5917,"Ġgreenhouse":5918,"èħĲ":5919,"Ġhighlight":5920,"Ġpartners":5921,"Ġdoct":5922,"çļĦä½¿çĶ¨":5923,"æŃĮæĽ²":5924,"æĮĩåįĹ":5925,"ĠAf":5926,"æľºæŀĦ":5927,"éĢĢ":5928,"Ġpoems":5929,"å¿ĥåĴĮ":5930,"Ġattend":5931,"çļĦæ¸¸":5932,"Ġside":5933,"ales":5934,"Ġmentioned":5935,"ĠAbs":5936,"Ġhistorical":5937,"Ġleft":5938,"ä»¥ä¸ĭåĩłä¸ª":5939,"åıĹæ¬¢è¿İ":5940,"èıľåĵģ":5941,"Ġremain":5942,"æĩ":5943,"Ġtours":5944,"łéģĵ":5945,"Ġerrors":5946,"æľºåĪ¶":5947,"æ¦":5948,"æĤ£èĢħ":5949,"more":5950,"Ġexperts":5951,"çļĦçłĶç©¶":5952,"ç»ĵæĿŁ":5953,"Ġwritten":5954,"çłĶ":5955,"Ġet":5956,"input":5957,"æ°Ķä½ĵ":5958,"èļ":5959,"æĥĬ":5960,"Ġage":5961,"éĩįå¤į":5962,"å¼¹":5963,"åŃ¤":5964,"Ġsymptoms":5965,"Ġbelief":5966,"'d":5967,"iol":5968,"Ġ18":5969,"åħħè¶³":5970,"çıį":5971,"forcement":5972,"æĸĹ":5973,"ªèĮĦ":5974,"Ġ15":5975,"ä¸Ģä¸ªäºº":5976,"Ġapplic":5977,"è´¥":5978,"ä½įäºİ":5979,"éĻ¤äºĨ":5980,"=\"":5981,"ä¸īè§Ĵ":5982,"æĢĿç»´":5983,"åį·":5984,"Ġfru":5985,"ĠCollabor":5986,"Ġprim":5987,"Ġrequired":5988,"Ġwatch":5989,"è°ĥåĳ³":5990,"ç»ĵè®º":5991,"ony":5992,"Ġguide":5993,"Ġmax":5994,"ĠCould":5995,"Ġadvent":5996,"ĠOverall":5997,"çļĦæĬķ":5998,"Ġexper":5999,"åĺ":6000,"icial":6001,"oster":6002,"çļĦé¢ľèī²":6003,"Ġoperations":6004,"éĥģ":6005,"Ġmoney":6006,"ley":6007,"cling":6008,"Ġoil":6009,"çļ®èĤ¤":6010,"Ġge":6011,"Ġbat":6012,"ĠPh":6013,"Ġsche":6014,"Ġelectric":6015,"vest":6016,"Ġchain":6017,"Ġcapabilities":6018,"ird":6019,"è¯ģæĺİ":6020,"æľĢå¥½":6021,"ivil":6022,"Ġdepending":6023,"Ġsave":6024,"Ġpractical":6025,"Ġcultures":6026,"çĽ¸åºĶçļĦ":6027,"sy":6028,"çļĦç²":6029,"Ġbehind":6030,"æĹ¶éĹ´åĴĮ":6031,"å¹ħ":6032,"ĠAg":6033,"Ġeffectiveness":6034,"Ad":6035,"ĠOf":6036,"Ġanything":6037,"å·§åħĭåĬĽ":6038,"Ġmist":6039,"Ġlanguages":6040,"ĠMake":6041,"å«":6042,"æ£®":6043,"ĠCont":6044,"ĠAbsolutely":6045,"Ġinvestment":6046,"mat":6047,"çļĦæķħäºĭ":6048,"æ¬§":6049,"Ġspeed":6050,"çļĦæ¸©":6051,"Ġcities":6052,"åĨĻä½ľ":6053,"Thanks":6054,"Ġded":6055,"åĪĨéħį":6056,"Ġdark":6057,"Ġsupporting":6058,"å¹ķ":6059,"ĠKe":6060,"éĽ¶":6061,"Ġsharing":6062,"Ġhouse":6063,"è®¤çŁ¥":6064,"Ġsurrounding":6065,"Ġreduced":6066,"Ġfu":6067,"Ġstor":6068,"Ġabs":6069,"Tom":6070,"cent":6071,"ĠEducation":6072,"Ġthr":6073,"ott":6074,"ĠThat":6075,"Ġhear":6076,"ung":6077,"Ġbeyond":6078,"ĠCo":6079,"room":6080,"è¯ĹæŃĮ":6081,"reme":6082,"Ġlittle":6083,"Ġgames":6084,"ä¹ĭåĲİ":6085,"éĥ½ä¼ļ":6086,"è¯ŃéŁ³":6087,"ç¬ĳ":6088,"çī¹å®ļ":6089,"ç¬¬ä¸Ģ":6090,"Ġdepression":6091,"Ġinnovation":6092,"ĠFr":6093,"Ġcomputer":6094,"can":6095,"å³°":6096,"ç¼ĸåĨĻä¸Ģä¸ª":6097,"Ġinternational":6098,"Ġcancer":6099,"åŃ¦èĢħ":6100,"Ġdiscover":6101,"het":6102,"Ġcompos":6103,"Ġrecy":6104,"Ġ200":6105,"åĲ«æľī":6106,"çĹĽ":6107,"ç¼ĵè§£":6108,"Ġfrequ":6109,"çĶ³":6110,"ĠMar":6111,"çļĦéĢīæĭ©":6112,"Ġunt":6113,"Ġregions":6114,"Ġopin":6115,"ĠGovernments":6116,"æ¶Ĥ":6117,"åĨħå¿ĥ":6118,"ä¸ĬæľĢ":6119,"ä»įçĦ¶":6120,"lier":6121,"æ³³":6122,"äºĴçĽ¸":6123,"ĠStud":6124,"azon":6125,"Ġarch":6126,"Ġchem":6127,"çļĦèĥ½åĬĽ":6128,"çļĦä¸Ģä¸ª":6129,"Ġap":6130,"Ġred":6131,"Ġwomen":6132,"Ġprote":6133,"Ġfinding":6134,"å§»":6135,"éĢĤå½ĵçļĦ":6136,"Ġforward":6137,"å¯¹è±¡":6138,"Ġwait":6139,"Ġconsidered":6140,"dule":6141,"backs":6142,"Ġclinical":6143,"åħ·å¤ĩ":6144,"éº¦":6145,"Ġongoing":6146,"åĨĽ":6147,"Ġfar":6148,"åĴĮè°":6149,"XXX":6150,"Ġpolitical":6151,"Ġcamer":6152,"çļĦè¡Įä¸º":6153,"æĦıå¤§åĪ©":6154,"Ġapps":6155,"åĩıè½»":6156,"Ġreaders":6157,"å©ļå§»":6158,"æ°¸":6159,"ores":6160,"åħ¨éĿ¢":6161,"ĠAfric":6162,"Ġfavorite":6163,"Ġmill":6164,"Ġdang":6165,"ĠStates":6166,"åĢŁ":6167,"å¯¿":6168,"Ġlat":6169,"è¿ĩåİ»":6170,"Ġtruly":6171,"åĽŀçŃĶéĹ®é¢ĺ":6172,"Ġcogn":6173,"ä»°":6174,"ĠJapan":6175,"izz":6176,"çļĦæĿĲ":6177,"xx":6178,"é¢ĺçĽ®":6179,"ription":6180,"éĤ£äºĽ":6181,"Ġbudget":6182,"Ġvast":6183,"éļĲç§ģ":6184,"Ġpolicymakers":6185,"è¿ĺéľĢè¦ģ":6186,"å¹¶æıĲä¾Ľ":6187,"Ġsweet":6188,"Ġgeneral":6189,"æ»¤":6190,"Ġbirds":6191,"Ġplastic":6192,"Ċĉ":6193,"åĪº":6194,"mental":6195,"Ġinclusive":6196,"Ġtopics":6197,"Ġslow":6198,"ä½łèĥ½":6199,"è¶³å¤ŁçļĦ":6200,"è§Ĩè§ī":6201,"ww":6202,"Ġä½¿çĶ¨":6203,"æī¹":6204,"æ¦Ĥå¿µ":6205,"é£ŁçĶ¨":6206,"èĢ³":6207,"cks":6208,"Ġfraud":6209,"Ġingredients":6210,"Ġfasc":6211,"åĮĹäº¬":6212,"Ġfr":6213,"Ġmanufacturing":6214,"Ġä½ľä¸º":6215,"Ġbeach":6216,"é¡¿":6217,"erious":6218,"å¤ĸè§Ĥ":6219,"é¢Ħéĺ²":6220,"æĿ¥èĩª":6221,"èĤĮèĤī":6222,"Ġdays":6223,"Ġassign":6224,"Ġadvant":6225,"Ġteams":6226,"é¢Ĺ":6227,"nown":6228,"ĠPo":6229,"}{":6230,"Ġminut":6231,"itions":6232,"Ġeasily":6233,"ĠBl":6234,"name":6235,"åŃ¦æł¡":6236,"Ġresponsibility":6237,"åıĳæĮ¥":6238,"Ġsensitive":6239,"çŃīäºİ":6240,"cious":6241,"Ġsou":6242,"å±ı":6243,"Ġrich":6244,"å½ĵçĦ¶":6245,"man":6246,"Ġinterpret":6247,"24":6248,"Ġshows":6249,"èģĮåľº":6250,"Ġfall":6251,"è½½":6252,"ä¸°å¯ĮçļĦ":6253,"('":6254,"ä¿®æĶ¹":6255,"æĽ´æį¢":6256,"Al":6257,"åı¯èĥ½æĺ¯":6258,"Ġrate":6259,"Ġprotecting":6260,"fit":6261,"Ġ50":6262,"Ġmovement":6263,"è§Ī":6264,"Ġemployee":6265,"Ġdisord":6266,"åĪĽæĦı":6267,"äº§åĵģçļĦ":6268,"æľĿ":6269,"ĊĠĠĠĠĠĠĠĠĠĠĠĠĠĠĠ":6270,"Ġpred":6271,"Ġoffering":6272,"åįģåĪĨ":6273,"èĢĮä¸įæĺ¯":6274,"Thank":6275,"æĽ¾":6276,"Ġelements":6277,"ç²Ĵ":6278,"Ġcourses":6279,"Ġintegrated":6280,"ĠCar":6281,"agraph":6282,"åŁºåĽł":6283,"Ġinstead":6284,"èĦ±":6285,"åı¦ä¸Ģä¸ª":6286,"å¯Ĩçłģ":6287,"Ġallowed":6288,"éĿ¢åĮħ":6289,"çķªèĮĦ":6290,"åĴĮåıĳå±ķ":6291,"å°ģ":6292,"Ġconnection":6293,"åľ¨ä¸Ģä¸ª":6294,"Ġuseful":6295,"è¯Ńåı¥":6296,"åĪĨå¸ĥ":6297,"è¡¨æ¼Ķ":6298,"æľīæĹ¶":6299,"çļĦæĹħ":6300,"çļĦæĢ»":6301,"Ġfashion":6302,"èĭ¦":6303,"è¦ģæ³¨æĦı":6304,"çĶŁç´ł":6305,"Ġnutri":6306,"èĩªè¡Į":6307,"çļĦçĭ":6308,"çĲĨè§£åĴĮ":6309,"Ġcat":6310,"æľºåĻ¨åŃ¦ä¹ł":6311,"Ġexhib":6312,"åĴĮæľįåĬ¡":6313,"frac":6314,"epend":6315,"Ġimpacted":6316,"Ġut":6317,"æķ°ç»Ħ":6318,"ĠWorld":6319,"Ġanswer":6320,"erse":6321,"éª¨":6322,"Ġartists":6323,"åŃ©åŃĲçļĦ":6324,"ä»Ķ":6325,"çĻ»":6326,"ĠAre":6327,"Ġcool":6328,"Ġcognitive":6329,"åĲĦä¸ª":6330,"like":6331,"å©´åĦ¿":6332,"åĪĹåĩº":6333,"å¹»":6334,"ront":6335,"å®¶éķ¿":6336,"ç¼ºä¹ı":6337,"Ġcyber":6338,"ilt":6339,"Ġcapture":6340,"åĹ":6341,"åľ¨äºİ":6342,"Ġthreats":6343,"åĴĮç¤¾ä¼ļ":6344,"Ġcells":6345,"æ¸ħåįķ":6346,"ĠVis":6347,"æİī":6348,"Ġhol":6349,"åŃĲçļĦ":6350,"Ch":6351,"èĿ":6352,"Ġsaid":6353,"Ġdream":6354,"unch":6355,"une":6356,"ĠDon":6357,"å®¶äºº":6358,"ç±į":6359,"æĦŁåĴĮ":6360,"Ġexperienced":6361,"çļĦéĩįè¦ģæĢ§":6362,"å¼ĥ":6363,"ump":6364,"éĺĲ":6365,"Ġhabitat":6366,"è¢ĭ":6367,"Ġjo":6368,"ç®Ģæ´ģ":6369,"Ġbur":6370,"Ġvisitors":6371,"éĽħ":6372,"çļĦçŁ¥":6373,"Ġentire":6374,"è®²è¿°":6375,"äºĨä¸ĢäºĽ":6376,"åįıä½ľ":6377,"ĠBus":6378,"å°¾":6379,"çļĦæķĻ":6380,"olog":6381,"Ġsigns":6382,"Ġspeaker":6383,"çļĦéŁ³ä¹Ĳ":6384,"Ġnovel":6385,"å±ħæ°ĳ":6386,"çļĦåıĺåĮĸ":6387,"å°½éĩı":6388,"Ġspirit":6389,"å®Įç¾İ":6390,"è´·":6391,"å¿ħè¦ģçļĦ":6392,"ief":6393,"ç¤ºä¾ĭ":6394,"Ġdiv":6395,"æķ´æķ°":6396,"Ġeconomy":6397,"Ġethically":6398,"éĻĪ":6399,"Ġschools":6400,"Ġnetworks":6401,"Ġscientists":6402,"Ġlever":6403,"å½¢çļĦ":6404,"ĠApp":6405,"ä¸Ńæĸĩ":6406,"book":6407,"æĢ»æĺ¯":6408,"å°½ç®¡":6409,"Ġfamilies":6410,"ably":6411,"Ġmaintaining":6412,"ER":6413,"å¹´çļĦ":6414,"aught":6415,"Ġexpos":6416,"çģ°":6417,"Ġinstance":6418,"ç±»ä¼¼":6419,"atures":6420,"Ġpressure":6421,"æ¬£":6422,"Ġrent":6423,"çļĦæ¶":6424,"çĥ¹é¥ª":6425,"ots":6426,"afood":6427,"Ġimplementation":6428,"çī©çĲĨåŃ¦":6429,"æĶ»åĩ»":6430,"Ġrepl":6431,"ä¸¤ç§į":6432,"èĵĿèī²":6433,"å¼ºçĥĪ":6434,"ĠGod":6435,"Ġgrowing":6436,"éļıæľº":6437,"éĩĳå±ŀ":6438,"Ġaspects":6439,"otes":6440,"ĠPersonalized":6441,"çļĦçĽ®æłĩ":6442,"Ġoutput":6443,"çĿ¡çľł":6444,"å²Ľ":6445,"æķĳ":6446,"rics":6447,"éĶħä¸Ń":6448,"mit":6449,"çľĭèµ·æĿ¥":6450,"Ġyiel":6451,"å¿ĺ":6452,"ä¼ĳæģ¯":6453,"ä¾§":6454,"åľ¨å®¶":6455,"Ġplayers":6456,"çľŁå®ŀ":6457,"ĠAnaly":6458,"eling":6459,"ĠChrist":6460,"å¡Ķ":6461,"quality":6462,"çļĦçĥŃ":6463,"éģĵè·¯":6464,"Ġbuy":6465,"Ġ25":6466,"åĪĿåŃ¦èĢħ":6467,"éĩįéĩı":6468,"è½¨":6469,"ä¹Łæľī":6470,"ä¸Ģæł·":6471,"å¹¶å°Ĩ":6472,"Ġfitness":6473,"æĿ¥æºĲ":6474,"åķĬ":6475,"æĽ´æĸ°":6476,"ands":6477,"Ġincome":6478,"çļĦæ·":6479,"çĵ¶":6480,"éĽª":6481,"Ġperspective":6482,"ç¢İ":6483,"æµĭéĩı":6484,"Ġadvoc":6485,"Ġcand":6486,"éĿ©":6487,"è®ºæĸĩ":6488,"æıĴ":6489,"rupt":6490,"Ġcases":6491,"Ġautomate":6492,"èĻļæĭŁ":6493,"\".":6494,"iding":6495,"é»Ħèī²":6496,"Ġlimitations":6497,"éĿ¢ä¸Ĭ":6498,"Ġbird":6499,"éĴ¢":6500,"Ġadvancements":6501,"uild":6502,"ä¹İ":6503,"ĠBar":6504,"çļĦæ¯Ķ":6505,"«èĲ¨":6506,"è°ĥèĬĤ":6507,"ç»ĻäºĪ":6508,"è¿Ŀ":6509,"èĭ¹":6510,"Ġvegan":6511,"enty":6512,"åĪļ":6513,"äººéĻħåħ³ç³»":6514,"itect":6515,"Ġaccom":6516,"Ġgramm":6517,"Ġbra":6518,"çĶµæ±ł":6519,"èĭ¹æŀľ":6520,"Ġtechnical":6521,"èĭ±æĸĩ":6522,"åĮĻ":6523,"ĠãĢĬ":6524,"è¶ħè¿ĩ":6525,"è´Łè´£":6526,"Ġresilience":6527,"å°¤åħ¶":6528,"Ġbrand":6529,"ried":6530,"oga":6531,"æŃ»":6532,"ä»Ģä¹Īæĺ¯":6533,"èµĦéĩĳ":6534,"ma":6535,"æį·":6536,"AP":6537,"Ġearth":6538,"Ġvac":6539,"æ¸©æļĸ":6540,"Ġitems":6541,"ä»¥ä¸ĭæĺ¯ä¸Ģä¸ª":6542,"å®ŀæĸ½":6543,"åįĸ":6544,"Ġhost":6545,"Ġuntil":6546,"Ġextreme":6547,"é£ŀè¡Į":6548,"ĠHuman":6549,"urban":6550,"çļĦåĢ¼":6551,"hent":6552,"éĢīæĭ©éĢĤåĲĪ":6553,"Ġultimately":6554,"åľ°æĸ¹":6555,"Ġroom":6556,"éĹŃ":6557,"Ġrequirements":6558,"Ġcombination":6559,"Ġdocument":6560,"ĠGreat":6561,"åıĺå¾ĹæĽ´åĬł":6562,"Ġcirc":6563,"èĬĤå¥ı":6564,"Ġstrength":6565,"Ġice":6566,"æ¸łéģĵ":6567,"Ġphotos":6568,"lands":6569,"Ġabove":6570,"Con":6571,"amp":6572,"è¾ĥé«ĺ":6573,"çļĦæĦıä¹ī":6574,"åĽłä¸ºå®ĥ":6575,"ĠAdd":6576,"Ġshap":6577,"Ġdial":6578,"Ġinstitut":6579,"pons":6580,"æģĲ":6581,"è§Ħå¾ĭ":6582,"active":6583,"æ¡£":6584,"įçī©":6585,"çļĦæ±":6586,"çĪ±å¥½":6587,"åĳ¨æľŁ":6588,"Ġagree":6589,"Ġfully":6590,"Ġneigh":6591,"ĠRemember":6592,"å®«":6593,"æĪĲå°±":6594,"è¿Ļæĺ¯ä¸Ģä¸ª":6595,"Ġincreasingly":6596,"åıĳå¸ĥ":6597,"Ġexpertise":6598,"encies":6599,"æĤ¨éľĢè¦ģ":6600,"çļĦçī¹çĤ¹":6601,"Ġcode":6602,"ĠEthical":6603,"eria":6604,"Ġrely":6605,"çŃīæĸ¹å¼ı":6606,"ams":6607,"å»¶":6608,"Ġlandsc":6609,"æŃ£å¸¸":6610,"45":6611,"éī":6612,"Ġincorporating":6613,"ç»´çĶŁç´ł":6614,"oun":6615,"Ġrevolutionize":6616,"sych":6617,"Ġdelivery":6618,"çĶ¨çļĦ":6619,"åįıè°ĥ":6620,"Ġloved":6621,"ä¸įè¶³":6622,"Ġinse":6623,"éī´":6624,"Ġviol":6625,"cision":6626,"Ġbrain":6627,"ĠCommun":6628,"Ġblack":6629,"æľīæľº":6630,"éº»":6631,"æľĢé«ĺ":6632,"ĠConsider":6633,"ĠAmazon":6634,"Ġexciting":6635,"Ġâ":6636,"æľīæķĪåľ°":6637,"ĠSystem":6638,"å¥¥":6639,"å¼±":6640,"æ¶µ":6641,"Ġenabling":6642,"åħ¬éĩĮ":6643,"åĲĪçī©":6644,"Ġcontact":6645,"çĥ¤ç®±":6646,"olving":6647,"çĶµåĻ¨":6648,"ç¾İå¥½":6649,"è´Ŀ":6650,"Ġenable":6651,"Ġbuildings":6652,"inary":6653,"bre":6654,"æ·±åº¦":6655,"Ġcontain":6656,"æĽ´å®¹æĺĵ":6657,"Ġstyles":6658,"ID":6659,"çļĦç¬¬":6660,"æĹ¢":6661,"Ġeth":6662,"å¦Ļ":6663,"çļĦæ´»":6664,"åŃ£èĬĤ":6665}